#version: 0.2
t h
i n
th e</w>
a n
y o
e d</w>
e r
t o</w>
yo u</w>
r e
o u
in g</w>
a r
o n
t i
e r</w>
a t</w>
an d</w>
e n
o n</w>
o f</w>
o r
a l
i s</w>
i n</w>
i t</w>
s t
w h
a s</w>
i t
v e</w>
r o
h e</w>
e s</w>
m e</w>
n o
h a
' s</w>
e n</w>
l l</w>
o r</w>
l i
a t
th at</w>
a c
a n</w>
l e
s t</w>
l y</w>
th e
b e
c o
er e</w>
d i
r i
s e</w>
l o
s e
s i
w as</w>
l e</w>
n '
b e</w>
n' t</w>
l d</w>
u r
m e
f or</w>
. .
.. .</w>
w e</w>
b u
c a
ti on</w>
s a
s h
d e
g h
d o</w>
n e
m a
ha ve</w>
g o
u n
i c
l a
ou t</w>
k e</w>
r a
h i
w it
a b
no w</w>
wit h</w>
a l</w>
s u
en t</w>
c on
w i
al l</w>
h o
p ro
ou ld</w>
s o
th is</w>
gh t</w>
h e
bu t</w>
no t</w>
the y</w>
on e</w>
t a
g e
c e</w>
d o
e v
p o
` `</w>
m i
t s</w>
m y</w>
p e
r e</w>
t o
wh at</w>
' '</w>
ar e</w>
a y</w>
t e
f i
u r</w>
co m
yo ur</w>
a s
s o</w>
i f</w>
' ll</w>
w e
f or
' re</w>
u st</w>
h is</w>
' m</w>
s he</w>
k now</w>
c i
B -</w>
th er</w>
m o
th ing</w>
ou n
an t</w>
c h
hi m</w>
a g
p p
t ed</w>
s s</w>
e x
R B-</w>
wi ll</w>
v i
th ere</w>
i d</w>
b y</w>
di d</w>
a d
t r
f e
h er</w>
b o
f ro
w or
g i
fro m</w>
u c
ha d</w>
q u
t er
d s</w>
g u
t er</w>
ge t</w>
k ing</w>
j ust</w>
ti on
li ke</w>
p er
wh en</w>
s ed</w>
d e</w>
u p</w>
w ere</w>
th in
c an</w>
v er</w>
n o</w>
v er
c e
m ent</w>
at e</w>
p ar
ab out</w>
a r</w>
p re
l l
go t</w>
lo o
f in
al ly</w>
ur e</w>
m or
er s</w>
m p
y e
a d</w>
w n</w>
so me
u se</w>
w ould</w>
u s</w>
c h</w>
m b
h ere</w>
it y</w>
the m</w>
be en</w>
g o</w>
s p
ac k</w>
m in
sa id</w>
k e
w ant</w>
s si
i r</w>
p u
wh o</w>
c u
co me</w>
s ti
h as</w>
g e</w>
o p
k ed</w>
p l
t h</w>
v e
w ay</w>
t ing</w>
y s</w>
m an</w>
f a
' ve</w>
- R
thin k</w>
- L
r u
se e</w>
d er</w>
ti me</w>
ic h</w>
ou r</w>
f f
ho w</w>
g h</w>
w a
wh ich</w>
c ould</w>
ar d</w>
o d</w>
m en
an y</w>
d ing</w>
d ed</w>
ri ght</w>
a tion</w>
f u
s c
tion s</w>
oun d</w>
-R RB-</w>
-L RB-</w>
k i
d er
s s
p a
go ing</w>
n a</w>
m ar
k s</w>
i l
a f
th en</w>
n a
ca use</w>
i r
o ther</w>
wh ere</w>
f o
mor e</w>
le t</w>
b ack</w>
n i
m on
ou r
s pe
the ir</w>
ou gh</w>
ev er
ac e</w>
l u
r y</w>
g s</w>
on ly</w>
sh o
we ll</w>
y ing</w>
in to</w>
t y</w>
le a
g on</w>
w o</w>
at ed</w>
ta ke</w>
for e</w>
c t</w>
an ce</w>
mb er</w>
se l
b le</w>
on g</w>
d ay</w>
sh ould</w>
en d</w>
so me</w>
m s</w>
fi r
d y</w>
te ll</w>
s er
be cause</w>
a p
ic e</w>
l ed</w>
ab le</w>
st o
d u
ne w</w>
p ri
d a
t ur
it s</w>
y thing</w>
ev er</w>
some thing</w>
ti ve</w>
g re
v ed</w>
ou ght</w>
c or
c re
en ce</w>
t le</w>
f e</w>
sa y</w>
be fore</w>
st e
ev en</w>
n ed</w>
' d</w>
l it
t al
s in
t ra
ar s</w>
c k</w>
wh y</w>
j o
in e</w>
t ri
com p
s h</w>
t u
f f</w>
pe op
ne ver</w>
peop le</w>
g r
t e</w>
i m
c oun
do wn</w>
ssi on</w>
g a
do es</w>
loo k</w>
o ver</w>
m an
j e
lo w
t ly</w>
ma ke</w>
ha pp
e l
ou s</w>
in ter
st r
sel f</w>
a u
ag a
th an</w>
v ing</w>
ne ed</w>
go od</w>
v o
fir st</w>
be t
t wo</w>
o se</w>
ar y</w>
l es</w>
c al
v es</w>
w an
b i
2 0
s ure</w>
e p</w>
n ing</w>
e t</w>
c a</w>
a pp
af ter</w>
b r
the se</w>
w o
g ra
t en
lit tle</w>
on s</w>
st ar
d uc
ti c
p e</w>
re ally</w>
si on</w>
h u
al i
o k</w>
he l
an g
s on</w>
me mber</w>
a m</w>
re n
ti es</w>
or t</w>
fin d</w>
re s</w>
i l</w>
re c
y es</w>
to o</w>
com m
it e</w>
ac h</w>
mi ssion</w>
e l</w>
f t</w>
c ar
m ed</w>
an d
o k
m ust</w>
ca l</w>
sti ll</w>
o ff</w>
c er
ac t</w>
i mp
gi ve</w>
con t
ver y</w>
wor k</w>
th ought</w>
f ri
re e</w>
j u
m es</w>
p la
wi th
to ld</w>
un der
men ts</w>
or i
d re
at es</w>
a h</w>
s ur
p i
in d</w>
m uc
o b
sh i
pu t</w>
th ose</w>
muc h</w>
ok ay</w>
g en
o ff
n e</w>
ma de</w>
c he
s en
r in
- -</w>
se e
l s</w>
p s</w>
r ed</w>
me an</w>
at e
qu e
ma y</w>
w at
an s</w>
en ti
ca me</w>
ll ed</w>
li fe</w>
l t</w>
l ong</w>
re ad
sh all</w>
si de</w>
i s
ye ars</w>
c lo
c our
th er
mo st</w>
b ro
si g
m en</w>
k no
k en</w>
s y
m u
com mission</w>
su b
s or
de ci
la st</w>
al so</w>
lo w</w>
e ss</w>
c lu
w s</w>
ag e</w>
bo dy</w>
st ed</w>
th r
ye ah</w>
d one</w>
p h
st a
fu l</w>
s es</w>
wa ys</w>
tr y</w>
c ur
pro b
pro vi
su ch</w>
an ything</w>
f ound</w>
aga in</w>
b a
c es</w>
tion al</w>
e f
pl ace</w>
u sed</w>
wan ted</w>
spe ci
a m
m at
st u
c hi
s ing</w>
yo ne</w>
hel p</w>
an i
la tion</w>
an s
st s</w>
t re
c tion</w>
at ing</w>
s sed</w>
en ed</w>
un i
o h</w>
c all</w>
po in
read y</w>
n u
b re
be ing</w>
or s</w>
h ou
or y</w>
c ted</w>
a way</w>
w r
sh ed</w>
ar ound</w>
ro o
ma y
m r
fo l
li c
20 0
some one</w>
ke ep</w>
c le
qu i
thr ough</w>
in gs</w>
ca tion</w>
e u
di ff
ever ything</w>
p t</w>
al ways</w>
ni ght</w>
le ss</w>
may be</w>
pp ed</w>
c t
he ad</w>
e y</w>
l in
un der</w>
l ing</w>
l ar
tal k</w>
di s
wh i
st er</w>
g er</w>
v en
pro ce
ri ed</w>
sa me</w>
pro duc
w ar
gi r
ta in</w>
se t</w>
sin ce</w>
in for
co l
le ft</w>
be li
po sed</w>
an ge</w>
bet ter</w>
o ld</w>
thin gs</w>
an k</w>
c ha
ca se</w>
w al
t en</w>
c la
x t</w>
no thing</w>
u e</w>
re p
o wn</w>
t ting</w>
ar tic
k es</w>
ll ing</w>
f r
wor ld</w>
to ok</w>
ro w</w>
lo ve</w>
h ar
ch ar
ac h
at h</w>
st and</w>
f er
w er</w>
di rec
ca p
hou se</w>
sor ry</w>
ic i
v en</w>
m any</w>
s ha
in ed</w>
whi le</w>
ever y</w>
f uc
mi ght</w>
or t
o l</w>
with out</w>
cal led</w>
e ve</w>
wh o
th ree</w>
po ssi
gre at</w>
re gu
on ce</w>
an other</w>
un ti
it ed</w>
su p
per i
ho me</w>
al s</w>
do ing</w>
lo t</w>
artic le</w>
d ra
la r</w>
con si
su pp
k new</w>
unti l</w>
ap pro
d en
o per
h an
or der</w>
roo m</w>
ou s
shi p</w>
eu ro
f ace</w>
ma tion</w>
i ght</w>
par t</w>
we e
a k</w>
p en
st ates</w>
ser v
z e</w>
na me</w>
gu y</w>
t ure</w>
f ac
p ic
s ent</w>
mon ey</w>
e ach</w>
m er
fa ther</w>
f un
g ed</w>
c ho
en ough</w>
i d
ta ken</w>
mr .</w>
st an
sa w</w>
n er</w>
in s</w>
il ity</w>
b l
ar i
we en</w>
ke t</w>
lea ve</w>
fe el</w>
0 0</w>
ti mes</w>
u m</w>
ki ll</w>
sto p</w>
he ard</w>
s it
w ent</w>
bet ween</w>
pl an
se en</w>
lea se</w>
t es</w>
c ra
que s
ne e
er ed</w>
me di
diff er
c en
loo king</w>
sho w</w>
sy ste
p as
l at
infor mation</w>
as ked</w>
au th
e ar
pu b
app li
se con
n or
h al
l on
u p
ce ss
fol low
th ough</w>
re as
as ed</w>
li st
ac cor
v al
ne xt</w>
tur n</w>
al ready</w>
d ri
st ra
po li
beli eve</w>
l ly</w>
min u
fi ed</w>
l li
g one</w>
b or
d es</w>
h and</w>
pro te
t a</w>
fri end</w>
in g
li ght</w>
re e
bo th</w>
st ate</w>
par ti
yo ur
st ri
in di
b ur
gen er
i de
fa mi
to ge
min d</w>
toge ther</w>
ac ti
happ ened</w>
vi e
tr ying</w>
c are</w>
c ed</w>
re member</w>
w ard</w>
s k
pub li
be g
l and</w>
e yes</w>
an y
as k</w>
c y</w>
ab ly</w>
ca r</w>
possi ble</w>
go d</w>
c ou
ar ed</w>
er i
l an
ou t
y ed</w>
sup posed</w>
ci al</w>
ch ed</w>
con cer
v a
under stand</w>
he ar</w>
to day</w>
h er
k ind</w>
be st</w>
ter s</w>
ta king</w>
a re
d ers</w>
at t
el se</w>
h un
aga in
str uc
gir l</w>
fe w</w>
b ad</w>
again st</w>
h ur
b ri
ne ss</w>
t on
comp le
he ar
he y</w>
t al</w>
s le
ac ce
ho w
d ge</w>
poin t</w>
ye ar</w>
e st</w>
p lease</w>
h on
ch ange</w>
sp on
de ad</w>
na tional</w>
da ys</w>
d ent</w>
bi g</w>
d d
e mp
st ing</w>
tur ned</w>
b ed</w>
p le</w>
g ar
wo man</w>
com ing</w>
s m
prob le
c ro
ki lled</w>
g y</w>
e le
c ri
l ine</w>
cont ro
p ur
w in
how ever</w>
mo ther</w>
ll s</w>
an yone</w>
m y
der ed</w>
it ing</w>
t y
d ar
ct or</w>
lo st</w>
hi m
tu ally</w>
c r
tr ans
so on</w>
cour t</w>
sa ys</w>
ye t</w>
ti c</w>
f act</w>
p rin
jo b</w>
d ro
ac k
who le</w>
re st</w>
wa it</w>
s on
me ans</w>
z ed</w>
ef fe
loo ked</w>
re spon
ate ly</w>
nu mber</w>
gu ess</w>
in ve
ta tion</w>
tr u
him self</w>
en g
cour se</w>
d in
d at
w ing</w>
euro pe
star t</w>
s k</w>
b er
st re
un g</w>
p ing</w>
br ing</w>
d ur
ge tting</w>
d r
regu lation</w>
ch ang
c ts</w>
b en
tal king</w>
ss ing</w>
en ts</w>
st ay</w>
cont in
di e</w>
deci sion</w>
b loo
fri en
b ar
ne cess
n y</w>
p r
li m
fami ly</w>
S B-</w>
a tions</w>
europe an</w>
re al</w>
wh e
o ver
me et</w>
do or</w>
f ar</w>
syste m</w>
vo l
in i
b ra
ap pe
our s</w>
sc ho
lea st</w>
differ ent</w>
la w</w>
ever yone</w>
ve lo
gu ys</w>
imp ort
un ity</w>
le g
gh ts</w>
je ct</w>
in clu
par t
secon d</w>
prob ably</w>
ex pe
min i
ga ve</w>
ag o</w>
in cre
p or
mo ve</w>
ther e
st ab
list en</w>
ex ce
c k
ve l</w>
en ing</w>
o t</w>
wat er</w>
m ur
be h
th s</w>
c at
op en</w>
beh ind</w>
ma g
al l
com pe
ir d</w>
e s
u gh
su res</w>
n s</w>
co ver
publi c</w>
e u</w>
c tive</w>
li ve</w>
g ro
me a
si r</w>
star ted</w>
n ice</w>
bo y</w>
gi ven</w>
p er</w>
' il</w>
tri ed</w>
c an
ca u
w on
e d
tr ac
20 1
re fer
b ab
h ard</w>
vie w</w>
de velo
si ons</w>
re gi
f ic
o l
necess ary</w>
p ed</w>
auth ori
f ur
happ y</w>
ac coun
po si
in ing</w>
u h</w>
ide a</w>
en s</w>
sa ying</w>
bu sin
n at
th ers</w>
re su
t ro
wor d</w>
as se
he ad
pro gra
han ds</w>
t able</w>
fin e</w>
go ver
b it</w>
di sa
l ate</w>
c ked</w>
g er
h or
1 9
c ity</w>
mar ket</w>
m p</w>
po se</w>
fr on
ho pe</w>
fin an
a se</w>
your self</w>
m er</w>
for m</w>
bu il
cu t</w>
t on</w>
wan ts</w>
de ath</w>
ex a
ma l</w>
hi gh
it al</w>
le ar
ous ly</w>
ho l
min e</w>
o c
s po
frien ds</w>
d ly</w>
di es</w>
ru n</w>
bre a
in st
mea sures</w>
import ant</w>
th ank</w>
v ic
re ali
scho ol</w>
with in</w>
fi c</w>
ques tion</w>
fin i
pre t
con di
fo re
e i
g la
wor king</w>
st ro
mo ment</w>
mor ning</w>
wi fe</w>
fi g
com es</w>
ab o
st er
d ad</w>
f le
ac tually</w>
ma in</w>
fi ve</w>
wr ong</w>
parti cu
st ory</w>
sc re
dat a</w>
p ay</w>
u lt</w>
pa ti
st or
dur ing</w>
fu lly</w>
s it</w>
u l
f ra
gr ou
so l
lat er</w>
d ou
ser i
me t</w>
po wer</w>
j a
f re
contro l</w>
h ours</w>
there fore</w>
pla y</w>
an ts</w>
y e</w>
mo m</w>
pl ac
re qui
mp le</w>
ce i
per son</w>
r un
s al
minu tes</w>
loo ks</w>
coun try</w>
bloo d</w>
re spe
al most</w>
ge ts</w>
bab y</w>
w ed</w>
pro mi
yo ung</w>
mat ter</w>
c ks</w>
mor row</w>
fe lt</w>
gener al</w>
sc ri
m a</w>
d rin
se ar
fron t</w>
' cause</w>
mi ss</w>
re la
t ou
to morrow</w>
ac tion</w>
al ity</w>
ss es</w>
ad di
u ation</w>
k er</w>
sa tion</w>
comm it
hear t</w>
sh u
hi gh</w>
al one</w>
is su
ex p
busin ess</w>
re co
s ou
b ility</w>
whe ther</w>
direc tive</w>
s we
re ad</w>
he ll</w>
ra id</w>
ch ing</w>
e a
l uc
di ed</w>
ha ving</w>
g ing</w>
wh at
accor ding</w>
my self</w>
ir ed</w>
re le
hal f</w>
ci r
fuc king</w>
vi r
se cre
imp le
ph one</w>
chi l
b al
cle ar</w>
con o
al low
e cono
d ate</w>
ic k</w>
b as
se cur
ic es</w>
or g
sh it</w>
z y</w>
follow ing</w>
p le
te ch
proble m</w>
tr an
see ms</w>
p h</w>
e c</w>
inter e
stab li
sm all</w>
f our</w>
kno wn</w>
cou ple</w>
sho t</w>
e stabli
reas on</w>
clo se</w>
lo gi
a ir</w>
en tly</w>
af raid</w>
sti tu
ex i
mi c</w>
p ment</w>
su ff
hur t</w>
comp any</w>
m ing</w>
ki ds</w>
kno ws</w>
gr ound</w>
on es</w>
in vol
thin king</w>
fi re</w>
re cor
comm unity</w>
s ci
d -
gover n
cu l
m it
what ever</w>
c li
br ought</w>
d ance</w>
h it</w>
fu ll</w>
f y</w>
i g
pre sent</w>
ma king</w>
1 0</w>
cer tain</w>
mo ved</w>
mon ths</w>
t or</w>
are a</w>
h and
con su
so ci
cover ed</w>
see med</w>
rep ort</w>
fe el
th re
ex c
off ice</w>
ad v
f la
s li
be au
pret ty</w>
poli ce</w>
il ed</w>
ter ed</w>
m ic
sh ing</w>
hu man</w>
t w
col le
tr ue</w>
n al</w>
ho ld</w>
re cei
ag ra
in ten
le vel</w>
w ar</w>
appro pri
f lo
si l
rep or
ton ight</w>
do ctor</w>
peri od</w>
wee k</w>
be come</w>
mi lli
ex pla
ex peri
ra i
par ty</w>
secur ity</w>
ch ance</w>
concer ned</w>
happ en</w>
de ter
ru les</w>
gu n</w>
imple men
s our
er ic
con ne
a do
s is</w>
an ks</w>
sur pri
ke y</w>
b it
fi ght</w>
tre at
per son
re ly</w>
an ti
s .</w>
ren t</w>
vo ice</w>
de al</w>
b and</w>
par agra
pl an</w>
progra m
ti ves</w>
e f</w>
bro ther</w>
sto od</w>
bl ack</w>
l or
me mb
supp ort</w>
wo men</w>
ge ment</w>
nee ded</w>
g ation</w>
ar ly</w>
g le</w>
se ver
particu lar</w>
o ds</w>
t ar
di st
de f
te mp
no ti
gu ar
f ree</w>
in side</w>
ach ed</w>
wa iting</w>
on -
posi tion</w>
am eric
ic k
n er
sle ep</w>
u sing</w>
wat ch</w>
ex ac
ma kes</w>
o thers</w>
li e</w>
h y
i m</w>
oun ds</w>
ei ther</w>
r an
e ld</w>
abo ve</w>
in e
t t
r ing</w>
che ck</w>
re l
e at</w>
ca re
da m
m ou
s co
nee ds</w>
2 0</w>
de li
accoun t</w>
p ted</w>
dre n</w>
de stro
deci ded</w>
pre sen
chil dren</w>
s end</w>
ac ro
finan cial</w>
leg al</w>
d en</w>
he ld</w>
exac tly</w>
ci l</w>
me e
cau ght</w>
id enti
or ity</w>
ve ly</w>
wh ite</w>
ag ree
cra zy</w>
b ased</w>
p tion</w>
mar ried</w>
ob je
uni on</w>
wor ds</w>
g es</w>
bo o
su c
g ge
l ying</w>
at or</w>
te ly</w>
o f
s la
t -
t or
fin ally</w>
ar ing</w>
oper ation</w>
a id</w>
i mag
le y</w>
am oun
grou p</w>
le ad
pp ing</w>
d ang
tri es</w>
authori ties</w>
chang ed</w>
d a</w>
fo od</w>
te e</w>
al e</w>
g ni
as y</w>
ugh ter</w>
disa p
appli cation</w>
appropri ate</w>
app lic
v in
te st</w>
some times</w>
sig n</w>
coun cil</w>
qu ite</w>
0 00</w>
so lu
shu t</w>
provi ded</w>
fur ther</w>
it e
qu ired</w>
an ne
contin u
tru th</w>
y er</w>
si ve</w>
sel ves</w>
in t</w>
in f
go es</w>
s er</w>
do cu
inve sti
ta in
si x</w>
a ir
beg an</w>
ans wer</w>
i la
ch es</w>
re turn</w>
to wn</w>
l ou
run ning</w>
govern ment</w>
ga me</w>
ri sk</w>
sear ch</w>
bre ak</w>
pa id</w>
serv ice</w>
reco gni
c tions</w>
c ing</w>
wal k</w>
d ure</w>
cap tain</w>
p at
w an</w>
org ani
cu sto
provi de</w>
ben ef
b la
yo u
ab ility</w>
respe ct</w>
z ing</w>
sever al</w>
p hi
ev id
do m</w>
serv ices</w>
d ru
le gi
te lling</w>
si ble</w>
re gar
a va
drin k</w>
beau ti
he al
bo ard</w>
acro ss</w>
re que
dre ss</w>
dou b
in v
ad mini
t un
e -
ir s</w>
tr ust</w>
h our</w>
k y</w>
minu te</w>
le t
con clu
do w</w>
sto pped</w>
uc k</w>
ke pt</w>
bo ok</w>
compe ti
u su
condi tions</w>
s sa
fi cation</w>
he a
in te
sit uation</w>
ju sti
dar k</w>
ava ila
emp lo
paragra ph</w>
a mon
lon ger</w>
as s</w>
sa ve</w>
stan ding</w>
re li
proce dure</w>
wor ry</w>
fe et</w>
m it</w>
wi sh</w>
hu s
sig ned</w>
tr ou
e asy</w>
er ing</w>
tran sp
con te
s an
pa st</w>
s mi
bas is</w>
th ird</w>
pre par
al ong</w>
pi e
jo h
f ar
en sure</w>
th ro
beauti ful</w>
-L SB-</w>
c ru
evid ence</w>
sh e
li st</w>
d ding</w>
-R SB-</w>
b b
ur ed</w>
si c</w>
ci p
in de
ne i
fu ture</w>
for get</w>
s mo
for ce</w>
sen se</w>
fuc k</w>
speci fic</w>
speci al</w>
li es</w>
re quired</w>
chi ld</w>
lo se</w>
fi eld</w>
la y</w>
invol ved</w>
ini ti
i c</w>
fe ll</w>
pre si
ca tions</w>
at s</w>
diff ic
der ing</w>
c lar
al y
s y</w>
fa v
f all</w>
mi ssi
sa fe</w>
se le
milli on</w>
mu l
g ri
tri bu
ali ve</w>
bu d
li ves</w>
ter ri
produc ts</w>
e ye</w>
v al</w>
b lo
co sts</w>
hus band</w>
rele v
availa ble</w>
b ir
d on</w>
en er
c le</w>
coun tries</w>
da ughter</w>
ever y
ar gu
a i</w>
dd en</w>
ca ses</w>
il s</w>
b an
f er</w>
t ent</w>
fi l
r an</w>
sa l</w>
ti cal</w>
as ure</w>
car ried</w>
3 0</w>
fig ure</w>
econo mic</w>
out side</w>
at ten
per fe
cir cu
comp ani
ha ir</w>
refer red</w>
ev ed</w>
po w
? !</w>
bu y</w>
b at
resu l
k id</w>
li ke
ll er</w>
st e</w>
co ver</w>
g in
te am</w>
a w
f -
r ac
sti c</w>
ro ad</w>
du ce</w>
o w
consi dered</w>
ch ri
li ed</w>
me ant</w>
allow ed</w>
g ers</w>
sh ou
po lic
bu t
pa y
ex pre
im pro
l y
wee ks</w>
wr it
on al</w>
pa ren
as su
ho sp
com pu
t ten</w>
o d
ta kes</w>
im medi
ear th</w>
d an
re si
ma in
ser ve</w>
c y
st and
relev ant</w>
dam n</w>
pic k</w>
en cy</w>
com men
ser ved</w>
n on-
le ad</w>
lar ge</w>
ta ined</w>
pri v
ni fic
fa st</w>
hu h</w>
spe ak</w>
mo ving</w>
me mor
b lu
ac hi
pro po
gir ls</w>
part ment</w>
m ach
agree ment</w>
amoun t</w>
cat ch</w>
di sp
fu n</w>
sc he
requi re
treat ment</w>
buil ding</w>
p id</w>
re ct</w>
off ic
me ssa
men tal</w>
bu l
applic ant</w>
con tr
vi ties</w>
dr .</w>
enti re</w>
e qui
accor dance</w>
mit ted</w>
per ha
en ces</w>
man ag
ques tions</w>
bor n</w>
perha ps</w>
we l
any way</w>
i es</w>
c ated</w>
polic y</w>
de fin
mou th</w>
fo o
s ound</w>
z z
sin gle</w>
secre t</w>
oun ded</w>
ra ther</w>
b s</w>
vi sion</w>
to p</w>
ar ri
gr an
se qu
mar k</w>
ju d
v ity</w>
ener gy</w>
re duc
m oun
fi le</w>
th y</w>
acti vities</w>
paren ts</w>
mi sta
qu ick
sur vi
me an
ob li
sig nific
lor d</w>
wor ried</w>
c ent</w>
i -
up on</w>
p es</w>
inter est</w>
f al
presi dent</w>
produc t</w>
ra di
wor ked</w>
sub ject</w>
develo pment</w>
prin ci
af fe
x ed</w>
or din
la dy</w>
x i
w all</w>
or e</w>
in es</w>
go tten</w>
la w
su gge
b ru
me th
5 0</w>
ro r</w>
ter r
stre et</w>
li ving</w>
in ste
co ld</w>
mee ting</w>
l er</w>
we ap
an ta
str ong</w>
lea ving</w>
kno w
in du
k o
s qu
v ari
disap pe
, 000</w>
some where</w>
ac tions</w>
o pp
val ue</w>
b all</w>
a -
stan ces</w>
inve st
ac ked</w>
acce ss</w>
1 0
addi tion</w>
quick ly</w>
p ho
prote ction</w>
pro fe
su d
th anks</w>
de ta
tion ed</w>
for m
comple tely</w>
sp ace</w>
stu ff</w>
inclu ding</w>
re ma
trou ble</w>
app ly</w>
ke e
amon g</w>
pro per
wor ks</w>
produc tion</w>
su per
k ers</w>
e qu
st ry</w>
sho ot</w>
b le
si mp
t in
in tro
tra de</w>
de scri
ea si
of ten</w>
nat ure</w>
c ting</w>
wr ite</w>
ch an
ne y</w>
att ack</w>
sc ared</w>
par ties</w>
j ack</w>
a men
1 5</w>
din ner</w>
lin es</w>
st y</w>
th ous
sud den
like ly</w>
an aly
e mb
t ary</w>
char ac
see m</w>
inste ad</w>
ma ge</w>
s ki
b ank</w>
sudden ly</w>
for ward</w>
st ance</w>
su m
dd le</w>
lo gy</w>
pri ce</w>
v y</w>
as si
sa fe
si ster</w>
we 'il</w>
cer tain
promi se</w>
gr and
proble ms</w>
min ation</w>
no r</w>
gi c</w>
sc en
19 9
anne x</w>
en e
c s</w>
mur der</w>
1 2</w>
con fir
m b</w>
do g</w>
comm on</w>
pati ents</w>
admini stra
f ree
off ici
some body</w>
ti s
i a</w>
it self</w>
ma j
bro ken</w>
incre ase</w>
establi shed</w>
comm uni
bo ys</w>
expla in</w>
si des</w>
a ma
gla d</w>
b il
ag es</w>
re commen
ca pe</w>
to m</w>
ele c
w in</w>
te l</w>
clo sed</w>
e li
t le
ke ts</w>
asse ss
commit tee</w>
sit ting</w>
car ry</w>
st ren
op ini
lear n</w>
nor mal</w>
d ence</w>
y -
wi se</w>
proce ss</w>
ne ws</w>
tu res</w>
in stitu
fol low</w>
en vir
ter m</w>
gu e</w>
l un
flo or</w>
s a</w>
i .</w>
m ate</w>
prote ct</w>
envir on
expe cted</w>
ag re
def en
contin ue</w>
be t</w>
provi sions</w>
the m
pas sed</w>
ar ds</w>
s me
indi vi
your s</w>
happ ens</w>
stu pid</w>
s un
s ite</w>
man a
stren g
tu al</w>
wh ose</w>
m ers</w>
indivi du
effe ct</w>
b ack
vic ti
fe ar</w>
lo ved</w>
ob vi
cle an</w>
bo t
immedi ately</w>
re presen
implemen tation</w>
sk y</w>
ri ghts</w>
ho t</w>
resu lt</w>
seri ous</w>
gh t
s low
fi lled</w>
du e</w>
speci ally</w>
pa in</w>
ne t
nat ur
diffic ult</w>
sour ces</w>
hosp ital</w>
do w
m as</w>
d it
mr s.</w>
un less</w>
se par
com par
i re</w>
ans w
dri ve</w>
con vin
a vo
se a</w>
auth ority</w>
al though</w>
con ver
it h</w>
memb ers</w>
we a
si ck</w>
atten tion</w>
as soci
sh ort</w>
pur pose</w>
sp ir
them selves</w>
so cial</w>
ar m</w>
pla ying</w>
m al
d on
lo cal</w>
program me</w>
s ort</w>
ma ster</w>
priv ate</w>
know le
tou ch</w>
gi ving</w>
mi les</w>
l a</w>
mana gement</w>
min ed</w>
mat eri
exc use</w>
a ms</w>
in ning</w>
wor se</w>
e m</w>
p an
bo x</w>
g n
fini shed</w>
th o
te le
bu n
ta ins</w>
hon or</w>
dis cu
h en
n ers</w>
gu i
exp lo
th us</w>
no body</w>
m r</w>
assess ment</w>
cont act</w>
in a</w>
messa ge</w>
pro ject</w>
sh are</w>
exce pt</w>
wor th</w>
b on
con tribu
t an
pr acti
ori es</w>
j an
com man
i ll
un k</w>
g g
s se
char ge</w>
al low</w>
uni ver
continu ed</w>
require ments</w>
ac y</w>
circu m
joh n</w>
e ss
ste p</w>
war ds</w>
im um</w>
sp ent</w>
ti al</w>
bro ke</w>
p ra
vi l
person al</w>
feel ing</w>
e specially</w>
ty pe</w>
con trac
pu ll</w>
on ed</w>
e ly</w>
experi ence</w>
re ached</w>
ici ent</w>
d it</w>
poin ted</w>
ri s
as king</w>
exa mple</w>
op ened</w>
lear ned</w>
k a
ho od</w>
ta x</w>
sh es</w>
rai sed</w>
fr an
writ ten</w>
win dow</w>
fa ir</w>
n one</w>
surpri sed</w>
resul ts</w>
dre ssed</w>
ing ly</w>
any more</w>
issu e</w>
st ate
ef for
com b
st ers</w>
mon it
su n</w>
se x</w>
d red</w>
ori gin
de b
parti cip
agre ed</w>
compu ter</w>
expe ct</w>
ti red</w>
de ep</w>
in no
mon th</w>
g ate</w>
euro pe</w>
reas ons</w>
en jo
chang es</w>
terri ble</w>
ne t</w>
re ci
qu ar
ear ly</w>
a st</w>
hol ding</w>
investi gation</w>
cen tra
i i</w>
re pe
ren tly</w>
re ach</w>
tech ni
intere sted</w>
pas s</w>
de te
appli ed</w>
guar an
inter national</w>
p al
pie ce</w>
dre am</w>
see ing</w>
low er</w>
lim ited</w>
thin ks</w>
opini on</w>
t ors</w>
ad ded</w>
l en
ci es</w>
bra in</w>
de e
si mi
th row</w>
be low</w>
at er</w>
sh ar
an ge
comple te</w>
h ic
fi sh</w>
com for
at u
s ar
opp ort
mar y</w>
plac ed</w>
w ind</w>
g lo
e m
re search</w>
rel ated</w>
rela tion
pa in
fin al</w>
me work</w>
consi der</w>
ci vi
supp or
ne w
sp end</w>
ph y
ex pen
fa ult</w>
g un
st one</w>
at ure</w>
man u
legi s
b ly</w>
hun dred</w>
an im
po or</w>
ti n</w>
competi tion</w>
s ons</w>
direc tly</w>
ac ci
f it</w>
cur rent</w>
li ved</w>
en ty</w>
cre ate</w>
se ction</w>
s ence</w>
follow ed</w>
z en</w>
gro w
co st</w>
fi gh
mi ssing</w>
sig n
f fe
st ly</w>
imag ine</w>
mp ed</w>
for tun
recei ved</w>
e mer
re g
se tt
au to
sk in</w>
wa ke</w>
e ty</w>
tic ally</w>
pic ture</w>
es cape</w>
ad dress</w>
her self</w>
comp li
tech no
syste ms</w>
c ti
pa per</w>
c in
ri es</w>
ha te</w>
shou l
1 1</w>
hi story</w>
m on</w>
g as</w>
ev ent</w>
off er</w>
ne arly</w>
pro je
stu dy</w>
t ory</w>
bo dies</w>
ve ment</w>
no tic
heal th</w>
won der</w>
j un
cho ice</w>
r k</w>
g ged</w>
p ort</w>
c king</w>
g -
ado pted</w>
bit ch</w>
hu man
offic er</w>
be at</w>
la u
m m</w>
ar my</w>
tra ining</w>
g ger</w>
r ate</w>
gre en</w>
blu e</w>
to tal</w>
con fi
enti al</w>
mi l
noti ce</w>
fa iled</w>
reali zed</w>
sp i
consi der
en ded</w>
ll o</w>
a head</w>
prepar ed</w>
plan e</w>
mo vi
contr act</w>
k in</w>
st ation</w>
se ll</w>
ar ms</w>
a tive</w>
cal ling</w>
mi ssed</w>
a po
ve hic
destro y</w>
ter ms</w>
be came</w>
c lin
gu ard</w>
wat ching</w>
an n
we st</w>
luc ky</w>
doub t</w>
we ird</w>
o s</w>
beg inning</w>
mi ddle</w>
sa ved</w>
ex ten
im pre
str ate
certain ly</w>
every body</w>
shi ps</w>
de ar</w>
tal ked</w>
sho wed</w>
let ter</w>
sta irs</w>
str ange</w>
are as</w>
st age</w>
co p
su spe
we ar</w>
cle arly</w>
s ity</w>
perfe ct</w>
ig n</w>
signific ant</w>
mo de
st af
pre vi
af ter
z e
cla ss</w>
f l
la id</w>
nei gh
e g
wat ched</w>
high er</w>
ch all
promi sed</w>
a de
re fu
er ous</w>
stra ight</w>
usu ally</w>
recor d</w>
americ an</w>
s pre
o ther
re turned</w>
c us</w>
un ited</w>
phy si
v an</w>
re main</w>
f ren
ru ssi
natur al</w>
knowle dge</w>
r ou
ca ble</w>
for med</w>
spe a
s at</w>
gen tle
reque st</w>
staf f</w>
at ors</w>
circum stances</w>
j our
s word</w>
fun ny</w>
th i
ag ent</w>
hand le</w>
ar t</w>
pp er</w>
lo cked</w>
do ws</w>
respon sible</w>
men tioned</w>
logi cal</w>
sol di
ri d</w>
th es</w>
lit ary</w>
compani es</w>
no te</w>
ssi ve</w>
s cu
mar i
b ar</w>
j er
sup pose</w>
de mon
up set</w>
you 'il</w>
t ally</w>
har ry</w>
poin ts</w>
de v
plan et</w>
ex clu
hu ge</w>
maj or</w>
val u
buil t</w>
imp act</w>
n ar
li ties</w>
lar ly</w>
inst ru
cri me</w>
dow n
mach ine</w>
cre ated</w>
s wi
bo ss</w>
u se
qu ality</w>
refer ence</w>
v ent</w>
con ce
s ounds</w>
r ange</w>
fra mework</w>
mu sic</w>
p sy
effe ctive</w>
princi ple</w>
vi sit</w>
or ders</w>
ne ar</w>
k in
se ven</w>
fig ured</w>
an nu
su sp
sa tis
sle e
clo thes</w>
pro mo
den ts</w>
deci de</w>
i se</w>
anim als</w>
e ight</w>
po ten
2 .
na med</w>
slow ly</w>
l in</w>
wal ked</w>
pre ss
dang erous</w>
relation ship</w>
be l
pri son</w>
en ter
n d</w>
cho ose</w>
l er
per s</w>
ca mer
notic ed</w>
propo sal</w>
po pu
tur ning</w>
we dding</w>
pro gre
to ward</w>
co ffe
s mar
il ing</w>
ll a</w>
e ding</w>
k a</w>
legis lation</w>
g ment</w>
al ed</w>
ad ed</w>
du ty</w>
al ing</w>
r ying</w>
ang er</w>
ct ors</w>
g in</w>
di sc
pro ve</w>
se ctor</w>
j ac
for d</w>
de pen
ed ings</w>
k it
pu lled</w>
suc cess
ga tions</w>
suc ce
proce edings</w>
e se</w>
wo od</w>
hor se</w>
mi litary</w>
acce pt</w>
ag ree</w>
co o
lo ck</w>
fir ed</w>
li sh</w>
conte xt</w>
ci ti
ye ster
appro ach</w>
bi o
ki lling</w>
co operation</w>
yo rk</w>
ru le</w>
k ni
1 .
li er</w>
qui et</w>
yester day</w>
i ms</w>
a .</w>
safe ty</w>
solu tion</w>
other wise</w>
or ed</w>
we aring</w>
di r
cou ra
plac es</w>
ma gic</w>
le ss
gran ted</w>
ven tion</w>
cla im</w>
ve ls</w>
tur ns</w>
ri de</w>
k ne
pur su
mista ke</w>
ev en
justi ce</w>
ch ur
con sequ
qu e</w>
du res</w>
op s</w>
ki ller</w>
be ar</w>
ti ll</w>
nor th</w>
im ed</w>
tic s</w>
indu stry</w>
chri st
hel ped</w>
la tions</w>
f ly</w>
s en</w>
equi pment</w>
at temp
ad e</w>
fi x</w>
memor y</w>
co de</w>
proce dures</w>
vi ol
dro pped</w>
fini sh</w>
coffe e</w>
ho tel</w>
sci enti
intro duc
transp ort</w>
re sources</w>
ma tic</w>
comp la
docu ments</w>
par ts</w>
individu al</w>
bu i
mul ti
er y</w>
en tered</w>
s m</w>
d ying</w>
spo ke</w>
m ous</w>
c ate</w>
m ac
fi f
re ve
gh tly</w>
ne ck</w>
t ch</w>
simi lar</w>
bui ld</w>
sel f-
wr iting</w>
ama zing</w>
ev al
effe cts</w>
c tives</w>
bo at</w>
tra in</w>
y ers</w>
re stri
d ings</w>
l it</w>
th ir
reali ze</w>
ani mal</w>
st -
la ugh
cal ls</w>
v ac
simp ly</w>
jo in</w>
st ar</w>
ho le</w>
sour ce</w>
su s</w>
cha ir</w>
s na
reg ard</w>
ex per
e ff
con stitu
as sa
mi d
vo lu
di se
ba g</w>
won dering</w>
st uck</w>
sho p</w>
k en
ro ck</w>
ro b
cr it
sou th</w>
b ought</w>
mb ers</w>
r ound</w>
se x
me asure</w>
stor e</w>
go ods</w>
al le
u l</w>
in ation</w>
col on
ca used</w>
concer ning</w>
y a</w>
spe ed</w>
cer ti
press ure</w>
thous and</w>
pic ked</w>
sco pe</w>
m c
ach ing</w>
t t</w>
c ard</w>
han g</w>
struc ture</w>
no on</w>
brea k
u ne
2 5</w>
ri ver</w>
fore ver</w>
ter i
v or
g ly</w>
go ld</w>
app reci
con fu
gre e
th ou
1 4</w>
ex e
sti ck</w>
w ro
ri ch</w>
avo id</w>
f low
str on
bat tle</w>
dra w</w>
or dered</w>
di stri
si ze</w>
ty -
sho o
crit eri
provi des</w>
f li
wro te</w>
y ment</w>
ta x
p ack
for ms</w>
pe ace</w>
cro w
gla ss</w>
smi le</w>
aw are</w>
ge or
fren ch</w>
pl ans</w>
b low</w>
destro yed</w>
re fle
tra di
in sur
k ing
suff icient</w>
1 00</w>
min al</w>
do se</w>
c ket</w>
tur al</w>
ti e</w>
adv anta
co ol</w>
secon ds</w>
cre dit</w>
be yo
k ness</w>
de clar
ann oun
l low</w>
si ght</w>
weap ons</w>
exe cu
g row</w>
wa ste</w>
r y
beg in</w>
a partment</w>
con sci
ur y</w>
dro p</w>
g l
lan gu
addi tional</w>
la un
hi de</w>
ki d
z ation</w>
compe tent</w>
condi tion</w>
beyo nd</w>
ad mit</w>
regar ds</w>
app a
techni cal</w>
ac ts</w>
ro le</w>
tar get</w>
si mple</w>
analy sis</w>
americ a</w>
fu l
m my</w>
z o
b er</w>
practi ce</w>
usu al</w>
i di
' em</w>
b al</w>
e ur</w>
ba se</w>
se ly</w>
te e
y le</w>
ver i
ene my</w>
we ight</w>
head ed</w>
is land</w>
ac tive</w>
dang er</w>
c er</w>
4 0</w>
star ting</w>
poli tical</w>
b ac
opport unity</w>
pla yed</w>
d ation</w>
be sides</w>
pre ss</w>
1 3</w>
chi ef</w>
intere sting</w>
t led</w>
fo ot</w>
incre ased</w>
st ered</w>
de sp
a- a-
sub mitted</w>
g al
go l
cap ital</w>
e sti
ci se</w>
s ac
sou l</w>
repor ts</w>
conte sted</w>
respon si
wh er
200 6</w>
de m
4 .
tre ated</w>
ca st</w>
ni e</w>
grow th</w>
co p</w>
repor ted</w>
ma d</w>
in spe
pre vent</w>
proje cts</w>
cla ssi
ce le
supp ly</w>
de signed</w>
follow s</w>
p in
he llo</w>
state ment</w>
vil la
movi e</w>
n ic
c ally</w>
under stood</w>
s wit
at en</w>
jud gment</w>
dra wn</w>
comm and</w>
ver s</w>
imp or
li a
struc tion</w>
re lease</w>
offici al</w>
go ti
disappe ared</w>
acti vity</w>
cap ac
r ace</w>
d y
surpri se</w>
provi sion</w>
ri age</w>
wh is
a mb
cal m</w>
as h</w>
wo l
t te</w>
fun ds</w>
ar -
s -
m -
possi bility</w>
che cked</w>
appe al</w>
ang ry</w>
mean ing</w>
tw ice</w>
ne goti
ch en</w>
mo re
ju dge</w>
ar ti
acci dent</w>
un cle</w>
off ered</w>
1 6</w>
ad ju
tur ed</w>
da mage</w>
t ab
li ar</w>
1 8</w>
exi sting</w>
obvi ously</w>
manag ed</w>
or ing</w>
emp ty</w>
conne ction</w>
s par
s lo
li ked</w>
ca mp
ate st</w>
p ath</w>
ou d</w>
care ful</w>
dri ving</w>
deter mined</w>
su it</w>
p ha
co ps</w>
origin al</w>
ev il</w>
net work</w>
ar ra
elec tri
beli eved</w>
victi m</w>
for got</w>
bu sy</w>
ll -
vi de
g ar</w>
u ght</w>
for ced</w>
coun t</w>
pati ent</w>
ex er
hon est</w>
ev ening</w>
obje ctives</w>
chur ch</w>
cle an
in ci
rele ased</w>
cla ims</w>
con duc
terr it
na mes</w>
part ner</w>
inter nal</w>
le vels</w>
un t</w>
soci ety</w>
poten tial</w>
fo ol</w>
ma il</w>
rai se</w>
f lu
sh ir
no se</w>
de p
spre ad</w>
re view</w>
pay ment</w>
ste ps</w>
le ts</w>
un it</w>
sti cs</w>
an a</w>
d or</w>
de ce
manu fac
di rect</w>
re memb
2 4</w>
th u
fi xed</w>
cre w</w>
re -
to o
ma x
so ld</w>
hea vy</w>
inclu ded</w>
qu ick</w>
hon ey</w>
ro se</w>
que en</w>
k ings</w>
ari es</w>
hi dden</w>
ad ver
pri ces</w>
se at</w>
gu il
boo ks</w>
cu sed</w>
b by</w>
f light</w>
sa m</w>
w on</w>
po ses</w>
inten ded</w>
ac e
per sons</w>
wi l
pro posed</w>
head ing</w>
er al</w>
m un
ab solu
inter pre
on er</w>
g an</w>
e du
ce ll</w>
progre ss</w>
v a</w>
invest ment</w>
tee th</w>
s per
medi c
materi al</w>
w ine</w>
sho wn</w>
direc tion</w>
cu ri
c ure</w>
proper ty</w>
am ing</w>
swe ar</w>
consu l
mo on</w>
inclu de</w>
figh ting</w>
200 4</w>
de ser
clu b</w>
sho ws</w>
dev ice</w>
e mo
st le</w>
fin ding</w>
cor rec
a part</w>
streng th</w>
head s</w>
deci sions</w>
200 8</w>
de si
bre ath</w>
lun ch</w>
inf rin
gentle men</w>
gh ten
fo cus</w>
progra m</w>
administra tive</w>
z i
answ ered</w>
ig nor
scen e</w>
ou gh
plan ned</w>
fin gers</w>
t ree</w>
ba sic</w>
medi cal</w>
clo ser</w>
e c
easi ly</w>
even tually</w>
differ ence</w>
bur n</w>
bud get</w>
wi de</w>
per form
list ening</w>
in j
par lia
be lon
mic ha
li kes</w>
c l
wal ls</w>
in struc
s ers</w>
c tly</w>
t v</w>
sh ment</w>
vi d</w>
te ach</w>
fer red</w>
mic ro
li on</w>
profe ssi
defin ed</w>
oc cur
lan ds</w>
wa ited</w>
speci fied</w>
st at
thre w</w>
200 9</w>
z ens</w>
incre as
h ang
ex change</w>
ag ed</w>
sur face</w>
lo ss</w>
any body</w>
g en</w>
rep lied</w>
docu ment</w>
luc k</w>
ad mi
d ry</w>
hear ing</w>
sme ll</w>
f at</w>
im possible</w>
pho to
s at
wi lling</w>
bro ad
ad vi
ta ge</w>
re r</w>
centra l</w>
a ver
smar t</w>
ber t</w>
ite ly</w>
gre ater</w>
ri ch
dr unk</w>
inte lli
previ ous</w>
perform ance</w>
re sted</w>
dist ance</w>
h i</w>
el s</w>
develo ped</w>
s ong</w>
in fe
i st</w>
ho ping</w>
3 .
environ ment</w>
tr a</w>
gu e
foo t
confir med</w>
200 5</w>
ear lier</w>
wel come</w>
wor kers</w>
lo cation</w>
communi cation</w>
c o</w>
inv ited</w>
an tly</w>
cor ner</w>
r a</w>
mi es</w>
parlia ment</w>
it ali
sh el
ad d</w>
ag ency</w>
ea st</w>
appe ared</w>
pu l
appli cable</w>
g ence</w>
ta ught</w>
br an
pow er
rec ently</w>
inde pen
pl es</w>
so li
f our
recor ds</w>
trans fer</w>
re min
pu tting</w>
lim it</w>
nei ther</w>
who ever</w>
b order</w>
tre es</w>
se tting</w>
a x
after noon</w>
so f
al o
c lou
r on
b en</w>
inde ed</w>
vari ous</w>
dru gs</w>
advanta ge</w>
me ly</w>
k ar
law yer</w>
s an</w>
b ad
radi o</w>
s wee
capac ity</w>
who m</w>
is m</w>
dise ase</w>
conne cted</w>
st ru
de fini
con fe
che st</w>
1 7</w>
mar ry</w>
kno wing</w>
r it
f ted</w>
seri ously</w>
st ant</w>
u al</w>
deter mine</w>
micha el</w>
200 7</w>
bo y
program mes</w>
t wi
de vi
sum mer</w>
f ying</w>
ta ining</w>
ki e</w>
expla ined</w>
ner v
charac teri
p ack</w>
t end</w>
qu ali
par k</w>
jo e</w>
v ation</w>
cor rect</w>
th or
la dies</w>
reas on
su dden</w>
pre gn
qu anti
me at</w>
mar riage</w>
k ic
li ghts</w>
assu me</w>
te xt</w>
p un
wor st</w>
ye ar-
criteri a</w>
ven ess</w>
go d
li sted</w>
sele cted</w>
wal king</w>
co ordin
re ven
atu res</w>
apo logi
di vi
cro ss</w>
mp ing</w>
tri p</w>
issu es</w>
jo int</w>
pe ter</w>
inf lu
cor por
stand ard</w>
nu mbers</w>
bri dge</w>
bu s</w>
de partment</w>
tre at</w>
c at</w>
some how</w>
ger man</w>
more over</w>
c lim
sur ve
gro wing</w>
shoul der</w>
w ra
pr oud</w>
meth od</w>
for gotten</w>
pre sence</w>
d ad
insur ance</w>
kee ping</w>
f lying</w>
te lls</w>
lo cated</w>
ac ted</w>
ac ting</w>
ki ss</w>
slee ping</w>
geor ge</w>
inter ru
can ce
en ter</w>
vi a</w>
tra vel</w>
ne l</w>
be ha
kit chen</w>
ev ents</w>
hun g
men tion</w>
comfor table</w>
de fe
emplo ye
op ening</w>
ca mp</w>
dri ver</w>
comm er
appe ar</w>
techno logy</w>
al ter
bot tom</w>
op tion</w>
p uni
mb ling</w>
to wards</w>
langu age</w>
201 0</w>
1 8
max imum</w>
man i
requi re</w>
smo ke</w>
ger many</w>
survi ve</w>
gen cy</w>
associ ated</w>
le gs</w>
guaran tee</w>
fuc ked</w>
king dom</w>
car rying</w>
inst al
mp tion</w>
in -
comman der</w>
bur ned</w>
o il</w>
hur ry</w>
easi er</w>
mat ters</w>
ac her</w>
lau gh</w>
grou ps</w>
adv ice</w>
le g</w>
bir th
fe ed</w>
desp ite</w>
s low</w>
e t
sy mp
n ine</w>
i- i-
re public</w>
t ence</w>
strate gy</w>
ha u
rel ating</w>
ne u
compar ed</w>
emb arra
dist in
m per
ar rest</w>
ju mp</w>
bi ll</w>
y al</w>
conclu ded</w>
ba th
ing ing</w>
an e</w>
plan ning</w>
gi ves</w>
ob served</w>
won der
ca sh</w>
gir l
sa tions</w>
en ding</w>
bal ance</w>
g ging</w>
chall en
represen ta
pa ul</w>
se t
d or
convin ced</w>
any where</w>
appreci ate</w>
fil m</w>
b in
as on</w>
an g</w>
cen ter</w>
ba rely</w>
r at
ja il</w>
christ mas</w>
regu lar</w>
d i</w>
pic tures</w>
effor t</w>
je cted</w>
p ac
re moved</w>
fore ign</w>
f ru
c ate
bun ch</w>
certi fic
responsi bility</w>
ter nal</w>
t ough</w>
vehic le</w>
te en</w>
defin itely</w>
cha p
er ror</w>
pr ac
ari ly</w>
oc ca
he at</w>
stu dies</w>
pro por
da vid</w>
pur poses</w>
cra ft</w>
spe e
ra y</w>
la p
hi ding</w>
sh or
l en</w>
arri ved</w>
reduc ed</w>
impro ve</w>
st ence</w>
fun d</w>
exc ited</w>
spea king</w>
ben e
fortun ately</w>
c ars</w>
fi les</w>
ch er</w>
win dows</w>
spir it</w>
bl ack
r on</w>
appro ved</w>
fa il
affe cted</w>
thre at
p a</w>
hal f-
se -
sto le</w>
identi fied</w>
n ur
care fully</w>
dar kness</w>
equ al</w>
pa ir</w>
x ic
j ap
mo der
sur r
sche me</w>
tra ve
en ced</w>
qui e
gra du
for give</w>
de gre
char lie</w>
benef its</w>
e dge</w>
la b
all en</w>
at o
ste al</w>
lea ves</w>
benef it</w>
g or
vide o</w>
wi ld</w>
mi r
obje ctive</w>
guar ds</w>
so ft</w>
i ly</w>
deta ils</w>
fac ts</w>
c ry</w>
lo ad</w>
i .
emplo yment</w>
year- old</w>
au di
gr ant</w>
annu al</w>
b lin
feel ings</w>
a med</w>
cro ss
cor respon
ol der</w>
eng lish</w>
happ ening</w>
ss or</w>
war m</w>
deli ver
neigh b
be er</w>
ad ing</w>
m ale</w>
an cy</w>
tion ing</w>
prote cted</w>
d ated</w>
ki dding</w>
l ack</w>
ar med</w>
missi ons</w>
colle ge</w>
si x
pl enty</w>
free dom</w>
in si
st ated</w>
rememb ered</w>
pas sen
fr ank</w>
kni fe</w>
under taking</w>
ex tre
200 3</w>
mb led</w>
pie ces</w>
re scu
ach es</w>
pl us</w>
ma ss</w>
201 2</w>
citi zens</w>
expre ssion</w>
cont ent</w>
dru g</w>
edu cation</w>
read ing</w>
fre sh</w>
it able</w>
issu ed</w>
rema ins</w>
seri es</w>
1 2
att acked</w>
at ory</w>
cate g
dad dy</w>
tou ched</w>
an ci
ster n</w>
li gh
bla me</w>
institu tions</w>
gun s</w>
demon str
b ound</w>
at trac
monit oring</w>
amen d
thro at</w>
tr ack</w>
su sta
sol ve</w>
recei ve</w>
is ing</w>
hel ping</w>
gro wn</w>
mo vement</w>
econo my</w>
cap able</w>
an ds</w>
mp s</w>
enjo y</w>
tur ing</w>
mi ke</w>
cr y
ten ant</w>
fi shing</w>
dre ams</w>
co -
achi eve</w>
pri son
respon se</w>
inst ance</w>
mar ke
fre qu
201 3</w>
sche du
l and
i son</w>
ta sk</w>
201 1</w>
distri bu
gre w</w>
- up</w>
me ss</w>
min ated</w>
weap on</w>
d ness</w>
mode l</w>
re ver
temp or
lead er</w>
kid na
terr ori
appa rently</w>
conver sation</w>
separ ate</w>
fr ance</w>
dir ty</w>
stand ards</w>
be d
ad ap
sugge st</w>
administra tion</w>
soldi ers</w>
wee k
posi tive</w>
beli ev
descri bed</w>
sal e</w>
human s</w>
dem and</w>
te sts</w>
cri minal</w>
ri se</w>
t ted</w>
li eu
sa d</w>
p age</w>
univer se</w>
success ful</w>
exi st</w>
me chan
nerv ous</w>
tr uck</w>
consi ders</w>
infor med</w>
d un
ch ine
ther ed</w>
6 0</w>
ga tive</w>
je sus</w>
st eri
power ful</w>
t ings</w>
st in
tri al</w>
di ck</w>
lon g-
ja mes</w>
elec tr
e ating</w>
fun ction</w>
bo mb</w>
glo bal</w>
sho es</w>
ph s</w>
spo t</w>
dis covered</w>
ple as
particu larly</w>
cri sis</w>
bi gger</w>
h it
regi onal</w>
sil ence</w>
territ ory</w>
min imum</w>
gra b</w>
k ick</w>
nor m
oper ations</w>
prin ce</w>
ra in</w>
pur cha
shoo ting</w>
fi ll</w>
argu ment</w>
ordin ary</w>
chine se</w>
achi eved</w>
thou ghts</w>
swe et</w>
b i</w>
birth day</w>
h all</w>
de ad
it ation</w>
obli gations</w>
be l</w>
de mo
b ye</w>
girl friend</w>
i lities</w>
s ch
beha vi
wonder ful</w>
camer a</w>
exi stence</w>
air port</w>
our selves</w>
mat ch</w>
sig nal</w>
ar rested</w>
st ars</w>
villa ge</w>
do l
ra l</w>
sp a
cur rently</w>
m or</w>
p it
li ps</w>
we i
sen ding</w>
bi gge
ju di
m ly</w>
dre w</w>
0 0
ke ys</w>
ob ject</w>
intere sts</w>
mar kets</w>
lon don</w>
bigge st</w>
li fe
d an</w>
poin t
ce ment</w>
star ts</w>
re duce</w>
idi ot</w>
effe cti
recogni ze</w>
ple asure</w>
inter net</w>
ll ars</w>
ris ks</w>
obli gation</w>
suspe ct</w>
re placed</w>
ex por
vi s
aver age</w>
for ces</w>
eval uation</w>
joh n
te x
shir t</w>
disp u
colon el</w>
z er
r is</w>
st on</w>
ade qu
comp en
fav or</w>
p on
cal cu
lieu tenant</w>
ta il</w>
bo w</w>
m bo
g ent</w>
re gre
a di
sha pe</w>
fe der
feel s</w>
i ds</w>
struc k</w>
en try</w>
civi li
mar ks</w>
st ories</w>
a tional</w>
cul tural</w>
requi res</w>
sub si
vi sible</w>
anti -
- year-old</w>
v ul
pa ying</w>
re f
du de</w>
enti tled</w>
commit ted</w>
po st</w>
fur ther
lead ing</w>
treat y</w>
oper ate</w>
ess ential</w>
ha m
assi stance</w>
cele br
sto len</w>
moun tain</w>
f ought</w>
1 9</w>
mar ch</w>
ex tra</w>
ad s</w>
cen t
cli ent</w>
ha m</w>
th in</w>
cop y</w>
gi ft</w>
n uc
cen tr
over all</w>
rec ent</w>
f oun
sta yed</w>
coura ge</w>
compli ance</w>
ver sion</w>
reque sted</w>
lo sing</w>
st ard</w>
on i
ar ance</w>
comple ted</w>
pre p
further more</w>
won dered</w>
quie tly</w>
fer ence</w>
oper ating</w>
mo bi
ti ght</w>
environ mental</w>
produc ed</w>
dou ble</w>
wit ness</w>
pl u
pre ven
k i</w>
finan cing</w>
ta ste</w>
prep are</w>
re sta
resta ur
b in</w>
stor m</w>
se es</w>
under ta
civi l</w>
acce pted</w>
mil k</w>
p il
asse ts</w>
charac ter</w>
chap ter</w>
1 5
stra tion</w>
de sk</w>
ar ran
pro per</w>
pre ci
de le
n it
dro ve</w>
gh o
every where</w>
c up</w>
ri f
en ds</w>
profe ssor</w>
on to</w>
qu o
no tes</w>
for mer</w>
b bed</w>
ex emp
r ang
suppor ted</w>
psy cho
conclu sion</w>
ir y</w>
fi re
de sper
no ted</w>
stat us</w>
ser ge
to tally</w>
on ic</w>
tin y</w>
stre ss</w>
sub stan
speci es</w>
le -
pro of</w>
re lation</w>
defen se</w>
es c</w>
an k
re mo
commer cial</w>
absolu tely</w>
whis per
te mper
ga re
mi s
hi ll</w>
effor ts</w>
l eng
benef ici
ta pe</w>
ge o
pow ers</w>
e k</w>
h mm</w>
reduc tion</w>
ti vely</w>
professi onal</w>
consi st
t ter</w>
dece mber</w>
fail ure</w>
z a
pro to
ste pped</w>
exa mine</w>
fin ger</w>
custo ms</w>
mb le</w>
appli cations</w>
sh eri
physi cal</w>
fin ds</w>
p ly</w>
war ri
va mp
perfe ctly</w>
under standing</w>
inno cent</w>
e esc</w>
c .</w>
fac es</w>
ag ri
pu shed</w>
f allen</w>
d ani
bene ath</w>
dist ur
ma x</w>
i- i</w>
we ak</w>
underta kings</w>
intro duce</w>
bud dy</w>
vo te</w>
cho sen</w>
2 1</w>
y ard</w>
go od
ck y</w>
appro val</w>
3 1</w>
sta ying</w>
ob tained</w>
bu ried</w>
ghten ed</w>
di vor
medic ine</w>
ob serv
emer gency</w>
obvi ous</w>
sen si
bal ls</w>
deb t</w>
thous ands</w>
ch ina</w>
ac ks</w>
jo bs</w>
bath room</w>
as le
wo ods</w>
challen ge</w>
instru ments</w>
use ful</w>
pay ments</w>
no ise</w>
br inging</w>
sp lit</w>
wi lli
me ters</w>
re move</w>
oc cu
de al
pre ssed</w>
be tra
ci a</w>
d ged</w>
acce p
sm all
rich ard</w>
princi ples</w>
m ach</w>
s sel
hen ry</w>
s and
tw enty</w>
cla imed</w>
e ars</w>
st ree
victi ms</w>
ne gative</w>
vi sit
sig ns</w>
asle ep</w>
sto ck</w>
i e</w>
col or</w>
affe ct</w>
gr and</w>
norm ally</w>
ro bo
in su
an o
implemen ted</w>
ic ally</w>
ha w
do gs</w>
b ag
te acher</w>
high ly</w>
proper ly</w>
1 4
confu sed</w>
fo rest</w>
jo ke</w>
gra phi
comm un
esti m
do ors</w>
min ing</w>
hang ing</w>
b right</w>
ski lls</w>
f it
b anks</w>
p ants</w>
ag ue</w>
rema ined</w>
ro ll</w>
sto mach</w>
me t
war ning</w>
vol un
go o
sle pt</w>
o '
b on</w>
te sti
de sign
ty pes</w>
tra f
discu ss</w>
pl ant</w>
comp lic
me l
lin k</w>
cr ying</w>
sha me</w>
valu es</w>
un fortunately</w>
dete ctive</w>
appe ars</w>
bir th</w>
ga in</w>
fa mous</w>
hol ders</w>
ti ed</w>
da m</w>
ab and
authori sation</w>
se cu
mur dered</w>
bo ther</w>
an ced</w>
mar ked</w>
be side</w>
traf fic</w>
produc ers</w>
ni a</w>
allow s</w>
ca stle</w>
cen tur
e mi
bro wn</w>
expen dit
ide as</w>
t ched</w>
mini ster</w>
direc tor</w>
ba stard</w>
x es</w>
bro thers</w>
artic les</w>
sil ent</w>
wh en
thr ough
con tained</w>
con tain</w>
fun c
break fast</w>
blo ck</w>
la b</w>
de ca
wor e</w>
ni ght
fir m</w>
par is</w>
ma tically</w>
bot tle</w>
ti ci
susp ici
gi ble</w>
lo aded</w>
su rely</w>
centur y</w>
na tive</w>
pre -
yo un
convin ce</w>
i mage</w>
care er</w>
pi lot</w>
ag ents</w>
cal i
jun e</w>
2 2</w>
fa ster</w>
ser ver</w>
su e</w>
d ates</w>
contrac ts</w>
bo w
char ges</w>
e x</w>
implemen ting</w>
scre en</w>
en a</w>
ma je
tele vision</w>
lar ge
ma p</w>
infrin gement</w>
exer cise</w>
poli cies</w>
be ach</w>
her o</w>
me tal</w>
per man
sa v
u n</w>
certific ate</w>
anci ent</w>
ter y</w>
k o</w>
co lu
1 3
popu lation</w>
hung ry</w>
week end</w>
sli ghtly</w>
infor m</w>
on e-
hon e
ex plan
re ment</w>
gra tion</w>
contr ary</w>
inter view</w>
sha dow</w>
mo di
m n</w>
let ters</w>
p he
po ol</w>
concer n</w>
ther ap
1 7
thre at</w>
val id</w>
pregn ant</w>
de man
in ess</w>
sett led</w>
s ks</w>
guil ty</w>
ele ments</w>
e .
att ached</w>
tra ined</w>
roo ms</w>
o x
s wa
e ur
succe ss</w>
li c</w>
stri ke</w>
ro man
see k</w>
eng ine</w>
stree ts</w>
gu ide
mon y</w>
moun tains</w>
el ds</w>
exa mination</w>
high -
200 1</w>
mer ely</w>
te a</w>
ing ton</w>
accoun ts</w>
expendit ure</w>
boy friend</w>
z one</w>
po cket</w>
2 3</w>
d ust</w>
drin king</w>
attemp t</w>
me ter</w>
offic ers</w>
when ever</w>
hi red</w>
s als</w>
un able</w>
le an
ill u
t all</w>
incre di
cha mp
s now</w>
f ate</w>
z a</w>
st an</w>
fami liar</w>
pu sh</w>
sci ence</w>
bl ind</w>
wa re
regar ding</w>
ri l</w>
manag er</w>
hun g</w>
amen ded</w>
f ed</w>
o ce
indu stri
j en
ex tent</w>
introduc ed</w>
g a</w>
ag en
er t</w>
al co
i or</w>
wa ve</w>
do llars</w>
serge ant</w>
a side</w>
po sse
con tains</w>
h a</w>
si on
mon i
n on
fa ith</w>
regi on</w>
cor ri
ge ments</w>
ta tions</w>
ssi ons</w>
diffic ul
star ed</w>
u t
d ded</w>
j im
fal ls</w>
establi sh</w>
ssel s</w>
lo s</w>
se y</w>
ph ar
l an</w>
reco very</w>
la bor
through out</w>
ado ption</w>
sol ved</w>
li ber
her e
kee ps</w>
ti tu
comple x</w>
al ty</w>
pre di
qu it</w>
sa mp
ici de</w>
recommen ded</w>
pa pers</w>
hor ses</w>
mr s</w>
si a</w>
se lling</w>
nuc le
z ard</w>
sil ver</w>
che cks</w>
agree ments</w>
m o</w>
e .</w>
go ds</w>
a im</w>
s que
la ke</w>
b an</w>
ss y</w>
pret end</w>
lic en
as sho
indi cated</w>
cli mb
d ingly</w>
ag u
in ven
lit er
ti s</w>
ba se
scienti fic</w>
b ird</w>
de cre
ha n</w>
fi cations</w>
ab sence</w>
sp ring</w>
stu dents</w>
gr ace</w>
restaur ant</w>
af ri
e sc
cir cle</w>
ch ic
v is</w>
se i
5 .
russi an</w>
en sur
tro ops</w>
prac tic
per formed</w>
h at</w>
s w
jo ined</w>
ex ternal</w>
en able</w>
e ts</w>
spo ken</w>
ani c</w>
guaran te
d ating</w>
con centra
volu me</w>
har dly</w>
e ag
ck er</w>
asse ss</w>
ro of</w>
pro duce</w>
mo stly</w>
adju st
d ant</w>
ti sh</w>
uni form</w>
wa sh
brea king</w>
sa ke</w>
as es</w>
pack age</w>
custo mers</w>
fu el</w>
pri or</w>
ex hau
lo ts</w>
gre atest</w>
can di
u sers</w>
car ri
sc ra
proce ssing</w>
m .</w>
cal cul
sho wing</w>
chang ing</w>
cul ture</w>
qu a
to wer</w>
che mi
ce lls</w>
wor l
applic ants</w>
th a</w>
ex -
person ally</w>
p -
e ar</w>
d less</w>
1 6
se p
publi shed</w>
st al
op tions</w>
con struction</w>
accor dingly</w>
sal es</w>
deta iled</w>
sh ort
lin ked</w>
wo ke</w>
l ated</w>
u ary</w>
fav or
adv ance</w>
proto co
b ones</w>
oc to
import ance</w>
experi enced</w>
shar p</w>
car ds</w>
lim its</w>
point ment</w>
ju li
ir on</w>
indi cate</w>
re ality</w>
do zen</w>
de serve</w>
reli gi
intelli gence</w>
an ces</w>
spee ch</w>
a bu
concer ns</w>
po st
deliver ed</w>
de sign</w>
ang le</w>
contro lled</w>
guide lines</w>
ga mes</w>
e ye
ac tual</w>
bil lion</w>
presen ted</w>
s ke
ter ing</w>
da tions</w>
pe t</w>
d ar</w>
fal ling</w>
e ment</w>
fo cused</w>
re mind</w>
: 00</w>
star ing</w>
rescu e</w>
mu sc
b oun
se cure</w>
d le</w>
occur red</w>
enter pri
d are</w>
de l
influ ence</w>
ad dressed</w>
tru sted</w>
200 2</w>
mb s</w>
win ter</w>
meth ods</w>
complic ated</w>
me xic
sub sequ
g y
o -
dra wing</w>
recor ded</w>
sy n
min ate</w>
crow d</w>
re n</w>
maje sty</w>
wor k
ti mate</w>
d ity</w>
fle et</w>
x im
v ated</w>
enti rely</w>
comp on
de a
the ory</w>
or al</w>
li br
identi fy</w>
as pe
kic ked</w>
ado pt</w>
sor y</w>
main tain</w>
ju ly</w>
s wal
but t</w>
to -
pleas ant</w>
ple ased</w>
jan uary</w>
me as
part ners</w>
apologi ze</w>
8 0</w>
regi stered</w>
200 0</w>
defini tion</w>
rec ital</w>
b one</w>
exa mined</w>
we b
cer e
so oner</w>
def end</w>
mon ster</w>
sub stance</w>
te ars</w>
ba si
propo sals</w>
sen tence</w>
clo ck</w>
st yle</w>
smi led</w>
g ay</w>
employe es</w>
pro hi
p lo
hun dre
consu mers</w>
be long</w>
r ates</w>
we ll-
ho ly</w>
na ked</w>
ic s</w>
ph y</w>
sele ct</w>
ho me
pi ssed</w>
n ation</w>
ther n</w>
t wo
cross -
man ner</w>
f red</w>
dat ab
cent re</w>
sta ti
cho se</w>
ste el</w>
l o</w>
susta in
j im</w>
oper ational</w>
com pati
2 7</w>
initi al</w>
sc ar
jim my</w>
jour ney</w>
fac il
lo ves</w>
hou ses</w>
po site</w>
g li
small er</w>
ren cy</w>
instru ment</w>
transp a
sa mple</w>
coun ter
oun ding</w>
es cap
ye llow</w>
reason able</w>
w ash</w>
contro ls</w>
g .</w>
cre ature</w>
dra gon</w>
medi a</w>
le tting</w>
ori gin</w>
la ws</w>
in fra
hea ven</w>
inv ite</w>
cro ssed</w>
n ick</w>
inte gr
cha mber</w>
whisper ed</w>
noti fied</w>
ex po
ar ch
ac cur
cli ck</w>
cha in</w>
u ser</w>
characteri stics</w>
sele ction</w>
materi als</w>
bul let</w>
vehic les</w>
alco ho
ene mies</w>
low ing</w>
eff ici
di str
nucle ar</w>
b a</w>
exce ll
tion ally</w>
de po
a u</w>
sex ual</w>
a p</w>
smo o
heal thy</w>
consider ation</w>
2 8</w>
justi fied</w>
la yed</w>
ow ner</w>
neigh bor
pat ter
commun ic
consequ ences</w>
i cal</w>
develo p</w>
si onal</w>
l ately</w>
kne es</w>
. s.</w>
fa shi
gener ally</w>
con ven
announ ced</w>
instruc tions</w>
s and</w>
r ant</w>
consi dering</w>
bu ll
memor ies</w>
re pu
mi rac
ho ped</w>
cu te</w>
marke ting</w>
prin ce
sp here</w>
do ctors</w>
l ac
stre am</w>
four th</w>
regar ded</w>
exce p
k u
colle ction</w>
un its</w>
exten ded</w>
con centr
ho pe
itali an</w>
facil it
no where</w>
w ound</w>
titu de</w>
ex posed</w>
deli ver</w>
a unt</w>
a st
disappe ar</w>
9 0</w>
leng th</w>
wol f</w>
ton gue</w>
ite ms</w>
st able</w>
repor ting</w>
d war
suff ered</w>
eng ine
ari an</w>
4 5</w>
th ick</w>
re jected</w>
her o
stor ed</w>
be ll</w>
soldi er</w>
quar ters</w>
bur ning</w>
possi bly</w>
en for
gar den</w>
ho o
c ur</w>
paragra phs</w>
scre aming</w>
di ver
regu lat
investi g
indepen dent</w>
b es</w>
re place</w>
ner ship</w>
li ft</w>
gra de</w>
co ok</w>
z es</w>
sse l</w>
f anta
sat ur
flow ers</w>
fac tory</w>
and -
pl at
recogni zed</w>
assu med</w>
pre ten
con ten
interpre tation</w>
C B-</w>
ju mped</w>
univer sity</w>
e pi
beau ty</w>
gi ant</w>
but ton</w>
ri ck</w>
bir ds</w>
wea ther</w>
te sting</w>
v in</w>
ri di
gr ounds</w>
wo w</w>
u ses</w>
v it
authori sed</w>
wit ne
organi sations</w>
si de
sho ck</w>
fle w</w>
far m</w>
in ts</w>
degre e</w>
fa il</w>
temper ature</w>
sy mbo
de st</w>
cra w
comp ly</w>
s ma
ap ril</w>
ch anne
ti me
wher ever</w>
mach ines</w>
p y
d dy</w>
at ri
i ll</w>
feder al</w>
stan tly</w>
co at</w>
exp ort</w>
s ought</w>
sub mit</w>
squ are</w>
hou se
sit u
o we</w>
mo ments</w>
a-a- a-a-
da ily</w>
li ver</w>
hun t</w>
sm ith</w>
fi gu
20 0</w>
is es</w>
0 .
mee tings</w>
fun ding</w>
char ged</w>
b led</w>
bur den</w>
impor ts</w>
devi l</w>
set tle</w>
oper ators</w>
5 00</w>
cu tting</w>
adequ ate</w>
amoun ts</w>
col lap
as sur
h ori
confi dence</w>
ru ined</w>
du ties</w>
can cer</w>
s no
consu mer</w>
reali se</w>
s ca
an na</w>
speci fic
ar th
he li
tempor ary</w>
consci ous</w>
sa ge</w>
trans ferred</w>
ci gare
wo o
ca se-
ri sing</w>
dan ny</w>
lou d</w>
m g</w>
vir us</w>
declar ed</w>
v ani
ob se
signific antly</w>
sc ale</w>
in come</w>
pre li
bi lities</w>
high est</w>
chall eng
jo y</w>
gi e</w>
c ze
par a
u gly</w>
camp a
ga z
ff ed</w>
com pre
vie ws</w>
ton y</w>
main ly</w>
f low</w>
sar ah</w>
tra pped</w>
en tr
argu ments</w>
preli min
institu tion</w>
pho to</w>
per mission</w>
refu sed</w>
con vention</w>
no ve
b y
suff ering</w>
shoul ders</w>
sho ok</w>
tran si
ous in</w>
ap er</w>
sep te
n es</w>
octo ber</w>
c ousin</w>
de aling</w>
wher e
sin ging</w>
hundre ds</w>
hor ri
descri ption</w>
bloo dy</w>
al y</w>
f ts</w>
prin ts</w>
s ni
dra w
bl an
pre mi
septe mber</w>
le e</w>
b o</w>
mi xed</w>
bro ad</w>
thro wn</w>
er ship</w>
ro me</w>
1 /
hori z
ma ma</w>
bo b</w>
pha se</w>
su gar</w>
contribu tion</w>
ther ing</w>
provi ding</w>
ali a</w>
m s.</w>
t ori
photo gra
sa ving</w>
comb ination</w>
3 5</w>
conduc t</w>
en ab
he sit
op posite</w>
re ce
ry an</w>
tw en
we t</w>
long- term</w>
se ven
ger y</w>
s p</w>
fami lies</w>
cre ation</w>
0 ,000</w>
f lat
up stairs</w>
tri ck</w>
prelimin ary</w>
tab les</w>
exper t</w>
sheri ff</w>
il legal</w>
ma '
w ri
d .</w>
answ ers</w>
bri tish</w>
therap y</w>
our ed</w>
sp ani
oce an</w>
eng land</w>
propor tion
prince ss</w>
b ite</w>
lear ning</w>
k ra
a ked</w>
oc cur</w>
conce pt</w>
un known</w>
han ded</w>
brea thing</w>
st ac
2 6</w>
ma' am</w>
a c</w>
ff s</w>
protoco l</w>
do me
wor n</w>
appro xim
a imed</w>
pri est</w>
recogni sed</w>
be th</w>
viol ence</w>
s ne
he l</w>
establi shment</w>
ster y</w>
2 9</w>
che ese</w>
7 0</w>
sho wer</w>
stan ds</w>
af ford</w>
fran k
lar ger</w>
en coun
laugh ing</w>
con ference</w>
a ti
too ls</w>
regi ons</w>
regu lations</w>
mi li
j ack
s in</w>
to ms</w>
infra structure</w>
organi sation</w>
si vely</w>
compen sation</w>
sp or
cover ing</w>
com ments</w>
clin ical</w>
disp lay</w>
ro lled</w>
mu t
stron ger</w>
em per
figu res</w>
amb i
run s</w>
gre y</w>
repe ated</w>
fun da
fa ir
f loo
enti ty</w>
st ones</w>
be lt</w>
w re
sugge sted</w>
appli es</w>
gra ve</w>
emp ire</w>
poin ting</w>
e sses</w>
f bi</w>
di g
di men
two -
ar rang
arran gements</w>
ve ssel</w>
refer ring</w>
ru p
sha ke</w>
pu lling</w>
stu dent</w>
no dded</w>
ma yo
sub stances</w>
ja ke</w>
clar i
desi re</w>
kno cked</w>
bu cks</w>
mobi le</w>
p ort
gol den</w>
rou te</w>
har m</w>
milli ons</w>
busin esses</w>
de lay</w>
laugh ed</w>
x ing</w>
d na</w>
favor ite</w>
expre ssed</w>
low ed</w>
assho le</w>
ac compani
pro secu
man age</w>
particip ation</w>
electr onic</w>
wash ington</w>
t one</w>
arri ve</w>
n an
der i
lead s</w>
deser t</w>
perman ent</w>
be coming</w>
s lu
conne ct</w>
tru ly</w>
ro lling</w>
twen ty-
neighbor hood</w>
fa ke</w>
cor e</w>
mo ther
bri ef
ex tra
pri ority</w>
hy dro
su icide</w>
consu mption</w>
tho mas</w>
je ction</w>
u d</w>
thro wing</w>
m i</w>
satis fied</w>
z er</w>
sensi tive</w>
war ned</w>
o m</w>
invest ments</w>
dra ft</w>
wa shed</w>
a .
surr ounded</w>
differ ences</w>
th ri
surve ill
bil ly</w>
passen gers</w>
use less</w>
c ried</w>
chic ken</w>
it es</w>
sp are</w>
surveill ance</w>
accompani ed</w>
t ren
estim ated</w>
sh ore</w>
confir m</w>
emper or</w>
v ali
identi ty</w>
fe llow</w>
negoti ations</w>
al li
remin ded</w>
recommen dations</w>
di a</w>
e ec</w>
monit or</w>
impre ssed</w>
ad mitted</w>
gra ss</w>
ap pointment</w>
wat er
ex pl
cor p
sc rat
sp ending</w>
datab ase</w>
require ment</w>
be comes</w>
reve aled</w>
docu men
exper ts</w>
corri dor</w>
cze ch</w>
gla sses</w>
f as
auto matically</w>
e aten</w>
back ground</w>
threat ened</w>
rela x</w>
ta sks</w>
brea the</w>
bad ly</w>
john ny</w>
fac ed</w>
je al
al arm</w>
pi er
dan cing</w>
to i
chri st</w>
a th
extre mely</w>
bb ing</w>
d ential</w>
increas ing</w>
gra y</w>
super vi
fac tors</w>
fl at</w>
co ach</w>
re vi
repu tation</w>
wi zard</w>
deta il</w>
na tion
fro zen</w>
achi ev
tic ket</w>
k er
v at</w>
stor age</w>
d al</w>
ss a</w>
transp or
rema ining</w>
secre ts</w>
po is
eg gs</w>
gu est</w>
v an
specific ally</w>
we b</w>
regre t</w>
cle ared</w>
ci ties</w>
bo bby</w>
gen tly</w>
repe at</w>
t at
alter native</w>
an ce
suff er</w>
sp ort</w>
con vic
amend ment</w>
lat ter</w>
so -
re plac
loo se</w>
ma gaz
pre fer</w>
develo ping</w>
d der</w>
pro fit</w>
explan ation</w>
de ck</w>
val ley</w>
pre scri
ra ble</w>
me al</w>
s n
list ened</w>
bed room</w>
ble eding</w>
ange l</w>
di alo
le ment</w>
representa tive</w>
re action</w>
scre wed</w>
f ting</w>
kno ck</w>
p en</w>
co ast</w>
h -
noti fication</w>
aband oned</w>
e e
har ve
si gh
b att
g lan
survi ved</w>
eur o</w>
i. e.</w>
a vi
it aly</w>
li qu
air craft</w>
libr ary</w>
cy cle</w>
clo sely</w>
arth ur</w>
gho st</w>
se ctors</w>
0 -
d r</w>
be g</w>
re be
ve -
con taining</w>
har der</w>
case- law</w>
stu died</w>
ali en</w>
sh ared</w>
pa int</w>
as ks</w>
inclu des</w>
g ru
e h</w>
pro f
pl ate</w>
b its</w>
sur gery</w>
spe ll</w>
jan e</w>
expen sive</w>
he 'il</w>
mir ror</w>
m med</w>
youn ger</w>
moder n</w>
ei gh
concentra tion</w>
ab ilities</w>
b ay</w>
as signed</w>
it or</w>
cre atures</w>
ho li
shi ft</w>
fi elds</w>
ca b</w>
th ree
bon d</w>
19 8
exp an
the y
symp toms</w>
categ ory</w>
de st
lo an</w>
ate ful</w>
ll ers</w>
distribu tion</w>
a tives</w>
americ ans</w>
w ag
pas sing</w>
regulat ory</w>
plan ts</w>
ha ted</w>
practic es</w>
associ ation</w>
bur y</w>
nur se</w>
li fted</w>
ca ke</w>
da ma
quar ter</w>
inj ury</w>
simp li
fri day</w>
equi val
escap ed</w>
hi d</w>
bag s</w>
on y</w>
classi fied</w>
si lly</w>
t ari
du ke</w>
k -
inno vation</w>
ous ness</w>
sha res</w>
ridi cul
belon gs</w>
re struc
phar mac
g ari
cre am</w>
c -
dome stic</w>
m l</w>
offici als</w>
my steri
secre tary</w>
b ing</w>
r o</w>
di g</w>
cen tu
nove mber</w>
pla stic</w>
f on
hel p
di vision</w>
the tic</w>
gue sts</w>
shou ted</w>
an ese</w>
le c
en coura
bu ying</w>
initi ative</w>
wei gh
war ded</w>
buil dings</w>
explo sion</w>
ro yal</w>
sha dows</w>
indi c
cor ru
haw k</w>
ru in</w>
au dit</w>
frien dly</w>
regi ster</w>
main tained</w>
certain ty</w>
bar ri
effici ency</w>
sa u
i ii</w>
mayo r</w>
pri me</w>
indi cat
ate ll
vil le</w>
ple a</w>
whe el</w>
spani sh</w>
eng aged</w>
mi ser
im posed</w>
expre ss</w>
l atest</w>
ag ing</w>
commit ments</w>
chri sti
mechan ism</w>
s ounded</w>
eval u
eri c</w>
u pper</w>
pal ace</w>
russi a</w>
di sh</w>
clim b</w>
ensur ing</w>
ele ment</w>
fin dings</w>
pro ved</w>
se l</w>
m its</w>
da wn</w>
do or
pi g</w>
electri city</w>
ro pe</w>
trans actions</w>
gen e
regi stration</w>
fun eral</w>
rec k
enfor cement</w>
m ming</w>
c les</w>
r are</w>
so phi
ref use</w>
expe cting</w>
sun day</w>
gre en
mo od</w>
grand father</w>
agri cultural</w>
ve ssels</w>
sk u
produc er</w>
a mu
con tra
0 s</w>
to w
be ating</w>
er o
g ust</w>
tra p</w>
h in
y ards</w>
s atell
ali st</w>
appro ached</w>
den i
re present</w>
g gle</w>
maj ority</w>
mar tin</w>
t ac
201 4</w>
ro cks</w>
u .s.</w>
lou is</w>
p ir
believ es</w>
c and
di scri
resul ting</w>
r ors</w>
s i</w>
f at
prin t</w>
bra ve</w>
correspon ding</w>
ac cu
har d
exce ption</w>
de par
ab sor
pro file</w>
gener ation</w>
communi cations</w>
pursu ant</w>
pub lic
re aching</w>
an o</w>
s day</w>
t ine</w>
accoun ting</w>
ed die</w>
interru pted</w>
foot ball</w>
ro bert</w>
se ts</w>
gen i
approxim ately</w>
god damn</w>
suff ici
char les</w>
pra y</w>
reli ef</w>
jap anese</w>
vamp ire</w>
w ounded</w>
sh er
valu able</w>
inten tion</w>
bor ed</w>
messa ges</w>
depen ding</w>
basi cally</w>
and re
j am
. a.</w>
b les</w>
soli d</w>
po lit
on line</w>
desper ate</w>
ti p</w>
bu sh</w>
embarra ssed</w>
restruc turing</w>
entr ance</w>
clim ate</w>
dani el</w>
str anger</w>
w ned</w>
separ ated</w>
ra pi
spa in</w>
avo i
curi ous</w>
contribu te</w>
un usual</w>
nar row</w>
vo ices</w>
ste ve</w>
4 8</w>
gr ateful</w>
com missi
str ang
ga ined</w>
cli ents</w>
pi ed</w>
drin ks</w>
consist ent</w>
imp ort</w>
impro ved</w>
tre ss</w>
e missions</w>
adv anced</w>
fuc kin</w>
commit ment</w>
arrang ed</w>
observ ations</w>
al d</w>
st ori
te en
suppor ting</w>
ac u
2 5
ful fi
sque e
sho ts</w>
di amon
t our</w>
calcul ated</w>
ma ssive</w>
inst in
for mal</w>
w ings</w>
previ ously</w>
y n</w>
ridicul ous</w>
di scre
gui de</w>
tra il</w>
imple ment</w>
dama ged</w>
incredi ble</w>
sk i</w>
pp y</w>
i on</w>
immedi ate</w>
chemi cal</w>
sc are</w>
har moni
ro t</w>
fru it</w>
she et</w>
hur ts</w>
ca ve</w>
ti l
low s</w>
ab ri
alcoho l</w>
to ler
st a</w>
eff icient</w>
willi am</w>
mar ine</w>
dispu te</w>
wit ch</w>
scre am</w>
campa ign</w>
ra w</w>
com mo
expo sure</w>
re turning</w>
lo y
du mping</w>
f an</w>
pla yer</w>
do min
bla de</w>
k al
pre su
enti ties</w>
fac ility</w>
bre ad</w>
assa ss
tradi tional</w>
lo vely</w>
stru gg
schedu le</w>
hel ps</w>
j or
inj ured</w>
er e
ten der</w>
asse ssed</w>
li ability</w>
vic tory</w>
li ght
an no
sub je
7 5</w>
une x
e. g.</w>
pu ts</w>
i li
par king</w>
war n</w>
su al</w>
la be
satur day</w>
pre ce
d '
o ls</w>
ex act</w>
i an</w>
legi sla
lin ed</w>
ag gre
hi stori
reven ge</w>
enjo yed</w>
smi ling</w>
serv ation</w>
resi dence</w>
so le
respon d</w>
ra ge</w>
mu tual</w>
che e
chil d
dam ned</w>
dra g</w>
e state</w>
199 9</w>
in ser
ca p</w>
ll u
cre ating</w>
uni que</w>
industri al</w>
dra gged</w>
sear ching</w>
jac ket</w>
ri ding</w>
dur ation</w>
lab our</w>
tu rer</w>
ro de</w>
excell ent</w>
you th</w>
lan ding</w>
fin ger
tar ge
o be
eli gible</w>
re ward</w>
j ury</w>
f lic
less on</w>
inter vention</w>
consequ ently</w>
divor ce</w>
emp ha
quanti ties</w>
j on
legisla tive</w>
3 2</w>
r ough</w>
mista kes</w>
warri or</w>
hol der</w>
opport uni
ren ce</w>
hi re</w>
admi ral</w>
an xi
6 .
zer o</w>
e ded</w>
z u
v ar
ali sed</w>
adver se</w>
contrac ting</w>
v o</w>
depen ds</w>
oper ator</w>
dre ssing</w>
dri ven</w>
fin ance</w>
fi es</w>
acce ler
licen se</w>
medi cin
impre ssion</w>
competi tive</w>
wa y
i res</w>
bel gi
w -
supp lies</w>
celebr ate</w>
mo ves</w>
g on
co inci
gre at
funda mental</w>
fif th</w>
fe male</w>
tr ace</w>
assi stant</w>
ho st</w>
ow ned</w>
logi es</w>
aw ful</w>
wra pped</w>
consul tation</w>
fal se</w>
compre hen
bull shit</w>
sp y</w>
go al</w>
ss ly</w>
bre ach</w>
suffici ently</w>
y o</w>
ti ous</w>
practi cal</w>
mur der
ro ws</w>
g ang</w>
r at</w>
re covered</w>
g as
rec ru
al -
re form</w>
en o
hy po
a ward</w>
ser ving</w>
geo graphi
ti vity</w>
deli ber
restri ctions</w>
cra p</w>
prison ers</w>
sustain able</w>
de an</w>
ma sk</w>
subsi di
heli cop
t an</w>
ra ti
ser ves</w>
ac qui
c kets</w>
wi re</w>
e ds</w>
swit ch</w>
declar ation</w>
situ ations</w>
medicin al</w>
ve ments</w>
smo king</w>
laun ch</w>
te dly</w>
recogni tion</w>
ad a</w>
pri mary</w>
mon d</w>
rec all</w>
volun te
laun ched</w>
sh er</w>
the less</w>
audi ence</w>
ac compli
ri p</w>
tal ent</w>
cau sing</w>
aspe cts</w>
conclu sions</w>
shi eld</w>
te mple</w>
ad missi
prison er</w>
ob tain</w>
- in-
ta r</w>
constitu te</w>
ac ade
/ ec</w>
win ning</w>
ca bin</w>
stre tched</w>
gi es</w>
clou ds</w>
l ers</w>
facilit ate</w>
op ti
hun ting</w>
divi ded</w>
blo wn</w>
effecti veness</w>
fa irs</w>
they 'il</w>
ra il
a wake</w>
centu ries</w>
per mit</w>
di stor
for ming</w>
b ble</w>
al ex</w>
opportuni ties</w>
trans mission</w>
swi m</w>
disap pointed</w>
d enti
war rant</w>
ox y
wa ves</w>
twi sted</w>
re volu
ll en</w>
co m</w>
tri gger</w>
fle xi
hy per
tun nel</w>
fun ctions</w>
recei ving</w>
pain ting</w>
to mmy</w>
a my</w>
p ale</w>
wi ll
a h
pen sion</w>
la ys</w>
ho ll
po ison</w>
t ank</w>
re ti
s tion</w>
de di
ra ising</w>
lead ers</w>
we al
dist ant</w>
b ath</w>
consider able</w>
rin gs</w>
gra bbed</w>
p ounds</w>
ge st
goo d-
su itable</w>
car go</w>
de leg
n t</w>
di plo
ma inten
rac hel</w>
suspe cted</w>
prepar ing</w>
lu x
adver ti
ur ing</w>
is ms</w>
ra tion</w>
br ings</w>
bor ing</w>
afri ca</w>
fra me</w>
in cur
reve al</w>
deli very</w>
k ate</w>
dis ci
ble w</w>
be ast</w>
for th</w>
cra sh</w>
mirac le</w>
vic es</w>
al ex
fuc ker</w>
che cking</w>
sli pped</w>
i-i- i-i-
chan ces</w>
jeal ous</w>
de struction</w>
at mo
p anic</w>
re l</w>
jour n
it als</w>
kidna pped</w>
ga thered</w>
y l
mainten ance</w>
equival ent</w>
al ert</w>
po p</w>
sta ke
nu ts</w>
od d</w>
be gun</w>
introduc tion</w>
ele v
per cent</w>
three -
appe arance</w>
se ason</w>
pla in</w>
min ds</w>
d p</w>
uc k
bu re
tan e
off en
ou l
na sty</w>
re actions</w>
den y</w>
clo sing</w>
compati ble</w>
fle sh</w>
pain ted</w>
bi ke</w>
colle ct</w>
clou d</w>
gree k</w>
bri ef</w>
veri fy</w>
bri lli
my stery</w>
comfor t</w>
mid night</w>
sta ys</w>
f ici
vac ation</w>
prepar ation</w>
an a
g ates</w>
con stant</w>
human ity</w>
for mation</w>
frien d
n on</w>
tor n</w>
at lan
re infor
3 6</w>
clean ing</w>
reli eved</w>
good bye</w>
af fairs</w>
robo t</w>
dee ply</w>
pic king</w>
rela tions</w>
w en
thir ty</w>
ear ned</w>
vo ted</w>
speci fy</w>
cance l</w>
coordin ation</w>
th ly</w>
promo te</w>
sh a</w>
custo mer</w>
au stri
te sted</w>
sor s</w>
pu shing</w>
m m-
identi fication</w>
ac cused</w>
si mon</w>
fi s
correc tly</w>
as sure</w>
streng th
fla g</w>
p y</w>
k ev
bl on
ve ge
dri zz
con tain
mo tion</w>
g lu
r al
a king</w>
resi stance</w>
gi cal</w>
off ers</w>
n is</w>
de mon</w>
cur se</w>
on ing</w>
n ate</w>
in her
a uc
di a
tr act</w>
p ure</w>
lean ed</w>
instal led</w>
stu di
effecti vely</w>
j i
sc ent</w>
streng then</w>
some what</w>
exhau sted</w>
lan ded</w>
ki m</w>
con gre
mi le</w>
belon ged</w>
h o</w>
ce iling</w>
tic kets</w>
de fault</w>
car bon</w>
lo sses</w>
ju ris
na vy</w>
co le</w>
prote cting</w>
fortun e</w>
sion ally</w>
pi cal</w>
juris di
fri ghtened</w>
solu tions</w>
hu mili
ch o</w>
sac rif
co ck
cha se</w>
arri val</w>
pi es</w>
ite m</w>
grand mother</w>
colu mn</w>
dol lar</w>
de scen
sen ior</w>
d ges</w>
scre w</w>
wi de
individu als</w>
s or</w>
men tary</w>
exi sts</w>
confe ss</w>
ni ghts</w>
inspe ction</w>
ic a</w>
cap tured</w>
comb at</w>
wi shed</w>
wh el
re fer</w>
pri ori
comm it</w>
b and
up date</w>
witne sses</w>
org an
ge on</w>
ru ling</w>
sku ll</w>
difficul ties</w>
d ary</w>
pro pose</w>
s mu
vie wed</w>
purcha se</w>
ur a</w>
comb ined</w>
popu lar</w>
j ason</w>
hol ds</w>
challeng es</w>
a ven
toi let</w>
bi e</w>
ste aling</w>
samp les</w>
manufac turer</w>
allow ing</w>
su peri
ti tle</w>
imag es</w>
v or</w>
mon day</w>
vul ner
respe cted</w>
be half</w>
v ere</w>
bur st</w>
tar gets</w>
representa tives</w>
represen ted</w>
sha king</w>
fas cin
cri tical</w>
un ted</w>
see king</w>
ho ok</w>
min or</w>
per form</w>
cha ir
organi zation</w>
3 00</w>
pp ers</w>
i ties</w>
ed ward</w>
ac id</w>
psy chi
ac tor</w>
per cen
ne ther
mean time</w>
th ed</w>
i so
an dy</w>
fol ks</w>
cali for
in ner</w>
adjust ment</w>
wh ore</w>
di ag
z ar
exce ed</w>
tion ary</w>
st ages</w>
sit es</w>
liter ally</w>
gu s</w>
fe bru
sen ator</w>
ct ure</w>
indi an</w>
de cent</w>
9 5</w>
na h</w>
t .</w>
febru ary</w>
reven ue</w>
fac ing</w>
cti vely</w>
behavi or</w>
ne ver
3 3</w>
pri de</w>
ti m
ele ction</w>
bo l
sacrif ice</w>
m ere</w>
posi tions</w>
regi me</w>
cr ack</w>
patter n</w>
pat ro
at tribu
ra y
th -
lic ate</w>
fac tor</w>
b ited</w>
du mped</w>
fif ty</w>
compla int</w>
fe a
inter ven
hor ror</w>
che f</w>
a ks</w>
per si
wi shes</w>
bi tion</w>
struc tural</w>
new sp
sh y</w>
spor ts</w>
va st</w>
ran dom</w>
func tioning</w>
deter mination</w>
necess arily</w>
mexic o</w>
pen e
co t
sh ri
gentle man</w>
off ering</w>
pan el</w>
br it
wat ers</w>
scre amed</w>
lu ke</w>
low -
as ha
unex pe
behavi our</w>
ru sh</w>
p .
pin k</w>
in san
bo ats</w>
newsp aper</w>
de duc
stab ility</w>
sub -
qu es</w>
defe at</w>
con fli
colle cted</w>
rep ly</w>
p acked</w>
ho les</w>
cour ts</w>
climb ed</w>
we stern</w>
k g</w>
drizz t</w>
pi lls</w>
discu ssed</w>
ad ven
techno logies</w>
swe at</w>
ri ce</w>
indi a</w>
dis gu
califor nia</w>
de vices</w>
be aten</w>
imag ined</w>
te aching</w>
over whel
dir t</w>
ing -
demonstr ated</w>
ac he</w>
gu id
fra ud</w>
particip ants</w>
rela tive</w>
p ments</w>
hone stly</w>
n -
part nership</w>
jap an</w>
exemp tion</w>
wal ter</w>
ge st</w>
mar k
refle cted</w>
mag ne
pla y
hea vi
ur al</w>
mo de</w>
judi cial</w>
att or
ar chi
doub ts</w>
quali fied</w>
lu m</w>
tax es</w>
da y
fe atures</w>
and a</w>
t ty</w>
calcu lation</w>
movi es</w>
hand some</w>
se vere</w>
nether lands</w>
stra i
na tions</w>
trac ks</w>
he ight</w>
bra ins</w>
amend ments</w>
bud ge
ad ult</w>
descri be</w>
att acks</w>
compon ents</w>
y u
ro b</w>
man s</w>
clar k</w>
b id</w>
v ine</w>
sear ched</w>
ele ct
geni us</w>
3 7</w>
design ated</w>
ignor e</w>
enti ally</w>
down stairs</w>
con stantly</w>
camer as</w>
an ne</w>
ga ze</w>
su l
n ity</w>
mo le
hit ting</w>
s man</w>
defen dant</w>
p ages</w>
sche mes</w>
ki ssed</w>
san ta</w>
na vi
ro wed</w>
sco tt</w>
remo te</w>
supp lied</w>
mb ur
re solution</w>
4 2</w>
jurisdi ction</w>
distin gui
s se</w>
assur ed</w>
incur red</w>
mon o
in jection</w>
de pre
reque sts</w>
substan tial</w>
inci dent</w>
abo ard</w>
magaz ine</w>
dy na
pa rent</w>
deb ate</w>
tal ks</w>
au gust</w>
kev in</w>
mi st</w>
cri min
i ra
chi ca
pu p
t less</w>
te ar</w>
subsequ ent</w>
def ence</w>
bri an</w>
smoo th</w>
passen ger</w>
la bel</w>
bin ding</w>
3 8</w>
b ent</w>
satell ite</w>
pu zz
spe ct
meas ured</w>
cri mes</w>
gover nor</w>
asha med</w>
obje cts</w>
bran ch</w>
in t
contribu tions</w>
plat form</w>
g an
ste ad
cover s</w>
appa rent</w>
inven ted</w>
infe cted</w>
pi e</w>
exten sion</w>
fe eding</w>
accep table</w>
esti mate</w>
di e
che ap</w>
reco ver</w>
percen tage</w>
gradu ally</w>
e- mail</w>
geographi cal</w>
do c</w>
fa i
web site</w>
im peri
g all
af fair</w>
dar ling</w>
lic ence</w>
confli ct</w>
chica go</w>
nu mer
p in</w>
be ard</w>
initi atives</w>
un like</w>
ter ror</w>
spo tted</w>
betra yed</w>
gar age</w>
d al
co s</w>
po st-
worl ds</w>
mu si
govern ments</w>
terri fied</w>
scienti sts</w>
grand ma</w>
d v
li a</w>
su m</w>
dis cover</w>
so il</w>
s car</w>
channe l</w>
sub mission</w>
j o</w>
in tend</w>
ch ris</w>
3 4</w>
gr ants</w>
in ary</w>
reli able</w>
t uc
po l
eg g</w>
4 /
p .</w>
o re
sc ru
on e
wor thy</w>
electri c</w>
cha sing</w>
b ars</w>
disc lo
in n</w>
gi l
continu es</w>
gal ax
cre te</w>
i ri
ad ul
pla yers</w>
disci pl
atmo sphere</w>
discu ssion</w>
base ment</w>
per su
indi cation</w>
impro vement</w>
mysteri ous</w>
wan ting</w>
viol ent</w>
re con
trans action</w>
/ or</w>
r ats</w>
n ings</w>
ou ts</w>
co operate</w>
our ing</w>
offici ally</w>
pri e
gu l
frequ ency</w>
liqu id</w>
ch ron
in visible</w>
attrac tive</w>
9 /
cho col
a k
p it</w>
bb er</w>
and /or</w>
as ing</w>
ha bit
beli ef</w>
mor al</w>
ko re
sho pping</w>
proce ed</w>
obse ssed</w>
disa ster</w>
citi zen</w>
tw are</w>
sett lement</w>
pro phe
fla sh</w>
son gs</w>
lo g</w>
f ounded</w>
auto matic</w>
oxy gen</w>
h its</w>
sto pping</w>
rapi dly</w>
inv itation</w>
je ssi
lo ans</w>
admini stered</w>
ex hi
schedu led</w>
win d
6 5</w>
ob stac
3 9</w>
w y
lon ely</w>
deter mining</w>
pre cise</w>
impro ving</w>
ca res</w>
lo g
i re
recommen dation</w>
th ank
sh aring</w>
rela tively</w>
deal t</w>
ch in</w>
g dp</w>
se ssion</w>
hope fully</w>
fe ared</w>
ali ties</w>
regu larly</w>
al ice</w>
ff in</w>
success fully</w>
r hy
vis ited</w>
th ful</w>
no ble</w>
2 /
men ted</w>
der o
sc an
coun ting</w>
multi ple</w>
susp ended</w>
conduc ted</w>
pen ny</w>
enterpri se</w>
sof tware</w>
helicop ter</w>
be ings</w>
ap pointed</w>
la p</w>
ac king</w>
natur ally</w>
horri ble</w>
al an</w>
com ment</w>
hi lls</w>
ki lo
struc tures</w>
ev es</w>
sm a</w>
mur ders</w>
k ened</w>
inte gration</w>
stake holders</w>
brea ks</w>
mu se
de fic
v au
sc at
ter ly</w>
studi o</w>
gra vity</w>
i f
ra in
li qui
4 4</w>
ex tend</w>
ve ter
ri dge</w>
equi pped</w>
large ly</w>
custo dy</w>
ch uck</w>
cau ses</w>
budge tary</w>
pi zz
de cor
clean ed</w>
recor ding</w>
ess entially</w>
lead ership</w>
mu m</w>
leg ally</w>
hal f
gen tle</w>
u de</w>
state ments</w>
emplo yed</w>
tra ding</w>
hon ored</w>
ev ol
compar ison</w>
peri ods</w>
mani fe
swee the
in ju
net works</w>
t wel
re pa
ac i
su ck</w>
li p</w>
veri fication</w>
benefici ary</w>
wa it
promo tion</w>
a sh
scri pt</w>
poli tics</w>
d ag
fir mly</w>
enter ing</w>
fac ilities</w>
con soli
categ ories</w>
il er</w>
t as</w>
an -
sc ary</w>
sup er</w>
or ange</w>
e th
dead line</w>
terrori st</w>
7 .
k ins</w>
pro ven</w>
adju sted</w>
execu tive</w>
logi st</w>
gen u
fis cal</w>
8 7</w>
st un
si sters</w>
thi ef</w>
p al</w>
coo king</w>
er a</w>
ber g</w>
o do
n ick
al ties</w>
con ta
bow l</w>
sig nature</w>
m are</w>
mon key</w>
spe ctive</w>
re pair</w>
mi gration</w>
insi sted</w>
min es</w>
ir rit
wi ped</w>
confu sion</w>
o ts</w>
argu e</w>
pi ss</w>
dep lo
b age</w>
assu ming</w>
men u</w>
f are</w>
reduc ing</w>
demonstr ate</w>
ch er
am a</w>
3 /
con crete</w>
pe ace
ful filled</w>
en e</w>
pre judi
c enti
person nel</w>
cru el</w>
k at
por tu
thre sho
re serve</w>
guarante ed</w>
co ll
scho ols</w>
ma dam</w>
du mb</w>
au d
ru led</w>
mer cy</w>
al right</w>
s its</w>
ro g
cro wn</w>
happ iness</w>
so le</w>
v i</w>
gh t-
bo xes</w>
thr one</w>
stab ili
i p</w>
ar m
w ounds</w>
dr ank</w>
anti cip
far mers</w>
exclu ded</w>
r out
publi cation</w>
tu be</w>
oper ated</w>
musc les</w>
par ked</w>
inspe ctor</w>
roman tic</w>
particip ate</w>
fashi on</w>
coun ty</w>
ke y
tre asure</w>
f ers</w>
1 ,
exclu sively</w>
agen cies</w>
contra st</w>
2 -
mi x
ex it</w>
bor row</w>
prin cip
blo cks</w>
b our
transpa rency</w>
im ing</w>
candi dates</w>
vi o
expe c
ru de</w>
emi ly</w>
s .
4 9</w>
woo den</w>
t i</w>
sweethe art</w>
a z
l ace</w>
b .</w>
le ague</w>
brilli ant</w>
tradi tion</w>
su its</w>
secur ed</w>
infe ction</w>
co w
dre amed</w>
sac ri
gar bage</w>
po l</w>
law yers</w>
for mul
cry st
un comfortable</w>
sin s</w>
provi sional</w>
friend ship</w>
ignor ed</w>
ad am</w>
ma id</w>
guarante es</w>
it a</w>
ti le</w>
car tel</w>
elev ator</w>
sal t</w>
employe e</w>
cap ture</w>
4 3</w>
advi sed</w>
ti an</w>
cross- border</w>
serv ant</w>
tis sue</w>
eng ines</w>
compu ters</w>
frank ly</w>
pain ful</w>
fu ri
dee per</w>
six th</w>
conven i
supp le
mu d</w>
sti cal</w>
bo ar
el se
bul lets</w>
ki lls</w>
cro ssing</w>
wor ker</w>
swit ched</w>
diag no
r i</w>
en ted</w>
se aled</w>
c he</w>
li s
pe te</w>
exer ci
dee med</w>
4 7</w>
sh ine</w>
sand w
rob bed</w>
puni shed</w>
arti st</w>
s mes</w>
occa sionally</w>
shel ter</w>
of -
mista ken</w>
ma ke
su san</w>
dis missed</w>
sou thern</w>
sha re
ph ones</w>
de fine</w>
cat s</w>
vulner able</w>
initi ated</w>
ne ar
un happy</w>
ti ally</w>
glan ced</w>
invest ors</w>
some day</w>
hear ts</w>
de stin
po sing</w>
ware house</w>
over come</w>
to ol</w>
inst ant</w>
mo du
modi fied</w>
l -
g ments</w>
squ ad</w>
g al</w>
ac knowle
tur key</w>
aw k
stab bed</w>
sli p</w>
mor tal</w>
20 20</w>
se al</w>
susp en
so- called</w>
safe ly</w>
russi ans</w>
a mp
integr ated</w>
be am</w>
ra pid</w>
communic ate</w>
an nie</w>
tr unk</w>
a wa
sna ke</w>
se ats</w>
corp se</w>
con gr
ro ads</w>
broad cast</w>
equ ally</w>
f lower</w>
gran ting</w>
disp layed</w>
attor ney</w>
ar range</w>
less ly</w>
fav our</w>
sla ve</w>
sign ment</w>
sur ren
sex y</w>
ri pped</w>
sc o</w>
fore head</w>
light ning</w>
excep tional</w>
ber y</w>
att end</w>
are st</w>
si an</w>
f en
puni shment</w>
y i
en han
establi shing</w>
bu m</w>
never theless</w>
inte l
blo cked</w>
d ale</w>
i al</w>
e di
replac ement</w>
form at</w>
else where</w>
corpor ate</w>
we l</w>
d ried</w>
t z</w>
cigare tte</w>
ti li
occu pied</w>
op en
bloo d
th ur
car ter</w>
mea su
person ality</w>
emo tional</w>
christi an</w>
scen ari
alle ged</w>
in ev
3 0
x -
lo yal</w>
foun dation</w>
writ er</w>
lan e</w>
strate gic</w>
v ice</w>
sc al
r .</w>
child hood</w>
p ts</w>
pro cu
jour nal</w>
chocol ate</w>
quanti ty</w>
ar i</w>
den tly</w>
am i</w>
col our</w>
esc ort</w>
m ates</w>
mi gh
develo pments</w>
au dit
ga thering</w>
wa sted</w>
radi ation</w>
mi a</w>
religi ous</w>
b bit</w>
f ever</w>
lea ther</w>
bor ne</w>
pi le</w>
indicat ors</w>
ble ssed</w>
ski r
re ar</w>
conclu de</w>
guid ance</w>
opp on
instal lation</w>
te ach
preven ted</w>
extra ordinary</w>
shor tly</w>
fif teen</w>
constitu tes</w>
t ant</w>
comman ded</w>
se ment</w>
benefici aries</w>
ke lly</w>
i v</w>
ev a</w>
une mp
w w
deni ed</w>
dig ital</w>
fici al</w>
degre es</w>
ci ous</w>
near by</w>
is ra
at eral</w>
y '</w>
o p</w>
le on
intelli gent</w>
sna pped</w>
per mitted</w>
exi sted</w>
legi timate</w>
ga ther</w>
bo mb
pas sword</w>
mm- hmm</w>
ur gent</w>
as y
under ground</w>
da ve</w>
no t
leg end</w>
unemp lo
por ts</w>
gu ts</w>
ite ment</w>
c ke
demo cr
neighb ors</w>
dialo gue</w>
photo s</w>
eg y
procu rement</w>
bro w
lar ry</w>
fair ly</w>
dat ory</w>
sp er</w>
suspici ous</w>
cri tici
consider ations</w>
st atu
car l</w>
re se
st .</w>
dwar f</w>
un likely</w>
agen da</w>
adap ted</w>
-in- law</w>
sp ra
absolu te</w>
cere mony</w>
p ad
stu dying</w>
justi fy</w>
targe ted</w>
stati stics</w>
c ited</w>
ho pes</w>
sc ore</w>
guil t</w>
sacri fic
ti veness</w>
ire land</w>
to x
direc ted</w>
cu ts</w>
en thu
vie t
jack son</w>
ch uck
com posed</w>
enthu si
8 /
warri ors</w>
bo thered</w>
jer ry</w>
appe ll
mb ly</w>
consci ousness</w>
ea stern</w>
pat ri
horiz on</w>
er -
cl are</w>
mean while</w>
7 -
ex tin
weal th</w>
supp re
mon e
br and</w>
la ying</w>
acti vated</w>
s light</w>
proce sses</w>
abu se</w>
u t</w>
par alle
priori ties</w>
hand led</w>
a ware
mini stry</w>
fac tion</w>
cre dit
she ep</w>
spar hawk</w>
app lying</w>
as set</w>
patro l</w>
invol vement</w>
che er
b ang
fre ak</w>
boo ts</w>
den cy</w>
out come</w>
be e
priv acy</w>
hand ling</w>
attrac ted</w>
ques tion
fla mes</w>
pri vi
tra ge
serv ants</w>
re d
medic ines</w>
en velo
obje ctions</w>
distri ct</w>
jun gle</w>
adverti sing</w>
some time</w>
cra shed</w>
t ort
no -
proportion ate</w>
na m</w>
de pu
ri e</w>
sa r</w>
ma r</w>
increas ingly</w>
holi day</w>
be aring</w>
n i</w>
po t</w>
comprehen sive</w>
symp a
roo t</w>
f led</w>
agu es</w>
j uni
exc itement</w>
mat t</w>
dedi cated</w>
ci an</w>
respe ctive</w>
differ ently</w>
ca ge</w>
z z</w>
rin g
muse um</w>
4 -
the -
on y
p sy</w>
te ams</w>
pene tr
j ones</w>
re ne
ral ph</w>
de c
conten ts</w>
en vi
ho ward</w>
ear n</w>
ref ers</w>
ct able</w>
preci sely</w>
imag ination</w>
sou p</w>
fi lling</w>
fa int</w>
tri be</w>
sa il
fe u</w>
ur s</w>
ne st</w>
tort ure</w>
gri d</w>
exce ssive</w>
se an</w>
st ag
mi x</w>
rou gh
mur mur
mor gan</w>
ner ve</w>
refle ct</w>
n ine
en or
be lly</w>
phi l</w>
multi -
she ll</w>
ch ers</w>
se curi
gree ce</w>
u k</w>
conne ctions</w>
ad just</w>
nu mb
whe el
rel ates</w>
pi pe</w>
co w</w>
k or
di um</w>
prote ctive</w>
on g
d .
clo thing</w>
sa il</w>
in tra
twel ve</w>
galax y</w>
le o</w>
ther ine</w>
pa ys</w>
form ity</w>
vic tor</w>
sou ls</w>
non sense</w>
du mp</w>
qu ir
an der</w>
-R CB-</w>
man n</w>
f s</w>
discri mination</w>
stru ggle</w>
short -
coinci dence</w>
sho cked</w>
-L CB-</w>
E U
hun ter</w>
dis co
continu ing</w>
si zed</w>
pas sion</w>
admini str
lo ver</w>
dele te</w>
co des</w>
preci ous</w>
on a</w>
la mp</w>
heavi ly</w>
c ling</w>
19 7
mode ls</w>
pas sage</w>
vi et</w>
t ching</w>
pa per
nor thern</w>
compe tence</w>
pizz a</w>
occa sion</w>
4 6</w>
lo ading</w>
gl ory</w>
al located</w>
lar ity</w>
in sp
a we
me tri
ic h
clo se
where as</w>
an ch
bu ff
0 /
tech nic
p an</w>
sp ac
ec b</w>
survi val</w>
preten ding</w>
plan es</w>
f ence</w>
depar ture</w>
sta ke</w>
ra rely</w>
str ing</w>
reali sed</w>
enab led</w>
ran g</w>
fe e</w>
vi mes</w>
ba star
rin k
tre mbling</w>
br o</w>
exc iting</w>
po le</w>
obli ged</w>
ou ter</w>
f ancy</w>
dep end</w>
pow der</w>
1 -
tou ri
disco very</w>
5 5</w>
tou ching</w>
succe ed</w>
beg ging</w>
ph eno
kne e</w>
wol ves</w>
sh ru
communi ties</w>
b are</w>
t feu</w>
stu ffed</w>
k yle</w>
dis po
who a</w>
cou ch</w>
man datory</w>
alli ance</w>
bi shop</w>
vi sual</w>
classi fication</w>
ro ss</w>
proce ssed</w>
parti al</w>
ali sts</w>
ve l
k night</w>
b lowing</w>
figh ters</w>
4 1</w>
nee dle</w>
co pies</w>
proper ties</w>
ten sion</w>
parti ally</w>
mo ti
tr y
en courage</w>
app le</w>
ac commo
accur ate</w>
sla ves</w>
a mi
li sa</w>
subje cts</w>
discre tion</w>
difficul ty</w>
supervi sory</w>
invol ving</w>
cle ver</w>
a v
pe ar
mit ting</w>
argu ed</w>
wi s
mou se</w>
a i
crimin als</w>
et c.</w>
divor ced</w>
insan e</w>
ge ar</w>
ro ger</w>
enjo ying</w>
symbo l</w>
re late</w>
chair man</w>
na mely</w>
moun ted</w>
phi lo
eag er</w>
y wood</w>
cli ff</w>
presen tation</w>
ly n
investi gate</w>
t tered</w>
ali zed</w>
spir its</w>
me ch
u ri
sin k</w>
assi st</w>
wea kness</w>
wi pe</w>
inju ries</w>
visit ors</w>
sh rin
mo tor
clo set</w>
bastar ds</w>
acci den
so m</w>
cur rency</w>
vin ce</w>
se ctions</w>
c lic
so viet</w>
wal ks</w>
st ops</w>
f an
grand pa</w>
di gging</w>
na ils</w>
o m
religi on</w>
me ta
pe e</w>
re forms</w>
sum mary</w>
land s
less ons</w>
do ck</w>
whe els</w>
ju ice</w>
bi lls</w>
enterpri ses</w>
vir gin</w>
sav ings</w>
initi ally</w>
threat ening</w>
deman ds</w>
enthusi as
re y</w>
o b</w>
aware ness</w>
pre fer
bo tt
ty pical</w>
medi um</w>
ge l</w>
vamp ires</w>
st are</w>
defic it</w>
cru sh</w>
ev o
nan ny</w>
k are
pla ys</w>
mari ly</w>
ou rable</w>
l i</w>
cei ved</w>
ro land</w>
e co
pu ssy</w>
ce p
pri ze</w>
pr on
o sity</w>
can dy</w>
st y
t tes</w>
fe ars</w>
fi res</w>
tal e</w>
confi dential</w>
p her</w>
sto cks</w>
in ter</w>
sk y
princip al</w>
je ff</w>
hel en</w>
car ed</w>
elect ro
sil k</w>
di an</w>
er rors</w>
cont acts</w>
ve gas</w>
er ation</w>
b li
tur ers</w>
wor ding</w>
rif le</w>
ra il</w>
with draw
execu tion</w>
tra u
men tally</w>
lo dged</w>
la yer</w>
g ins</w>
ski p</w>
6 /
pal m</w>
migh ty</w>
comp are</w>
mole cu
withdraw al</w>
su it
acce ssion</w>
v ate</w>
gari on</w>
ge e</w>
g age</w>
a-a-a-a- a-a-a-a-
poli tici
musc le</w>
eli za
opini ons</w>
par tic
subsequ ently</w>
b ic
ol d-
ar row</w>
na z
dun can</w>
admissi ble</w>
pursu ed</w>
do ses</w>
mo tor</w>
rout ine</w>
nu t</w>
lun gs</w>
har m
lo t
br a</w>
po t
stron gly</w>
pro spe
testi fy</w>
ha tes</w>
indic ates</w>
amb assa
ham mer</w>
em ma</w>
stead y</w>
charac ters</w>
t ons</w>
prejudi ce</w>
a in</w>
y an</w>
sha ped</w>
9 9</w>
documen tation</w>
competi tiveness</w>
cla ire</w>
com ra
vi c</w>
ce ll
wh it
half way</w>
h ank</w>
tal i
8 .
ra bbit</w>
pheno men
sen ten
bu g</w>
sti le</w>
concentr ate</w>
surve y</w>
secon dly</w>
tr ed</w>
pla sma</w>
ke t
rob bery</w>
recommen d</w>
large st</w>
regar dless</w>
sac red</w>
coun ter</w>
ow ners</w>
criteri on</w>
an ni
clu e</w>
cal en
trac king</w>
fanta stic</w>
y l</w>
unexpe cted</w>
re stra
co stu
bre e
9 2</w>
is lands</w>
sti cking</w>
star tled</w>
up dated</w>
swe pt</w>
back up</w>
cat tle</w>
candi date</w>
ha tred</w>
be a
read s</w>
z o</w>
i sa
compar able</w>
vari ety</w>
kee per</w>
ger mans</w>
g lit
thri lled</w>
cla sses</w>
7 /
interru pt</w>
j a</w>
re mark
fu sion</w>
ma gical</w>
tal s</w>
par aly
mechan isms</w>
transpa rent</w>
p ace</w>
g le
with draw</w>
pro vo
o par
boo th</w>
the ater</w>
terrori sts</w>
acce ssi
b at</w>
tex as</w>
fe es</w>
eliza beth</w>
5 /
per spective</w>
fin ed</w>
emo tions</w>
cau tion</w>
br on
sett ings</w>
organi sed</w>
lo ving</w>
mu lation</w>
ac tors</w>
o' clock</w>
ha ir
medi cation</w>
ele cted</w>
con qu
li ly</w>
ali sm</w>
me dit
fe l
destin y</w>
ast oni
logi c</w>
ha bit</w>
pl ates</w>
mar gin</w>
ki es</w>
bac ks</w>
demon s</w>
pri marily</w>
ab road</w>
po ly
pi c</w>
defe ated</w>
paralle l</w>
batt le
5 1</w>
lo ck
fi led</w>
sme lls</w>
air lines</w>
sof tly</w>
ga p</w>
ra pe</w>
ly n</w>
clin ed</w>
z zy</w>
po e
h ong</w>
wal let</w>
extre me</w>
deliber ately</w>
colle ctive</w>
adul ts</w>
experi ment</w>
ag ne</w>
si e</w>
fig ur
mi d-
fol ded</w>
c i</w>
micro soft</w>
in ted</w>
exclu sive</w>
mo bility</w>
satis faction</w>
ta il
i sol
beg ins</w>
con struc
g no
g gy</w>
consequ ence</w>
pun ch</w>
coun ted</w>
promo ted</w>
sa ble</w>
j .</w>
cru shed</w>
ma c</w>
bru sh</w>
su ited</w>
sta tions</w>
to ast</w>
mar s</w>
si ck
se as</w>
loy alty</w>
bran ches</w>
pregn ancy</w>
jo ey</w>
re store</w>
miser able</w>
murmur ed</w>
gar den
be have</w>
graphi c</w>
de layed</w>
tu m</w>
dro pping</w>
commissi oner</w>
night mare</w>
deser ves</w>
sp ace
fli ghts</w>
op ens</w>
kin ds</w>
ter ies</w>
ste in</w>
mo mmy</w>
inclu sion</w>
ho mes</w>
visit ing</w>
meth odo
tho u</w>
ange les</w>
win ner</w>
na il</w>
climb ing</w>
la ughter</w>
con tradi
ance st
am on</w>
g low</w>
ro y</w>
con formity</w>
na i
w ars</w>
v ital</w>
st en</w>
li sts</w>
a man
fi st</w>
finan ced</w>
close st</w>
wal ker</w>
m ma</w>
crow ded</w>
congr atu
z y
re called</w>
gra m</w>
on going</w>
fre sh
al location</w>
invol ve</w>
appropri ations</w>
ph ra
revolu tion</w>
i x</w>
di sor
d ge
surr ounding</w>
gover ning</w>
you -
wa sting</w>
sub paragraph</w>
ani a</w>
ol y
wa i
pi gs</w>
bab ies</w>
sh ining</w>
d d</w>
bu ll</w>
bri de</w>
imperi al</w>
ri son</w>
mi e</w>
tu es
super vision</w>
missi le</w>
fortun ate</w>
co her
fulfi l</w>
dr a</w>
bor ders</w>
op er</w>
luc y</w>
compon ent</w>
ex trac
thre aten</w>
5 2</w>
progra ms</w>
far ther</w>
wo od
fav our
p lot</w>
po land</w>
cla y</w>
st ur
explo de</w>
9 6</w>
lean ing</w>
intel lec
par tly</w>
dis gui
re turns</w>
bo mbs</w>
noti fy</w>
8 8</w>
w are</w>
sh i</w>
deman ded</w>
ac custo
colle agues</w>
bar on</w>
ac quired</w>
deca des</w>
fil ms</w>
cle aring</w>
depen dent</w>
pat rick</w>
o logy</w>
sli m</w>
ran dy</w>
gran ny</w>
technic ally</w>
pois oned</w>
off ended</w>
hur ting</w>
at titude</w>
indepen dence</w>
9 3</w>
sma shed</w>
ni c</w>
lu tion</w>
eli minate</w>
li ers</w>
clo sure</w>
5 -
ste ph
lab or</w>
head quarters</w>
corru ption</w>
de l</w>
arti ficial</w>
organi zed</w>
cho o
char ming</w>
v als</w>
possi bilities</w>
de va
dur al</w>
posse ssion</w>
concer t</w>
l ur
jessi ca</w>
gener ations</w>
direc tives</w>
ad ding</w>
tele phone</w>
ar a</w>
accusto med</w>
9 .
se ed</w>
in ti
ho stage</w>
fur nit
transi tion</w>
represen ts</w>
dep th</w>
be loved</w>
8 5</w>
me ss
shu t
inst all</w>
wi d
cor n</w>
sugge sts</w>
j i</w>
we ls</w>
prin ted</w>
furnit ure</w>
low ered</w>
sh in
un conscious</w>
sy l
repor ter</w>
m in</w>
w ers</w>
gri ef</w>
cre e
part ments</w>
6 8</w>
gh ten</w>
lo ser</w>
ban king</w>
sti cks</w>
fl ori
bu st</w>
gro ss</w>
sc or
k ong</w>
ra mi
pe e
sk in
out put</w>
sho e</w>
andre w</w>
relation ships</w>
ear th
v ag
pre ferred</w>
e st
ro man</w>
g /
fe sti
a o</w>
dest ination</w>
9 8</w>
re new
emo tion</w>
neu ro
da ugh
im m
under wear</w>
rati o</w>
polit e</w>
deca de</w>
clo th</w>
dead ly</w>
con sent</w>
gr in
organi c</w>
thresho ld</w>
c on</w>
gl ori
col ors</w>
har b
frequ ently</w>
gri p</w>
avoi ded</w>
suspici on</w>
champ agne</w>
jac ob</w>
tax ation</w>
monit ored</w>
all er
car o
acade my</w>
wri st</w>
impor ted</w>
ti se</w>
fu ll-
sh it
bal anced</w>
pro m</w>
flow ing</w>
o li
blan ket</w>
lo cate</w>
ti a</w>
suspen sion</w>
deci des</w>
bi ble</w>
out ta</w>
don na</w>
pun ched</w>
robo ts</w>
fol der</w>
coo ked</w>
bra tion</w>
arran gement</w>
legis lat
for t</w>
ge t
5 7</w>
swal lowed</w>
re sting</w>
disp at
stri ct</w>
de clare</w>
d u</w>
compla ints</w>
va tive</w>
prof its</w>
8 1</w>
ra m
i b
for bi
met res</w>
but ter</w>
al leg
jo se
4 00</w>
dro ps</w>
teach ers</w>
prescri bed</w>
lon g
cryst al</w>
vac c
h tt
ca tional</w>
bit ter</w>
base ball</w>
in after</w>
disgu sting</w>
adjust ments</w>
me l</w>
con spir
propor tion</w>
im pe
in valid</w>
encoun ter</w>
boo ked</w>
govern ance</w>
d ors</w>
an ony
7 1</w>
re mun
here inafter</w>
d ous</w>
b ren
tues day</w>
diamon d</w>
manufac turers</w>
com position</w>
ma the
expor ting</w>
seri al</w>
rever se</w>
poli sh</w>
pic k
gi fts</w>
di gn
e p
con dem
k ur
distr acted</w>
brea sts</w>
b acked</w>
fla me</w>
distur bed</w>
th less</w>
ki ssing</w>
t ches</w>
langu ages</w>
gest ure</w>
e ternal</w>
consci ence</w>
pack aging</w>
dete cted</w>
disc oun
w ins</w>
ous y</w>
tt i</w>
ma ker</w>
ll en
mb er
c ca</w>
emer ged</w>
ru m
ra ped</w>
bo ston</w>
vi sa</w>
sor ted</w>
plan ted</w>
o logical</w>
po llu
enor mous</w>
dispo sal</w>
fi er
we d
sin g
f lin
der ly</w>
in tru
un law
ori al</w>
bu sted</w>
il a</w>
depu ty</w>
calen dar</w>
favour ite</w>
expec tations</w>
foo lish</w>
re i
rail way</w>
b ou
assa ult</w>
high way</w>
dro wned</w>
mo thers</w>
k ri
na than</w>
ma d
l ment</w>
d ney</w>
bro o
0 ,
re moving</w>
sal ary</w>
all -
so lar</w>
ira q</w>
cha os</w>
k y
ca sting</w>
f i</w>
missi les</w>
con temp
9 4</w>
free ze</w>
mat ure</w>
desper ately</w>
s worn</w>
ne arest</w>
im pose</w>
rob in</w>
as signment</w>
ve t</w>
resi st</w>
in gre
t to</w>
in se
r ural</w>
cigare ttes</w>
hero es</w>
gy m</w>
mo sco
disa bled</w>
he al</w>
sor ts</w>
ac qua
secon dary</w>
austri a</w>
kin da</w>
awk ward</w>
p ag
fo cu
l ung</w>
jo ining</w>
poli ce
chi ll</w>
p ity</w>
announ ce</w>
de licate</w>
ch u
answ ering</w>
lin ks</w>
in put</w>
awe some</w>
cha sed</w>
ke l</w>
exten sive</w>
sub stitu
dre sses</w>
fav ourable</w>
juni or</w>
ma sters</w>
instruc ted</w>
hou sing</w>
si mul
o tic</w>
e cho
oppon ent</w>
fo ld</w>
with drawn</w>
bio logical</w>
she ets</w>
design ation</w>
ber lin</w>
ki llers</w>
su pre
gue ssing</w>
para meters</w>
mar ty</w>
gol f</w>
u m-
inter im</w>
ar mor</w>
proce dural</w>
hal l
t s
l ang
figh ter</w>
f lies</w>
s can</w>
pa used</w>
par don</w>
in k</w>
flo ating</w>
cra tic</w>
ca sin
strang ers</w>
smu gg
je ws</w>
en di
mother fucker</w>
sno w
n as
ligh ting</w>
ingre di
ti er</w>
me ssed</w>
po pe</w>
is er</w>
op position</w>
encoura ged</w>
thur sday</w>
juli a</w>
gu it
vani shed</w>
magne tic</w>
g ary</w>
produc ing</w>
am bul
neu tr
b l</w>
be ar
increas es</w>
appro ve</w>
remin ds</w>
gene tic</w>
che ck
inten se</w>
exp lic
199 8</w>
house hold</w>
gener ous</w>
hel met</w>
asse mbly</w>
lea k</w>
hon our</w>
3 -
5 3</w>
re solved</w>
ambassa dor</w>
arch ite
ban k
en cies</w>
cle arance</w>
annu lment</w>
dele ted</w>
murder er</w>
ma dness</w>
insi st</w>
lin da</w>
in ch</w>
scat tered</w>
mosco w</w>
ad ri
x on</w>
o liver</w>
dec line</w>
attemp ted</w>
da me</w>
holl ywood</w>
cat ching</w>
bur ns</w>
competi tors</w>
promo ting</w>
surren der</w>
mut tered</w>
there by</w>
de ton
ambul ance</w>
a. m.</w>
l n
de served</w>
bure au</w>
ad vo
good- bye</w>
re vo
cri pp
oper ative</w>
jer k</w>
tor e</w>
pu mp</w>
ch y</w>
stre tch</w>
ken ne
expla ins</w>
e yed</w>
particip ating</w>
concentr ated</w>
whi sper</w>
iri sh</w>
b au
tim ately</w>
carri er</w>
shou ting</w>
se ated</w>
incredi bly</w>
sig ning</w>
gen e</w>
destro ying</w>
s wing</w>
terri bly</w>
cru cial</w>
appro aching</w>
scenari o</w>
pas ses</w>
in o</w>
encoun tered</w>
wis dom</w>
opti mi
201 5</w>
in fin
j ar
9 1</w>
in corpor
cur sed</w>
execu ted</w>
jor dan</w>
gra y
ic y</w>
la h</w>
help ful</w>
cance led</w>
sa fer</w>
che mic
belgi um</w>
me dy</w>
wa shing</w>
pe ak</w>
c ler
adap t</w>
sub mits</w>
stati stical</w>
pen alty</w>
mari e</w>
john son</w>
resi dents</w>
ho mework</w>
ba il</w>
e ter
direc tions</w>
6 4</w>
ra bb
v as
mon sters</w>
ho m
u mp
ange la</w>
o oh</w>
co al</w>
tin a</w>
collap sed</w>
til ity</w>
sla ugh
prac tically</w>
expe di
bo ok
pro mp
ne ll</w>
profe ssion</w>
embarra ssing</w>
7 2</w>
inter ior</w>
time -
sti ff</w>
du ly</w>
to bac
interpre ted</w>
ali ens</w>
th at
rhy th
hu g</w>
g ur
be an</w>
ff ing</w>
ce l
6 3</w>
sex u
satis fy</w>
pul se</w>
jen ny</w>
ter minal</w>
sugge sting</w>
scrat ch</w>
far mer</w>
moun t</w>
techni que</w>
flow s</w>
democr acy</w>
champ ion</w>
s words</w>
dimen sion</w>
5 6</w>
in hi
in va
com mon
z en
sh -
advi se</w>
5 4</w>
tr uc
pron oun
compla in</w>
bon ds</w>
th an
sli d</w>
responsi bilities</w>
p ting</w>
gi a</w>
f ur</w>
vo tes</w>
a warded</w>
there of</w>
bu ck
acti c</w>
od ds</w>
li o</w>
fir st-
chi p</w>
al fred</w>
t ang
sle y</w>
pu rely</w>
restri ction</w>
psychi atri
ver ing</w>
te ch</w>
li able</w>
recei pt</w>
happ ily</w>
ra dar</w>
busin ess
sco t
ge ous</w>
que st</w>
abo li
ke l
investig ating</w>
te ss</w>
gor don</w>
imm unity</w>
mar ines</w>
engine er</w>
bri m</w>
sti r
el ves</w>
mean ing
le s
di et</w>
tri als</w>
je wish</w>
th a
ev i
per pe
or bit</w>
kic king</w>
dre aming</w>
ga u
deli cious</w>
b -
ster o
f abri
superi or</w>
manu al</w>
cat ches</w>
ani e</w>
sli de</w>
en ga
professi on
pac i
attemp ts</w>
ght ful</w>
formul a</w>
mar a</w>
re source</w>
pas sport</w>
mon t</w>
plan ets</w>
occur s</w>
he i
fo ster</w>
electri cal</w>
ste pping</w>
o ath</w>
colu m
volun tary</w>
vic tori
promi ses</w>
mun ici
vo y
pe cu
tre ating</w>
asy lum</w>
re al
pen is</w>
mo tive</w>
do o
bur g</w>
po sted</w>
wa ving</w>
EU R
trave ling</w>
rec itals</w>
for ty</w>
to y</w>
po ver
g g</w>
clari fy</w>
strugg ling</w>
mor s</w>
ll as</w>
sur geon</w>
mar ia</w>
con fron
yl or</w>
re stored</w>
6 1</w>
du g</w>
brief ly</w>
inter f
tri cks</w>
di ct
c .
t anks</w>
quir ing</w>
collap se</w>
col ored</w>
v able</w>
du mb
bo ot</w>
glo ves</w>
ban g</w>
remun eration</w>
ho mo
bar n</w>
9 7</w>
6 6</w>
y a
fir ing</w>
car pet</w>
li ons</w>
appe ti
v ors</w>
pow ered</w>
vir tu
o la
ly -
d in</w>
sp ite</w>
nu tri
eu -
viet nam</w>
mat h</w>
6 7</w>
ti t
fat al</w>
cla use</w>
here by</w>
j ay</w>
expor ts</w>
st ling</w>
mp les</w>
compani ons</w>
1 50</w>
contain er</w>
interf ere</w>
g ori
sne ak</w>
securi ties</w>
im per
ch at</w>
trage dy</w>
paper work</w>
explo ded</w>
la tin</w>
vir tually</w>
in cen
argu ing</w>
car amon</w>
w ning</w>
ur ban</w>
car di
si e
bri ck</w>
a stron
6 2</w>
prohi bited</w>
e duc
tobac co</w>
spre ading</w>
s ally</w>
o di
for cing</w>
suspe cts</w>
shar ply</w>
gover ned</w>
po ckets</w>
brea st</w>
c tr
ph an
lis bon</w>
isol ated</w>
guar ded</w>
jud ged</w>
o le</w>
surpri sing</w>
civili an</w>
ven s</w>
s ary</w>
ban ds</w>
strength ening</w>
pe st</w>
mor t
sei zed</w>
el ena</w>
administr ator</w>
veri fied</w>
fi a</w>
l .a.</w>
doub le-
ab duc
pur se</w>
direc tor
sen ses</w>
pover ty</w>
4 0
san g</w>
un necessary</w>
stro ke</w>
life time</w>
k on
je t</w>
spea ks</w>
l ant</w>
do main</w>
clin ic</w>
pati ence</w>
estim ates</w>
confi dent</w>
impre ssive</w>
deri ved</w>
pursu e</w>
off ices</w>
g loo
lic ences</w>
expen ses</w>
thre ats</w>
re tired</w>
din ing</w>
che ating</w>
10 ,000</w>
5 9</w>
sen sors</w>
ro be</w>
stri p</w>
5 8</w>
or ation</w>
exp iry</w>
g ons</w>
s wore</w>
manag ing</w>
fa iry</w>
vali dity</w>
min us</w>
sophi e</w>
si tion</w>
radi o
emb as
cal s</w>
too th</w>
origin ally</w>
m acro
le f
cr acked</w>
sto ck
compani on</w>
histori cal</w>
colle ague</w>
ma u
embas sy</w>
ber ry</w>
trou bled</w>
confe ssion</w>
asse ssing</w>
ma ss
i van</w>
mobi li
char ity</w>
p ine</w>
diver sity</w>
jo kes</w>
yo n</w>
sun light</w>
r ank</w>
e ties</w>
ancest ors</w>
c it
dign ity</w>
wide ly</w>
labe lling</w>
idi ots</w>
tal ity</w>
mee ts</w>
program ming</w>
mi ller</w>
bar ry</w>
ou l</w>
de pressed</w>
pa ths</w>
la d</w>
fri ed</w>
mo on
main taining</w>
promi sing</w>
her mi
ta ke
rin ging</w>
philo so
ter ia</w>
publi sh</w>
dis ru
cre di
mo vements</w>
lo bby</w>
expre ssly</w>
forbi dden</w>
dea ths</w>
adi ly</w>
fai thful</w>
g ered</w>
sw ung</w>
be lla</w>
re aches</w>
emplo yer</w>
u res</w>
pe l</w>
t ance</w>
ob serve</w>
rela tives</w>
ow ns</w>
gener ated</w>
physi cally</w>
bad ge</w>
6 9</w>
great ly</w>
sandw ich</w>
fa x</w>
c is</w>
fi xing</w>
va in</w>
ro d</w>
stre ssed</w>
jud ges</w>
mi stress</w>
emer ging</w>
divi de</w>
nic ely</w>
sum mon
ic ked</w>
fo x</w>
squee ze</w>
ques tioning</w>
stri ctly</w>
or a</w>
ro cket</w>
labor atory</w>
wi ves</w>
supp liers</w>
cha irs</w>
ye lling</w>
thu mb</w>
wra p</w>
public ly</w>
func tional</w>
seven th</w>
de voted</w>
un fair</w>
insu l
l on</w>
fi ve-
h ers</w>
sen ds</w>
ni cole</w>
ca su
tw ins</w>
slo pe</w>
issu ing</w>
inter medi
equ ity</w>
le on</w>
thor ough
m our
gl ance</w>
gue ssed</w>
str ange
fashi oned</w>
discu ssions</w>
mar shall</w>
le ton</w>
men t
hermi one</w>
pen ding</w>
s wo
pi sto
au str
ques tioned</w>
p oured</w>
ow nership</w>
exper tise</w>
tat too</w>
per ver
the e</w>
to xic
sa int</w>
el ing</w>
ali sation</w>
al i</w>
pa thetic</w>
m m
le d
floo d</w>
ali ze</w>
sa ddle</w>
at er
fa ils</w>
ha tch</w>
plac e
gh test</w>
star k</w>
f ans</w>
d ging</w>
so o
bas ket</w>
cr ou
in vo
testi mony</w>
pac king</w>
ll i</w>
deci sive</w>
da mag
jud ging</w>
after wards</w>
lo cker</w>
inde x</w>
prohi bition</w>
v ard</w>
direc tory</w>
identi cal</w>
gh ted</w>
m n
jer sey</w>
wed ne
horiz on
flexi ble</w>
f aded</w>
institu te</w>
stu b
privi le
o wed</w>
o sa
nation als</w>
enga gement</w>
vis or</w>
dis k</w>
in duc
deal er</w>
happ i
mat ches</w>
as ses</w>
ele ph
depo sit</w>
con sen
je opar
harmoni sed</w>
fur y</w>
tane ously</w>
pl un
hor n</w>
ne phe
intellec tual</w>
do ll</w>
agri culture</w>
ty ler</w>
pi ano</w>
quo ta</w>
fr ac
finger prints</w>
th under</w>
ru bber</w>
stat ue</w>
che ek</w>
envelo pe</w>
preven ting</w>
rac es</w>
oun d
mun e</w>
tr ous
con flic
ar o
strate gies</w>
rough ly</w>
* *
tri ump
po ta
fran ci
ani cal</w>
er ran
adven ture</w>
resul ted</w>
civili zation</w>
spir it
sp it</w>
de g</w>
b end</w>
8 3</w>
techno logical</w>
re served</w>
ear l</w>
u h-
k la
en dless</w>
li fting</w>
se c</w>
foo tage</w>
pur ple</w>
de -
der son</w>
a b</w>
four -
exa mples</w>
dd led</w>
lor ds</w>
re d-
institu tional</w>
an n</w>
e ase</w>
app endi
ff led</w>
sel fish</w>
m mer</w>
can ada</w>
gra ms</w>
cha ins</w>
le an</w>
curi osity</w>
har sh</w>
expl ore</w>
bott les</w>
revi sed</w>
insu lt</w>
bo dy
199 7</w>
wor ries</w>
se mi
co in</w>
puni sh</w>
bb s</w>
mi ami</w>
numer ous</w>
al u
oly mp
we ars</w>
tu b</w>
che ated</w>
6 -
scienti st</w>
roo m
trac es</w>
si on-
suppor ts</w>
in tly</w>
imp ul
ir relevant</w>
f a</w>
manufac turing</w>
l ance</w>
rei mbur
leon ard</w>
p our</w>
cl an</w>
re tro
bal lo
pack ages</w>
sa y
re hear
way ne</w>
ti ts</w>
unemplo yment</w>
le w
in correct</w>
bl ank</w>
bat tery</w>
achiev ing</w>
o v</w>
go s</w>
wor m</w>
techni ques</w>
dise ases</w>
dete ct</w>
enti tle
sign als</w>
simi larly</w>
sc hi
jac kie</w>
sta b</w>
mu late</w>
in tri
free ly</w>
gg ered</w>
she 'il</w>
ss ors</w>
daugh ters</w>
wh ite
mat ched</w>
le i
fi sheri
sla ughter</w>
f its</w>
f bl</w>
el f</w>
gho sts</w>
n y
cur ve</w>
s /
rela xed</w>
o .
ju mping</w>
me -
6 0
accessi ble</w>
ben ch</w>
ar ising</w>
mani pu
bo ards</w>
laugh s</w>
gra phy</w>
epi so
consu lt</w>
follow -up</w>
cei ve</w>
swi mming</w>
pat ch</w>
to ys</w>
distur b</w>
off -
tre a
kare n</w>
ic e
fisheri es</w>
disclo sure</w>
ca tho
comple tion</w>
provi der</w>
pe l
me te
avoi ding</w>
st at</w>
reli ed</w>
clo ak</w>
g ang
gra ph</w>
restri cted</w>
att acking</w>
spi der</w>
insp ired</w>
fre ed</w>
po i
chi ps</w>
ac le</w>
deter i
certific ates</w>
availa bility</w>
bu bb
i sh</w>
dispu tes</w>
an i</w>
fe ar
fa iling</w>
calcu late</w>
ho lo
rac ed</w>
obstac les</w>
fir ms</w>
acciden tally</w>
convic ted</w>
pre y</w>
cur ed</w>
dis se
chee ks</w>
transi tional</w>
ma ster
investi gations</w>
provi ders</w>
par ano
ce ased</w>
re luc
ag ger
inser ted</w>
v as</w>
overwhel med</w>
negoti ate</w>
fla shed</w>
foo led</w>
- of-
flori da</w>
re tri
inve st</w>
congre ss</w>
bar bar
mari time</w>
el le</w>
cap itali
exp ired</w>
dri ves</w>
reti rement</w>
hun ger</w>
indic ating</w>
int act</w>
com a</w>
ac cent</w>
a ims</w>
reci pi
8 2</w>
lands cape</w>
classi c</w>
o him</w>
impro vements</w>
la ura</w>
wa king</w>
mic s</w>
gli mp
co ins</w>
satis factory</w>
invest or</w>
par adi
in ches</w>
g i</w>
can e</w>
al ph
rever end</w>
over night</w>
1 ,000</w>
str ated</w>
se as
du tch</w>
decre ase</w>
7 3</w>
ble ed</w>
be ef</w>
aman da</w>
ide al</w>
atlan tic</w>
ag er</w>
mi ld</w>
ghten ing</w>
b less</w>
psycho logical</w>
indi ans</w>
gr in</w>
on a
b iting</w>
ti m</w>
pe tro
st en
mo tel</w>
co he
mi ti
contrac tual</w>
car ved</w>
wedne sday</w>
fi b
aspe ct</w>
appro aches</w>
w age</w>
r ounds</w>
in stantly</w>
ut terly</w>
inten tions</w>
compati bility</w>
separ ately</w>
p ound</w>
car t</w>
compen s
ack er</w>
pen alties</w>
fo g</w>
dv anta
disa dvanta
pil low</w>
cha mbers</w>
la ser</w>
gu es</w>
or able</w>
free zing</w>
ti ps</w>
u kra
hol mes</w>
eri es</w>
refer ences</w>
pra gue</w>
ner ves</w>
cour t
ter ry</w>
sar a</w>
pecu liar</w>
wor rying</w>
ti ble</w>
a stro
me ssing</w>
proportion ality</w>
believ ing</w>
la dder</w>
y an
remark able</w>
mar king</w>
ex agger
purcha sed</w>
t our
go in</w>
inter ro
ja w</w>
prote st</w>
anxi ous</w>
help less</w>
tra itor</w>
al bum</w>
col li
tur no
re ject</w>
mathe ma
dri vers</w>
hur ried</w>
su b</w>
lan a</w>
go at</w>
for gi
swe den</w>
o ven</w>
tain ment</w>
rac ing</w>
ne ls</w>
cot ton</w>
c f
ver ed</w>
ne ck
hu mor</w>
vac cin
bi an</w>
sole ly</w>
l as</w>
hun ted</w>
fun ded</w>
un pleasant</w>
a y
swal low</w>
ca ine</w>
bar rel</w>
agre es</w>
we ll
su cked</w>
wa ist</w>
r ating</w>
ri bs</w>
ce -
he els</w>
st lin</w>
inten sity</w>
dag ger</w>
chemic als</w>
na u
u ps</w>
to e</w>
remo val</w>
cre d
che at</w>
car los</w>
under stands</w>
he ating</w>
br ac
swee tie</w>
g n</w>
por k</w>
inter s</w>
ru ins</w>
b y-
v on</w>
ten tion</w>
al lies</w>
al ley</w>
ta ylor</w>
exce ss</w>
metri c</w>
ange ls</w>
sp in
hu ll</w>
ha unted</w>
fi ghts</w>
eter nity</w>
shar k</w>
k it</w>
di shes</w>
demo cratic</w>
le st</w>
en trusted</w>
ca kes</w>
le gen
hypo the
en tre
cul ti
re servation</w>
g ap
8 9</w>
un certainty</w>
resi dent</w>
bl ur
rai stlin</w>
l ars</w>
ari se</w>
fil ter</w>
experi ences</w>
sc and
plac ing</w>
d ley</w>
pro stitu
car ol</w>
twi st</w>
confir mation</w>
ca e
r he
i-i-i-i- i-i-i-i-
rec y
val en
sp en
in sufficient</w>
h int</w>
mix ture</w>
eng age</w>
g ab
tri ggered</w>
im mune</w>
appell ant</w>
out standing</w>
ho stile</w>
vau lt</w>
tra y</w>
ill ness</w>
ti de</w>
quali fications</w>
mini mi
guit ar</w>
your selves</w>
ti ger</w>
p ru
tax able</w>
t us</w>
amen d</w>
vi si
supre me</w>
dr un
st es</w>
prepar ations</w>
d is</w>
col lar</w>
re solve</w>
re act</w>
post p
ar rog
hear t
a sia</w>
duc k</w>
sh ops</w>
ri cky</w>
co lo
impre ss</w>
vis its</w>
pre serve</w>
p at</w>
sha w</w>
tra sh</w>
cla iming</w>
bar b
premi ses</w>
af gh
ad dressing</w>
ab i
wag on</w>
ha y
bo thering</w>
gh ter</w>
cla ss
m ali
li d</w>
op posed</w>
furi ous</w>
gol d
peace ful</w>
cont acted</w>
carri ers</w>
bar ney</w>
a shes</w>
hit ler</w>
gre n
wan dering</w>
lo e</w>
sti l
pre ssing</w>
ee a</w>
d ants</w>
re viewed</w>
au tu
vie wing</w>
bru ssels</w>
go als</w>
cu lar</w>
sto res</w>
sh out</w>
g abri
some thin
ele ven</w>
ag a</w>
t ack
or -
we ed</w>
ici an</w>
exa mining</w>
compe te</w>
al tar</w>
fore seen</w>
supp lier</w>
observ ation</w>
lin col
co ck</w>
betra y</w>
the ft</w>
roo ts</w>
partic les</w>
bor rowed</w>
terrori sm</w>
rece ption</w>
super visor</w>
st ating</w>
va ti
thi eves</w>
no vel</w>
advanta ges</w>
di ary</w>
y ce</w>
vo id</w>
ser vers</w>
assu mption</w>
wi der</w>
o u</w>
eri e</w>
under lying</w>
l end</w>
isra el</w>
ho ok
di m</w>
beg ged</w>
al bert</w>
g and
evo lution</w>
contribu ted</w>
c d</w>
len e</w>
8 6</w>
we st
depre ssion</w>
ha ven</w>
circu it</w>
slow ed</w>
door way</w>
nephe w</w>
ch ant</w>
spea ker</w>
dwar ves</w>
appendi x</w>
po se
sat an</w>
inev itable</w>
luc as</w>
tra l</w>
ne ys</w>
li p
ensur ed</w>
ta tive</w>
barri ers</w>
sti mul
br and
ate -
a ids</w>
f use</w>
com ings</w>
a ar
fri dge</w>
distin ction</w>
vi al</w>
c led</w>
ga mbling</w>
liber ty</w>
kidna pping</w>
autu mn</w>
univer sal</w>
refu sal</w>
reason ing</w>
jose ph</w>
ir an</w>
kni ghts</w>
ch ick
hoo ked</w>
amu sed</w>
cho ices</w>
re ha
propo ses</w>
inve sted</w>
je ff
or n</w>
flexi bility</w>
sta ir
sla mmed</w>
up side</w>
tempor arily</w>
st ent</w>
org ans</w>
l son</w>
mp er</w>
gri m</w>
cre ative</w>
cance lled</w>
th read</w>
pra yer</w>
lan der</w>
channe ls</w>
5 ,000</w>
turno ver</w>
en cing</w>
speci fications</w>
lo u</w>
mo lly</w>
ul timate</w>
1 1
s nat
mo s</w>
dre ad
dra gons</w>
colon y</w>
writ es</w>
share holders</w>
de ss</w>
e e</w>
respon ses</w>
lo cks</w>
thorough ly</w>
ste p
ir regu
franci sco</w>
entre pre
ad es</w>
lo tte</w>
diamon ds</w>
thr ust</w>
alph a</w>
pe -
sti cally</w>
ru shed</w>
lincol n</w>
fre aked</w>
ma kers</w>
p o</w>
inva sion</w>
ele g
tor tured</w>
lar ities</w>
in centi
anno ying</w>
tari ff</w>
ess ence</w>
dero gation</w>
day light</w>
brit ain</w>
wil son</w>
sha ken</w>
pe ts</w>
blu e
ro cky</w>
le to</w>
ef s</w>
de pri
di sh
recon ci
adequ ately</w>
dro wn</w>
bru ce</w>
inten ds</w>
champ i
li abilities</w>
break down</w>
pre vention</w>
hu gh</w>
hi l
ra tional</w>
v ar</w>
re tail</w>
ta g</w>
pre va
lu gg
con figur
be ars</w>
e ce</w>
deci sion-
cohe sion</w>
cir cles</w>
w as
s to</w>
methodo logy</w>
le cture</w>
genu ine</w>
che er</w>
mexic an</w>
ri g
desp air</w>
p. m.</w>
lugg age</w>
amb le</w>
domin ant</w>
ac knowledge</w>
fi ance</w>
distribu ted</w>
ti ghtly</w>
program med</w>
inter ce
hall way</w>
gre g
w l</w>
new ly</w>
measu rement</w>
trou bles</w>
ini a</w>
expan sion</w>
obje ction</w>
econo mies</w>
z ards</w>
si m
prosecu tor</w>
pl o</w>
le af
co ffin</w>
w ere
hor se
rob es</w>
li hood</w>
cover age</w>
w- w-
si es</w>
ye ll</w>
tane ous</w>
sil ently</w>
lo ses</w>
truc ks</w>
inspe ctions</w>
ar bit
swe at
mi ster</w>
in hal
convin cing</w>
feder ation</w>
jo king</w>
e ats</w>
trous ers</w>
ou se</w>
envi sa
pro ves</w>
char t</w>
ir a</w>
ab ra
tox ic</w>
quo te</w>
spi lled</w>
sha ft</w>
mech anical</w>
gall ery</w>
loo p</w>
nee d
audit ors</w>
ta p</w>
jo sh</w>
de ss
sigh ed</w>
den nis</w>
bu cket</w>
ne ath</w>
k m</w>
b last</w>
rit ual</w>
pre amble</w>
diplo matic</w>
den mark</w>
imp air
f ag
under taken</w>
alex ander</w>
deleg ation</w>
c un
c ans</w>
vacc ine</w>
shi p
nor th
pr o</w>
gu ed</w>
v .</w>
succe eded</w>
r ho
s ank</w>
g lowing</w>
u es</w>
sin ger</w>
confir ms</w>
imp ati
ta ils</w>
acqui sition</w>
ti ming</w>
bu ck</w>
horizon tal</w>
fol k</w>
unlaw ful</w>
man date</w>
origin ating</w>
ne gle
se at
kore a</w>
costu me</w>
m mm</w>
ma ssa
m us</w>
co ke</w>
la wn</w>
je sse</w>
fin es</w>
ca tive</w>
ber n
under neath</w>
bro ther
san dy</w>
respon ded</w>
laun dry</w>
war ming</w>
di al</w>
cap su
thor ough</w>
prote in</w>
ph er
ro ad
ex pose</w>
atten ded</w>
harmoni sation</w>
a ge
as ser
acti vate</w>
z ations</w>
inno vative</w>
hone y
fli r
2. 1</w>
trans mitted</w>
tra iler</w>
politici ans</w>
phra se</w>
calcu lations</w>
lat or</w>
ro ber
it ations</w>
c len
wa ved</w>
the at
ola f</w>
exce eded</w>
sla p</w>
paradi se</w>
excep tions</w>
mp tions</w>
im men
ul timately</w>
r d</w>
indi rect</w>
auto psy</w>
coun sel
ca therine</w>
physi cs</w>
s c</w>
l ent</w>
g ly
de t
fe li
sen ti
s kill</w>
ren al</w>
phenomen on</w>
en cry
ri a</w>
cen ts</w>
ch loe</w>
char ter</w>
gen der</w>
ic ker</w>
enhan ced</w>
sustain ability</w>
se ct
san ctions</w>
modu le</w>
lau rie</w>
ter minated</w>
co oper</w>
ch -
jer e
kno cking</w>
ate dly</w>
5 0
sp ray</w>
gui ded</w>
sen sed</w>
eye bro
be e</w>
mass ac
ste am</w>
je wel
for getting</w>
bor e</w>
anony mous</w>
scre ams</w>
k le</w>
di ct</w>
sal ad</w>
afri can</w>
belgi an</w>
u mb
tab lets</w>
mat the
f u</w>
afgh ani
anti- dumping</w>
te x</w>
sp ed</w>
hur ri
sc out</w>
colle cting</w>
sun set</w>
stun ned</w>
home less</w>
der ek</w>
du p
smo ked</w>
paci fic</w>
hydro gen</w>
e an</w>
it ly</w>
cor d</w>
achiev ement</w>
ye lled</w>
instin cts</w>
demon stration</w>
ce ase</w>
ll es</w>
rou tes</w>
distur bing</w>
ur ity</w>
te ddy</w>
gener ate</w>
affe cts</w>
al ong
correc tion</w>
a mber</w>
ma dame</w>
con test</w>
ax e</w>
el i</w>
coordin ates</w>
a qu
squ ir
short comings</w>
cre ates</w>
acti vely</w>
jere my</w>
7 6</w>
to k
spe cu
boar ding</w>
vo y</w>
ko v</w>
po o
ff y</w>
lu ci
ll in</w>
old- fashioned</w>
back ward</w>
m our</w>
gu t</w>
jun ction</w>
but ter
min ent</w>
deli ghted</w>
incenti ves</w>
bin et</w>
anni ver
so ber</w>
exce eding</w>
di c
aven ue</w>
hun ters</w>
strugg led</w>
consu med</w>
car riage</w>
apo logy</w>
si ves</w>
ge dly</w>
? ?
indi cations</w>
poten tially</w>
char m</w>
visit or</w>
ba it</w>
en ger</w>
7 8</w>
tan is</w>
n b
sme lled</w>
li ghtly</w>
grow led</w>
fa ti
wel fare</w>
shi pment</w>
re sur
inf lation</w>
cir cus</w>
shin y</w>
sh re
initi ate</w>
fe ast</w>
ru mor</w>
lo vers</w>
harve st</w>
aggre ssive</w>
medi um-
deser ted</w>
w .
ca binet</w>
ac company</w>
alle gedly</w>
samp ling</w>
pot ato
mat ri
la mps</w>
engine ering</w>
oper a</w>
her d</w>
ar ab
por tra
boo m</w>
tex ts</w>
is y</w>
ligh ted</w>
for tress</w>
thir d-
ma s
along side</w>
6 00</w>
defini tive</w>
preten ded</w>
e ste
b ani
memb ership</w>
afghani stan</w>
integr ity</w>
assu mptions</w>
sha ttered</w>
ha plo</w>
foo ls</w>
assass in</w>
ama z
lit e</w>
sau ce</w>
d c</w>
de s
tun nels</w>
no tion</w>
defen ding</w>
legislat ure</w>
mone tary</w>
an alo
pa tho
sa dness</w>
to ssed</w>
ro t
ple as</w>
coordin ated</w>
ama zed</w>
sho ve</w>
vin cent</w>
de er</w>
de als</w>
sho w
di sin
per forming</w>
tren d</w>
thir ty-
sse ll</w>
re sear
illu sion</w>
question na
ni sh</w>
life -
plu g</w>
gin a</w>
ch i</w>
shi fted</w>
transpor ted</w>
o es</w>
eri a</w>
mess enger</w>
ki sh</w>
sha pes</w>
sub way</w>
head ache</w>
bur ton</w>
ver tical</w>
co ward</w>
ba be</w>
regu lated</w>
mp y</w>
c ine
expedi tion</w>
dra in</w>
m all</w>
gray son</w>
at us</w>
impair ment</w>
survi vors</w>
lar ed</w>
deb ts</w>
bo t</w>
ban ned</w>
ar ts</w>
potato es</w>
dep ths</w>
announ cement</w>
xi de</w>
s ack</w>
hy p
pursu it</w>
ob sc
mar cus</w>
lew is</w>
de x
consul tations</w>
g gers</w>
l ds</w>
desi red</w>
decision- making</w>
trave led</w>
st or</w>
lo is</w>
cal mly</w>
pra ying</w>
ligh ter</w>
comman ds</w>
th al</w>
ye l
rin ge</w>
ho t
discipl ine</w>
bit ten</w>
par ker</w>
mi dd
cent res</w>
sp ine</w>
photogra phs</w>
h m</w>
continu ous</w>
c ers</w>
anxi ety</w>
ur i</w>
so ver
hi de
in ity</w>
char lotte</w>
ro tten</w>
p tions</w>
har old</w>
gre g</w>
cy lin
ste ering</w>
compu l
ble ssing</w>
la sted</w>
fier ce</w>
bour ne</w>
acci dents</w>
mi ll</w>
some place</w>
ha l</w>
pre served</w>
prie sts</w>
o- o-
h s</w>
s ch</w>
incen tive</w>
perman ently</w>
mer ger</w>
de ll</w>
conver sion</w>
ex changed</w>
acknowle dged</w>
sacrific ed</w>
casin o</w>
spirit ual</w>
patter ns</w>
7 7</w>
ur ge</w>
fe ature</w>
ev acu
coun ts</w>
ro wing</w>
ori en
miser y</w>
whi stle</w>
swit zer
lou dly</w>
zo mb
be ans</w>
re fund</w>
instin ct</w>
worl d
barbar a</w>
switzer land</w>
l .</w>
anniver sary</w>
industri es</w>
decre ased</w>
t .
see ds</w>
tow ers</w>
la zy</w>
fanta sy</w>
affe cting</w>
hesit ated</w>
dra ma</w>
al e
trac ed</w>
ro m
kid ney</w>
custo m</w>
char ging</w>
gra in</w>
musi cal</w>
ed -
compla ined</w>
ne gli
contin uation</w>
le x</w>
in admissible</w>
re vol
produc tive</w>
fil thy</w>
d g</w>
cla u
for um</w>
flu id</w>
sli ghtest</w>
men tation</w>
vir g
o j</w>
in i</w>
festi val</w>
di mini
configur ation</w>
sover ei
empha sis</w>
- to-
identi fying</w>
wh ir
t ories</w>
gro ws</w>
to wel</w>
toxic ity</w>
in spi
barri er</w>
s nor
wor m
ta sted</w>
co caine</w>
ar se</w>
r ated</w>
pla gue</w>
or i</w>
0 1</w>
sta tic</w>
re vision</w>
w rink
trac ked</w>
ab sur
reck on</w>
accur acy</w>
wi g</w>
v ague</w>
trans fers</w>
tra ins</w>
ch mp</w>
blon d</w>
at tract</w>
short- term</w>
in appropriate</w>
exclu sion</w>
circu lation</w>
extin gui
regi stry</w>
egy pt</w>
posse ssed</w>
ignor ing</w>
ra ys</w>
imp li
corpor ation</w>
ath le
wre ck</w>
obe y</w>
ho stages</w>
do ms</w>
kenne dy</w>
vari able</w>
ch ick</w>
cand les</w>
refle ction</w>
don ald</w>
fi x
bra ke</w>
sti n</w>
h ence</w>
bat teries</w>
re treat</w>
n ancy</w>
trans lation</w>
incorpor ated</w>
eli minated</w>
d ine</w>
ter min
shor ter</w>
go ssi
concentra tions</w>
roman ia</w>
e tte</w>
b ap
ton nes</w>
m acy</w>
auc tion</w>
portu gal</w>
see ks</w>
ca sey</w>
t wit
ssi vely</w>
mo l
ex- wife</w>
coo kies</w>
bu tt
ab les</w>
cour te
ac o
represen ting</w>
ten ders</w>
ch al
absor bed</w>
lin a</w>
nor man</w>
en h
wei gh</w>
ri ders</w>
po ker</w>
pro fit
consider ably</w>
stu pi
constitu tion</w>
he ars</w>
harve y</w>
floo ded</w>
tw in</w>
sma sh</w>
po sts</w>
s ali
justi fication</w>
hol low</w>
neu tral</w>
no te
ra p
l n</w>
dra matic</w>
vac u
na tives</w>
fit ted</w>
dou g</w>
shel f</w>
i p
e cho</w>
consul ted</w>
vo ting</w>
bree ze</w>
shir ts</w>
fi sher
col or
bu gs</w>
ta pes</w>
pu b</w>
le m</w>
harb or</w>
str ings</w>
ha ired</w>
edu cational</w>
pri mi
es a</w>
communic ated</w>
ri c</w>
fore sts</w>
disgui se</w>
an th
fascin ating</w>
cor ners</w>
ru bbed</w>
lli on</w>
d ared</w>
contro lling</w>
subsidi ary</w>
el a</w>
san c
offen se</w>
lux emb
car ries</w>
s have</w>
consi sts</w>
ri der</w>
represen tation</w>
challeng ing</w>
ali bi</w>
desi rable</w>
blon de</w>
199 4</w>
mal es</w>
dimen sions</w>
pisto l</w>
lo west</w>
re serves</w>
fore ig
dol ph
tax i</w>
fa thers</w>
virg inia</w>
au ton
aar on</w>
je w</w>
en dor
consist ency</w>
spe ar</w>
id es</w>
conne cting</w>
wa kes</w>
o .</w>
mor ga
fu els</w>
bo ld</w>
six -
eag le</w>
dre am
wh ale</w>
up ward</w>
rememb ering</w>
b lows</w>
stand ar
sol ven
g b</w>
vi an</w>
ter mination</w>
ele ctions</w>
do yle</w>
wen dy</w>
pre s
0 5</w>
ti re</w>
ma ps</w>
in tent</w>
t cher</w>
pro be</w>
craw l</w>
a me
kin dly</w>
un fortunate</w>
recogni se</w>
chuck les</w>
sen ate</w>
entrepre ne
down load</w>
diff er</w>
ap h
sk a</w>
d- up</w>
cae sar</w>
bat ch</w>
strange ly</w>
thou se</w>
suit case</w>
indicat or</w>
cand le</w>
to mb</w>
thank s
emb race</w>
z an</w>
com promised</w>
victori a</w>
p i</w>
ha tt
bas ket
inter fer
ru mors</w>
ru b</w>
m at</w>
wi dow</w>
sigh s</w>
secre tly</w>
conclu des</w>
wi shing</w>
neighb our</w>
w en</w>
u ms</w>
g lea
te ls</w>
mach in
jeopar di
fle e
explo sives</w>
kni ves</w>
ten se</w>
gare t</w>
pre clu
cou gh
attemp ting</w>
mic ally</w>
al er
trans it</w>
ren e</w>
a than</w>
steph en</w>
co ast
ch a</w>
ce me
ta pped</w>
bra d</w>
at a</w>
ol a</w>
mic hel
whi p</w>
log ically</w>
co ws</w>
mi grants</w>
ici ous</w>
avi ation</w>
wh il
sugge stion</w>
su cks</w>
su ite</w>
set up</w>
preven ts</w>
mb o</w>
quo tas</w>
associ ations</w>
anne xes</w>
an cing</w>
8 4</w>
enter tainment</w>
high ness</w>
du sty</w>
l oun
sha de</w>
har ris</w>
pier ce</w>
hand ful</w>
du m</w>
conspir acy</w>
sub tle</w>
o live</w>
m .
con fined</w>
ol dest</w>
ce ments</w>
dan ced</w>
ye ar
side walk</w>
numb ered</w>
luxemb our
cler k</w>
bi a</w>
sympa thy</w>
in o
el lie</w>
ton i
symbo ls</w>
sha l</w>
sa dly</w>
ju lie</w>
ti mely</w>
fer tili
ve st</w>
rece p
exp and</w>
declar ations</w>
se duc
mon ica</w>
exemp t</w>
the me</w>
ck ers</w>
sna p</w>
acti cal</w>
reas oned</w>
portu gu
down town</w>
bab y
com promise</w>
shoo ter</w>
le mon</w>
do mini
di vine</w>
abu sed</w>
mar rying</w>
1 st</w>
i le</w>
dra wer</w>
admi re</w>
o scar</w>
ul a</w>
p ar</w>
fe ds</w>
8 -
territ orial</w>
bo wed</w>
bil ateral</w>
hal luc
do me</w>
sp la
dra ined</w>
bu shes</w>
stra w</w>
accompli shed</w>
thanks giving</w>
d able</w>
199 5</w>
co operating</w>
pi er</w>
forgi veness</w>
ni k
pear l</w>
basket ball</w>
predi cted</w>
par ade</w>
pa pa</w>
l ousy</w>
it -
distingui sh</w>
catho lic</w>
prin ting</w>
whi pped</w>
rep ay</w>
disa gre
pa use</w>
empha si
conver ted</w>
r ine</w>
be ver
be ds</w>
arri ves</w>
pu lls</w>
m g/
hesit ate</w>
ali zation</w>
min g
calcul ating</w>
me als</w>
bru tal</w>
temp er</w>
reason ably</w>
experi ments</w>
w a</w>
dea f</w>
org an</w>
auth enti
al tered</w>
re members</w>
o o
coun ci
deci ding</w>
correspon d</w>
re st
juli an</w>
whil st</w>
sa bo
s qui
pit t</w>
cr ack
heal ed</w>
comp an
a er
ro ar</w>
l la
trans fer
portugu ese</w>
7 4</w>
ax is</w>
stri pped</w>
chan cell
spo ts</w>
do in</w>
mag gie</w>
dess ert</w>
blo cking</w>
tu i
imp acts</w>
a g</w>
sub marine</w>
gra sp</w>
reali stic</w>
gra ph
colum ns</w>
wait re
li mbs</w>
bri g
ambi tious</w>
ma il
lar i
je di</w>
al oud</w>
under stand
st ev
me lt</w>
com it
do zens</w>
bon us</w>
na me
fran cis</w>
scho ol
ha bits</w>
vege tables</w>
congratu lations</w>
tun e</w>
shru gged</w>
meas uring</w>
luxembour g</w>
expen se</w>
advi sory</w>
argu es</w>
sp in</w>
dri ll</w>
ac cess
so cks</w>
tou gh
repe atedly</w>
me dal</w>
ri ght-
har as
euro pa
com ed</w>
in adequate</w>
enthusias m</w>
ka tie</w>
wa x</w>
shi re</w>
li ve
da vis</w>
co pper</w>
bit ches</w>
por n</w>
con serv
envisa ged</w>
certi fication</w>
restri ctive</w>
j as
can vas</w>
appeti te</w>
primi tive</w>
separ ation</w>
fac e
cru ci
sequ ence</w>
fra gi
wit ches</w>
tu bes</w>
trau ma</w>
room mate</w>
evalu ated</w>
coun sel</w>
arri ving</w>
glimp se</w>
l ings</w>
frequ ent</w>
can adi
bu yer</w>
willi ams</w>
imp ri
flo wn</w>
accep tance</w>
reas sur
ran som</w>
enab ling</w>
compan ying</w>
bo ws</w>
leg ality</w>
ac companying</w>
man hatt
is le</w>
skin ny</w>
to ps</w>
witne ssed</w>
sh ly</w>
qu inn</w>
execu te</w>
2 ,
eff ic
e mission</w>
cu ffs</w>
comp ound</w>
sta in</w>
ru sty</w>
ar rows</w>
ingredi ents</w>
han ding</w>
du al</w>
7 9</w>
tra gic</w>
to es</w>
mar shal</w>
se a
j am</w>
wel comed</w>
py rami
sub ordin
sor cer
p ou
whis key</w>
gen o
por ch</w>
is la
ar k</w>
199 6</w>
ren ted</w>
hi p</w>
tri ps</w>
mi r</w>
pat ent</w>
mon s</w>
s u</w>
win ds</w>
ri er</w>
tribu nal</w>
produc tivity</w>
na p</w>
jewel ry</w>
ig n
al es</w>
tra ders</w>
en lar
de lays</w>
fragi le</w>
smar ter</w>
manhatt an</w>
m uni
exten ding</w>
comra de</w>
st led</w>
inter face</w>
h en</w>
bu bble</w>
bla med</w>
ye p</w>
ven ture</w>
auton o
sensi tivity</w>
phi lli
ch or
war dly</w>
individu ally</w>
sh an
semi -
fran kie</w>
occu p
mar garet</w>
un certain</w>
fore going</w>
du ll</w>
d row</w>
cro p</w>
4. 4</w>
in fer
an gu
di stress</w>
pa ki
occa sions</w>
ni gger</w>
educ ated</w>
cur tain</w>
cour ses</w>
sti ve</w>
recommen ds</w>
prosecu tion</w>
predi ctable</w>
foot note</w>
sp a</w>
con stra
sophi sti
rebe cca</w>
ukra ine</w>
cu e</w>
su ms</w>
le x
doo med</w>
pi pes</w>
off set</w>
holi days</w>
fon d</w>
theat re</w>
gi l</w>
se min
descen ded</w>
mar tha</w>
tra ff
di ce</w>
ac tress</w>
bal d</w>
mort gage</w>
expla ining</w>
depo sits</w>
senten ced</w>
aud its</w>
peri meter</w>
europa .
cow boy</w>
real m</w>
mon si
initi ation</w>
discoun t</w>
che ster</w>
bre eding</w>
wea k
confe ssed</w>
qu it
pri ck</w>
so aked</w>
ri sky</w>
pre cau
speci alist</w>
ne ts</w>
moder ni
n an</w>
so ap</w>
n in
god dess</w>
dyna mic</w>
ar mor
reinfor ced</w>
pa th
kilo meters</w>
corpor al</w>
mon k</w>
impri son
c lea
sect oral</w>
hero in</w>
car d
stu mbled</w>
qua ke</w>
me ster</w>
im mer
frank lin</w>
re quiring</w>
parano id</w>
sal u
k able</w>
ga ining</w>
anch or</w>
u no
dialo g</w>
c m</w>
fascin ated</w>
den s</w>
distr act</w>
e llen</w>
bal con
st ure</w>
shi elds</w>
p ad</w>
distin ctive</w>
like lihood</w>
port al</w>
j ar</w>
form ally</w>
munici p
clar ity</w>
al lo
ter -
ber ries</w>
re no
pi lots</w>
sho t
gossi p</w>
cla ws</w>
inven tory</w>
a sian</w>
veter inary</w>
val uation</w>
ow en</w>
k as
dest ined</w>
har vard</w>
so l</w>
monsi eur</w>
logi sts</w>
j an</w>
great -
we ir
sever ed</w>
r and
cro ps</w>
stag gered</w>
sp inning</w>
make up</w>
effic acy</w>
swe ep</w>
contin ent</w>
uni forms</w>
stri kes</w>
z el</w>
repa ired</w>
no thin</w>
te es</w>
spo il</w>
lux ury</w>
ing ent</w>
cor ps</w>
ba ker</w>
simpli fication</w>
rescu ed</w>
ba i
ven ge
de sig
: 30</w>
sou th
foot steps</w>
at t</w>
ten s</w>
tang led</w>
the ore
she lls</w>
dru m</w>
> ></w>
wr on
man eu
ca s
sle eve</w>
confi denti
shrin k</w>
mo b</w>
en zy
cur ren
dam on</w>
bac teria</w>
tu mor</w>
swa mp</w>
port fo
de lu
rep lies</w>
compla ining</w>
chancell or</w>
can non</w>
a do</w>
relev ance</w>
t uni
h l</w>
o t
lea pt</w>
inser t</w>
choo sing</w>
ris m</w>
ri pp
im position</w>
di c</w>
ssi e</w>
8 00</w>
ti ated</w>
pas sion
o w</w>
dro me</w>
pain tings</w>
civili ans</w>
ad dresses</w>
indepen dently</w>
ge es</w>
f ry</w>
s d</w>
investig ated</w>
sti ff
ru shing</w>
li an</w>
in je
br is</w>
a x</w>
simul taneously</w>
ic king</w>
i sts</w>
al o</w>
trans formation</w>
p raise</w>
machin ery</w>
e labor
disor der</w>
guar dian</w>
e z</w>
jo intly</w>
gr un
cla ude</w>
back wards</w>
weigh ed</w>
str a</w>
whisper ing</w>
trans lated</w>
christ ine</w>
tro y</w>
ro pes</w>
ra z
k u</w>
dan cer</w>
po d</w>
bl in</w>
an ed</w>
mer ged</w>
gra ham</w>
g ated</w>
over head</w>
in ations</w>
cen tri
ten ed</w>
admissi bility</w>
wor ms</w>
kla us</w>
al ter</w>
squee zed</w>
li ck</w>
fli p</w>
distor tion</w>
supple mentary</w>
mer cen
ra sh</w>
o min
na p
k le
honey moon</w>
el derly</w>
a val
she pher
ma ils</w>
ser ena</w>
r att
zo o</w>
it ated</w>
it arian</w>
el bow</w>
poe try</w>
ste ak</w>
pe ti
do s</w>
corp ses</w>
col labor
assi sted</w>
happi er</w>
coun tless</w>
ab by</w>
ma son</w>
corru pt</w>
pra yers</w>
ke st</w>
ac on</w>
under cover</w>
gra titude</w>
exerci sed</w>
aband on</w>
m ated</w>
skir t</w>
ceme tery</w>
b oul
renew able</w>
lon ged</w>
la ds</w>
stub born</w>
bo lt</w>
f lor
qu is</w>
har d-
corri dors</w>
sail or</w>
re fri
assur ance</w>
ab rup
tour na
mor tality</w>
de g
celebr ating</w>
c ating</w>
subsi dy</w>
eleph ant</w>
car rot</w>
liter ature</w>
for given</w>
ch lor
re t</w>
far ming</w>
somethin '</w>
characteri stic</w>
al a</w>
photogra ph</w>
ten nis</w>
refri ger
mo ist</w>
shi pping</w>
rebe ls</w>
mon thly</w>
geor gia</w>
ru ssell</w>
doub ted</w>
deman ding</w>
ad ds</w>
tal ented</w>
evid ent</w>
v ap
sla pped</w>
m ck
le ans</w>
r us</w>
br un
proje cted</w>
fla v
assho les</w>
journ alist</w>
je ans</w>
in car
hom icide</w>
goo gle</w>
2 50</w>
t tering</w>
li z</w>
valu ed</w>
ma res</w>
lin ing</w>
da mp</w>
mo i
4. 2</w>
tra ded</w>
solven cy</w>
coun try
off end</w>
he ir</w>
com pri
sei ze</w>
ken ny</w>
iso lation</w>
air ports</w>
pollu tion</w>
negoti ated</w>
finan ci
trans late</w>
substan tially</w>
cu ps</w>
premi um</w>
j .
zo e</w>
z il</w>
luc ki
lin ess</w>
stan ley</w>
navi gation</w>
dispu ted</w>
di d
fil ming</w>
abrup tly</w>
carri e</w>
smoo thly</w>
scho lar
sc ars</w>
persu aded</w>
emi a</w>
app ar
cur tains</w>
1 20</w>
eli mination</w>
ca m</w>
ve ins</w>
l .
fla m
speci fication</w>
ev ap
infrin ged</w>
fre aking</w>
conveni ence</w>
austri an</w>
ab or
P S
qu an
privile ge</w>
kne sses</w>
ed itor</w>
a ye</w>
ver n</w>
ri ver
predi ct</w>
ca sts</w>
characteri sed</w>
ar mies</w>
transpor tation</w>
place bo</w>
lo a
0 8</w>
perpe tr
or ate</w>
fla sh
ar cher</w>
wea knesses</w>
tal es</w>
moder ate</w>
insu lin</w>
con sole</w>
ato m</w>
sol ving</w>
mar tial</w>
ww w.
bure auc
2 ,000</w>
p ounding</w>
dis man
touri sts</w>
im migration</w>
be es</w>
kar l</w>
emplo yers</w>
ro lls</w>
flo ors</w>
damag es</w>
t actical</w>
ic el
si gh</w>
mit ch</w>
j unk</w>
associ ate</w>
z ones</w>
swi r
susta ined</w>
shut tle</w>
p ouring</w>
necess ity</w>
mou ths</w>
ki rk</w>
dis miss</w>
mode st</w>
arti sts</w>
s by</w>
pra yed</w>
mari ssa</w>
volunte ers</w>
the ast</w>
interven e</w>
distingui shed</w>
conven tional</w>
clo wn</w>
sub scri
man ners</w>
clu bs</w>
sli ding</w>
f t
blin ded</w>
- based</w>
out fit</w>
fa ul
ce ption</w>
ali ke</w>
je an</w>
gari a</w>
je an-
e lu
clen ched</w>
sen sible</w>
e o
acqui re</w>
simpli fied</w>
rhyth m</w>
hang ed</w>
def ici
ke en</w>
brea thed</w>
tech n
shi pped</w>
inten sive</w>
assess ments</w>
wheel chair</w>
fi sh
encoura ging</w>
z i</w>
mis understanding</w>
b bi
subsi dies</w>
sp ies</w>
ic ed</w>
austr alia</w>
mi llen
lim itation</w>
episo de</w>
disappe arance</w>
caro line</w>
- in</w>
to dd</w>
ca fe</w>
c ough</w>
alleg ing</w>
respe ctively</w>
bu dd
bla ir</w>
ten der
puzz led</w>
profession als</w>
lyn n</w>
in fusion</w>
heal ing</w>
h h</w>
coher ent</w>
st ine</w>
i v
p hosp
ni k</w>
condem ned</w>
2. 2</w>
la sting</w>
mb al
oli via</w>
1. 1</w>
w er
tri ck
sin e</w>
neighb or</w>
cu mb
ro bb
p unk</w>
har t</w>
ra d</w>
paraly zed</w>
k re
2 3
deliver ing</w>
ank le</w>
10 -
multi p
hal lo
fore cast</w>
id ers</w>
volu mes</w>
sa iled</w>
ra ining</w>
me gan</w>
w ick</w>
ru th</w>
obstac le</w>
tor ch</w>
pe as
glo b
puzz le</w>
per fu
hard ware</w>
d son</w>
m all
cor ro
bet ting</w>
wra ith</w>
trans formed</w>
th ick
i as</w>
discu ssing</w>
butt ons</w>
ho lly</w>
fin land</w>
po lly</w>
correc tions</w>
confu sing</w>
vacu um</w>
ring ton</w>
dro wning</w>
tur kish</w>
quali ties</w>
en ters</w>
neck lace</w>
han nah</w>
appreci ated</w>
reve aling</w>
prophe cy</w>
str ous</w>
be ats</w>
refu gees</w>
equ ation</w>
bea sts</w>
ste l
ato mic</w>
allow ances</w>
electr on
fro do</w>
for ty-
2. 5</w>
who le
in complete</w>
direc tors</w>
bi c</w>
bar re
r anks</w>
la tive</w>
cele bration</w>
c ence</w>
strength ened</w>
stra in</w>
pil lar</w>
ha t
bro ok
cor n
consoli dation</w>
touri st</w>
summon ed</w>
shel don</w>
run way</w>
reli eve</w>
ran ch</w>
att ach</w>
defini tions</w>
boo ze</w>
cou pl
ce wind</w>
ari a</w>
r in</w>
s killed</w>
rin cewind</w>
questionna ire</w>
pre dat
opp re
pir ates</w>
conflic ts</w>
a ff
pi ll</w>
inno cence</w>
scen es</w>
l ating</w>
cu p
chick ens</w>
eleg ant</w>
ur ine</w>
temp ted</w>
new spa
con servation</w>
explic itly</w>
sen sation</w>
anticip ated</w>
ster ing</w>
en na</w>
correc ted</w>
any time</w>
secon d-
qu et</w>
ho p</w>
virtu e</w>
m ant</w>
gree ted</w>
ful ness</w>
ci ans</w>
l f</w>
focu sing</w>
dit ch</w>
defen sive</w>
egy p
b ling</w>
uh- huh</w>
mer ci
in qui
fro ze</w>
con ferred</w>
re marks</w>
pu g</w>
min gly</w>
led ore</w>
irregu larities</w>
gradu ate</w>
quar an
medit erran
er ase</w>
analy sed</w>
tis m</w>
t man</w>
ban e</w>
are r</w>
ta stes</w>
p se</w>
liqui dity</w>
k .</w>
ha mbur
expor ted</w>
discri min
199 0</w>
dumb ledore</w>
ce ly</w>
thi cal</w>
sur plus</w>
ne il</w>
lo ve
swe dish</w>
respe ct
hal t</w>
h n</w>
fa re
bu d</w>
gu m</w>
w rec
jer ked</w>
c c
appar atus</w>
particip ated</w>
x y</w>
fo ren
mp led</w>
me tal
justi n</w>
app ren
trave lled</w>
t- shirt</w>
ss ment</w>
bet ty</w>
sh allow</w>
de clined</w>
bul garia</w>
sna kes</w>
re tain</w>
indi cative</w>
disap pointment</w>
scot land</w>
disappe aring</w>
el li
e mail</w>
b .
re medy</w>
impli cations</w>
fi er</w>
m ite</w>
hi ssed</w>
fl u</w>
a w</w>
reque sting</w>
repe aled</w>
he /
per mits</w>
la in</w>
gi bility</w>
op ing</w>
jam in</w>
j on</w>
ex am</w>
be i
s nar
gloo m</w>
th y
ri bb
pl ying</w>
lea p</w>
cy cles</w>
al together</w>
night mares</w>
fre ight</w>
n ina</w>
consen sus</w>
coo kie</w>
accoun ted</w>
under go</w>
la yers</w>
ori ented</w>
magaz ines</w>
lac ed</w>
re tained</w>
immen se</w>
ed it</w>
be ck</w>
advo cate</w>
mo ore</w>
ter minate</w>
dra gging</w>
ben jamin</w>
swo llen</w>
refu sing</w>
peri odi
law suit</w>
hung ary</w>
fi able</w>
deleg ated</w>
ed ly</w>
k han</w>
o s
an te</w>
aller gic</w>
har dest</w>
e a</w>
sophisti cated</w>
recru it
mel ted</w>
mag nific
cir cled</w>
so da</w>
distin ct</w>
ri ly</w>
mediterran ean</w>
ri m</w>
manife st</w>
de tention</w>
convic tion</w>
cho p</w>
un founded</w>
ser um</w>
swi ss</w>
g love</w>
comp as
under take</w>
sin gly</w>
gra des</w>
te aring</w>
so dium</w>
gri pped</w>
e la
fra med</w>
bel le</w>
craw ling</w>
1. 2</w>
to mas</w>
respe cts</w>
he m</w>
c key</w>
ar ch</w>
ri vers</w>
jon athan</w>
invol ves</w>
t ably</w>
re jection</w>
pon y</w>
lin d
fo am</w>
con ve
offen sive</w>
audi o</w>
prospe ct</w>
k an
b all
- and-
pro sper
air line</w>
00 ,000</w>
bla ke</w>
arrog ant</w>
secre tari
din osa
tou rism</w>
harm less</w>
th under
situ ated</w>
inter oper
ic e-
la mb</w>
introduc ing</w>
batt les</w>
fin est</w>
cu t
common ly</w>
mic key</w>
far ms</w>
che ll</w>
ger ing</w>
eli gibility</w>
thir sty</w>
ste adily</w>
world wide</w>
vo d
rene wed</w>
occa sional</w>
manufac tured</w>
exclu de</w>
ed ith</w>
st even</w>
pit ch</w>
philoso phy</w>
newspa pers</w>
dis proportionate</w>
bur nt</w>
ri gh
po tter</w>
i ze</w>
hy steri
den tal</w>
balcon y</w>
spac es</w>
e go</w>
dra ws</w>
re dun
ga ins</w>
tra vis</w>
in timate</w>
po em</w>
nur ses</w>
k ans
gen es</w>
ob taining</w>
ta i
supp er</w>
por tion</w>
pen ta
cri es</w>
len ding</w>
v ary</w>
hol dings</w>
dis charge</w>
desi res</w>
war med</w>
tre as
o ak</w>
m l
cou ples</w>
fac tual</w>
aci ous</w>
signific ance</w>
ri ghtly</w>
prob ability</w>
poli shed</w>
bap ti
absur d</w>
man -
af for
mb les</w>
equ ality</w>
epi de
fr action</w>
ff le</w>
conveni ent</w>
accommo dation</w>
f ade</w>
ed ges</w>
l 'il</w>
trac y</w>
sm alle
ran do
ob server</w>
n ano
e than</w>
confidenti ality</w>
vic e-
suff oc
smalle st</w>
ici ans</w>
fi ance
wor ded</w>
sc he</w>
pic ks</w>
da w
comple mentary</w>
l ure</w>
i g</w>
199 3</w>
stac he</w>
re stor
journ alists</w>
hi ll
bu mp</w>
pe an
off ence</w>
in er</w>
craw led</w>
sh one</w>
finan ces</w>
9 -
ro ses</w>
attribu ted</w>
tre men
ma xi
gabri el</w>
bla des</w>
wi red</w>
yi eld</w>
st ack</w>
sa mmy</w>
mu sh
x ity</w>
ma ze</w>
every day</w>
circu lar</w>
op ed</w>
boo st</w>
in habit
da zz
humili ated</w>
waitre ss</w>
o me
ine ly</w>
hor nb
g st</w>
5 0,000</w>
sett ling</w>
pir ate</w>
ec r</w>
co st-
cat alo
kin dness</w>
ss -
re ments</w>
co di
hornb lower</w>
di so
trac tor</w>
t ness</w>
deplo yed</w>
th ra
ligh t-
expan ded</w>
decre e</w>
po p
ki r
j ah</w>
dread ful</w>
abo ve
ti ously</w>
spar ed</w>
acu te</w>
v enti
pin ned</w>
o y
ru ler</w>
inter vals</w>
asse mbled</w>
ra m</w>
in compatible</w>
establi shes</w>
secre cy</w>
he ated</w>
correc tive</w>
survi ving</w>
scan ned</w>
net t</w>
massa ge</w>
inv ent</w>
c n</w>
allow ance</w>
on ia</w>
ja mie</w>
mon keys</w>
fiance e</w>
ex claimed</w>
a si
the ories</w>
ge ons</w>
fe wer</w>
diagno sis</w>
respon ding</w>
profit ability</w>
communi st</w>
am bush</w>
trave lling</w>
toler ance</w>
rit a</w>
oun ce</w>
inter -
eyebro ws</w>
distor ted</w>
prece ding</w>
mat ching</w>
inter n
en vy</w>
cul tures</w>
heal th
bank rup
assa ul
liqu or</w>
impor ters</w>
b b</w>
is ite</w>
dete ctives</w>
de spi
cro ati
challen ged</w>
acceler ated</w>
les bian</w>
ght fully</w>
belon ging</w>
ali e</w>
scand al</w>
certi fied</w>
swe ater</w>
recipi ent</w>
evol ved</w>
sa tional</w>
re y
men s</w>
bra zil</w>
will ingly</w>
t u</w>
10 .
val ry</w>
psychiatri st</w>
portfo lio</w>
le ver
organ isms</w>
mani pul
ici a</w>
hallo ween</w>
for k</w>
dete ction</w>
astron au
la -
gul f</w>
dani sh</w>
safe guard</w>
organi ze</w>
condi tional</w>
bic y
tourna ment</w>
or leans</w>
swi ft</w>
r ounded</w>
michel le</w>
wor d
to by</w>
suc king</w>
inten si
a tic</w>
dru ss</w>
bre ed</w>
resear chers</w>
organ ism</w>
o xide</w>
main tains</w>
pronoun ced</w>
d all
ballo on</w>
amon gst</w>
amen ding</w>
at -
war ren</w>
re serv
gi an</w>
canadi an</w>
over view</w>
hook er</w>
di ve</w>
prof itable</w>
p ened</w>
h t
ex pi
broad casting</w>
si re</w>
reven ues</w>
jen ni
har med</w>
credit ors</w>
ste war
kans as</w>
syn drome</w>
s lic
de partments</w>
ag ony</w>
a pe
dy lan</w>
consi st</w>
bankrup t
zz ie</w>
z el
wid th</w>
rom ance</w>
ray mond</w>
j in</w>
fro g</w>
business man</w>
se mester</w>
mar sh</w>
inher ited</w>
interro gation</w>
be lls</w>
sper m</w>
spar ks</w>
differ enti
but cher</w>
ambi tion</w>
infrin gements</w>
he/ she</w>
explo sive</w>
ar ity</w>
un doub
tok yo</w>
soli dar
shar ks</w>
j ill</w>
it er
wi res</w>
trans mit
sav age</w>
er ased</w>
do minated</w>
penetr ated</w>
z ers</w>
man ti
champi on
sor e</w>
anno yed</w>
war m
undoub tedly</w>
bo x
w ages</w>
k ling</w>
th ar
sal v
flo at</w>
en d
d aries</w>
u tili
super -
sub jected</w>
rec ur
e led</w>
a-a-a-a-a-a-a-a- a-a-a-a-a-a-a-a-
pup ils</w>
part ner
es y</w>
war den</w>
ver sions</w>
sup pose
sti ll
sp len
inti mid
esc or
e b</w>
ch man</w>
we lls</w>
gra ves</w>
decor ated</w>
compli ment</w>
pro ving</w>
bil lions</w>
p m</w>
inv iting</w>
pen cil</w>
co ol
stan ts</w>
matri x</w>
experi mental</w>
am ate
reci pe</w>
de struc
co pe</w>
na to</w>
vo m
influ enced</w>
fit ting</w>
constitu tional</w>
com partment</w>
are na</w>
mer ce
199 2</w>
ki a</w>
gen ic</w>
dre y</w>
solidar ity</w>
sh ments</w>
han dy</w>
ed it
to pic</w>
fu gi
dece ased</w>
lou der</w>
f lan
re sen
pal mer</w>
me lo
in clined</w>
sto ve</w>
sick ness</w>
sa ges</w>
t ment</w>
nor way</w>
gor geous</w>
adap tation</w>
n' t
f oul</w>
pha n</w>
chi e</w>
car ing</w>
re ed</w>
as certain</w>
warm th</w>
swi f
inspi ration</w>
car a
w ade</w>
to s</w>
histori c</w>
sol o</w>
pi pe
pe tty</w>
n n</w>
moon light</w>
blin ked</w>
and ro
jenni fer</w>
col m</w>
reserv ations</w>
bra ss</w>
pro vince</w>
t angle</w>
mar ble</w>
hosp itals</w>
an derson</w>
wait er</w>
swe lling</w>
pa m</w>
hea vens</w>
co ven
ri ses</w>
dr ac
del ta</w>
out comes</w>
manag ers</w>
inter views</w>
conver t</w>
compe lled</w>
an ing</w>
wat son</w>
ju les</w>
boun daries</w>
camer on</w>
sta ined</w>
g ator</w>
stri c
mat urity</w>
g ps</w>
bang ing</w>
zo le</w>
measu rements</w>
die go</w>
commit tees</w>
alle gations</w>
thor ne</w>
reali zing</w>
on i</w>
don or</w>
al titude</w>
re warded</w>
e lla</w>
syste matic</w>
posse ss</w>
police man</w>
fe tch</w>
fati gue</w>
ten th</w>
dis per
k ru
sum mit</w>
ing ham</w>
in fil
compe ting</w>
above mentioned</w>
a iming</w>
presu mption</w>
li est</w>
in directly</w>
pon d</w>
a ah
psychi c</w>
midd le-
ke e</w>
j ur
follow ers</w>
fa ther
be y</w>
to pp
simpli fy</w>
ro w
fe lla</w>
0 3</w>
pr c</w>
ma fia</w>
good ness</w>
evalu ate</w>
ch ro
wat ches</w>
stra y</w>
stin k</w>
man kind</w>
l ates</w>
spe ctr
reali zes</w>
mo le</w>
exhi bition</w>
discrimin atory</w>
ten -
six ty</w>
comfor tably</w>
camp us</w>
10 0,000</w>
shoo ts</w>
fi sts</w>
defen ded</w>
c tion
tra der</w>
h r</w>
de gra
0 2</w>
vi sions</w>
stri king</w>
de signs</w>
ske leton</w>
mal colm</w>
lo sers</w>
health care</w>
tren ds</w>
or dering</w>
jud gments</w>
visi bility</w>
re je
nar rowed</w>
lap top</w>
penetr ate</w>
fire works</w>
cru ise</w>
bur ger</w>
al f</w>
lo cals</w>
i mbal
e v</w>
3. 2</w>
2 nd</w>
mit chell</w>
conten ds</w>
se gment</w>
por ter</w>
bas s</w>
am bu
sever ely</w>
sa d
o v
dr ying</w>
dis posed</w>
con fuse</w>
p d</w>
fe ed
ch in
volunte er</w>
d ough</w>
reti re</w>
resur rec
resu me</w>
mo o
let t</w>
clu es</w>
r anger</w>
ten dency</w>
hy dr
0 4</w>
re tar
z v
spectr um</w>
sar ca
replac ing</w>
stron gest</w>
bankrupt cy</w>
wan dered</w>
un changed</w>
where by</w>
tan gible</w>
sy ringe</w>
reinfor cements</w>
pa i
con sp
mi ss
lu mp</w>
gradu ated</w>
refle cts</w>
confi sc
1. 5</w>
sc ha
get tin</w>
coll ins</w>
venge ance</w>
squ ad
fa me</w>
euro stat</w>
un stable</w>
ni pp
am muni
over -
ke ith</w>
hon orable</w>
harm ful</w>
dru gged</w>
2 4
simp ler</w>
indu l
flin t</w>
y d</w>
nee ding</w>
fare well</w>
wi zards</w>
k ha
fin n</w>
cl ung</w>
ss er</w>
spe lls</w>
de bris</w>
valen tine</w>
mil ton</w>
ort on</w>
no ises</w>
htt p</w>
fo ssi
fuc kers</w>
squ e</w>
pharmac eu
bac on</w>
par ted</w>
slaugh tered</w>
m ice</w>
jo an</w>
courte sy</w>
sof a</w>
like wise</w>
comple xity</w>
war p</w>
thor n</w>
min ded</w>
bern ard</w>
her bert</w>
au drey</w>
? ?</w>
flic k
the irs</w>
sp un</w>
sli ce</w>
y ton</w>
per cy</w>
le en</w>
shot gun</w>
fra gments</w>
re medi
sexu ally</w>
prob able</w>
t ability</w>
sw inging</w>
hu mble</w>
be at
an or</w>
prin ter</w>
en tries</w>
ona ire</w>
morga ine</w>
comp lied</w>
vide os</w>
ed ps</w>
avi r</w>
y ar
un successful</w>
rep lic
or b</w>
m son</w>
kore an</w>
quali fy</w>
disc er
analy se</w>
ammuni tion</w>
v -
star ving</w>
sp ying</w>
re de
ti ce</w>
scholar ship</w>
e lo
ben ch
syn chron
ru by</w>
too th
sar tan</w>
mid st</w>
inter ference</w>
gener ator</w>
spar k</w>
ex tract</w>
con comit
bb led</w>
intra -
en dur
disclo sed</w>
dall as</w>
cru iser</w>
tion less</w>
clu ster</w>
ar c</w>
l is</w>
eigh th</w>
hy bri
engine ers</w>
brook lyn</w>
tuc ked</w>
therap ist</w>
str ate</w>
lan ter
expe cts</w>
deplo yment</w>
ado pting</w>
g len
sa mur
r s</w>
la me</w>
ken der</w>
con cu
si d</w>
inte l</w>
ge -
for warded</w>
en dea
c lon
0 6</w>
aah z</w>
! ?</w>
sei z
r .
/ /
up right</w>
strai ghtened</w>
s tions</w>
betra yal</w>
ta b</w>
rain bow</w>
pa u
in qu
fi li
com po
voy age</w>
sc outs</w>
ar ab</w>
ur gently</w>
fla shing</w>
esc al
cro ok</w>
ma ti
tu ary</w>
sun shine</w>
htt p
expe lled</w>
do sing</w>
at ro
scrat ched</w>
li cation</w>
le ve
rac ks</w>
mer chant</w>
cha pel</w>
ca ves</w>
per ception</w>
par ole</w>
che t</w>
su cker</w>
constitu ted</w>
tion er</w>
li sh
bas es</w>
p oul
ni ece</w>
inter val</w>
gar ath</w>
disap point</w>
ct ory</w>
insur ed</w>
emo tionally</w>
radi cal</w>
benefici al</w>
ste ep</w>
bl unt</w>
sti r</w>
lea f</w>
e h
cr acks</w>
pr ou
a waiting</w>
syste mic</w>
sugge stions</w>
mi sts</w>
cop y
micro phone</w>
la stly</w>
: //
j ag
hope less</w>
ger ich
consul ting</w>
affe ction</w>
substan tive</w>
seiz ure</w>
ma de
defin es</w>
cot tage</w>
200 7-
ru g</w>
enh ance</w>
critici sm</w>
u ts</w>
pu ppy</w>
mall ory</w>
sel ine</w>
infin ite</w>
merce des</w>
v agu
traff icking</w>
cine ma</w>
bun ny</w>
blin k</w>
spo on</w>
molecu les</w>
fabri c</w>
black mail</w>
auth or</w>
alcoho lic</w>
se lls</w>
di zzy</w>
leg acy</w>
experi encing</w>
y ach
tra tion</w>
plan e
mir rors</w>
lo dge</w>
illu minated</w>
deva stated</w>
re acted</w>
green house</w>
s men</w>
l loy
inter action</w>
ei b</w>
che ss</w>
no- one</w>
nit ro
da iry</w>
vi ral</w>
transp lant</w>
gal actic</w>
f ading</w>
sh h</w>
radi us</w>
cau tious</w>
ar u
une asy</w>
samur ai</w>
pp e</w>
l le</w>
tri bes</w>
en ess</w>
construc ted</w>
up held</w>
ris ked</w>
qu in
he el</w>
c roo
amp li
shepher d</w>
me d
bri be</w>
tur ner</w>
spo iled</w>
i so</w>
al led</w>
! !
wil dly</w>
ti ff
po et</w>
imp lic
v ou
to ss</w>
lo gan</w>
le vi
thin g
se th</w>
p tic</w>
l ori
je ss</w>
en dure</w>
rabb its</w>
presi dency</w>
ow es</w>
ni shed</w>
de e</w>
re gain</w>
pic nic</w>
ha ust</w>
d die</w>
k gb</w>
in jected</w>
hu t</w>
weigh ing</w>
wea kened</w>
tor pe
swit ching</w>
cke tt</w>
re build</w>
memor ial</w>
ju ven
c tic</w>
assass ination</w>
re sts</w>
ex haust</w>
ct -
mer ry</w>
ju ana</w>
counsel or</w>
re actor</w>
m pe
tra vels</w>
ti mer</w>
import antly</w>
fire place</w>
embarra ssment</w>
conce ssion</w>
chemi stry</w>
w ad
ss on</w>
ss i</w>
sa w
pic ally</w>
ca sual</w>
ss er
dispat ch</w>
cre ws</w>
gr unted</w>
con e</w>
t ing
br ed</w>
disa ble</w>
10 1</w>
vic inity</w>
qu ad
negoti ation</w>
sa iling</w>
nick name</w>
k ay</w>
2 9
tro ll</w>
hei ghts</w>
dia meter</w>
cel lar</w>
vi br
imp lies</w>
ha cked</w>
al t</w>
squ ared</w>
ok ine
partner ships</w>
mor gue</w>
bal ey</w>
ang rily</w>
tion -
pharmac okine
moti vated</w>
a min
repor ters</w>
re sort</w>
mon u
law rence</w>
amu sement</w>
s ung</w>
contain ers</w>
a bun
grand son</w>
ci st</w>
bro w</w>
counter fe
s cep
me try</w>
dri pping</w>
contemp t</w>
3. 1</w>
sp ice</w>
mir anda</w>
descri bes</w>
pro pag
rel en
ph ine</w>
cap abilities</w>
vod ka</w>
ul tra
twenty- five</w>
stra pped</w>
star fleet</w>
sa ils</w>
in scri
http ://
2 7
st u</w>
ma bly</w>
de tained</w>
ar cha
vir tual</w>
treas ury</w>
sele ctive</w>
seat tle</w>
hel m</w>
we ary</w>
sta mp</w>
p p</w>
lloy d</w>
sli pping</w>
g ars</w>
en -
repa irs</w>
multi ply</w>
ce l</w>
0 7</w>
l u</w>
si ster
obse ssion</w>
fo ods</w>
flu sh</w>
cour ty
li e
fini shing</w>
po pped</w>
pho en
h .
slee ps</w>
prote cts</w>
o mi</w>
inev it
tar a</w>
sy ner
ma sks</w>
h .</w>
dis connected</w>
bac king</w>
bra kes</w>
doub led</w>
w icked</w>
ver se</w>
presi dential</w>
en sures</w>
e el</w>
bel garath</w>
bed ded</w>
sig nat
dee ds</w>
arch y</w>
ty pe-
not ably</w>
car b
s so
pay able</w>
co pied</w>
suppose dly</w>
spi ll</w>
o on</w>
meaning less</w>
dis solved</w>
wal t</w>
exclu ding</w>
coven ant</w>
lim p</w>
lim iting</w>
ib m</w>
awa kened</w>
ar ded</w>
lo cations</w>
human itarian</w>
lang don</w>
scar f</w>
euro pol</w>
conduc ting</w>
e lite</w>
d led</w>
persu ade</w>
ack ers</w>
sp l
ron nie</w>
qu icker</w>
nar co
na val</w>
ju mps</w>
glori a</w>
ti res</w>
lic s</w>
consoli dated</w>
bu ys</w>
su san
sal em</w>
lo re
tr o</w>
re bel</w>
bar tender</w>
a a
tri cked</w>
en tic
depri ved</w>
wor ship</w>
ti ck</w>
secretari at</w>
k ick
ham mer
guar ding</w>
surpri singly</w>
clean er</w>
tal ler</w>
k ry
christ op
tac tics</w>
si ties</w>
loun ge</w>
i sed</w>
cher ry</w>
ba ked</w>
anth ony</w>
s ounding</w>
ne at</w>
fro wned</w>
crou ched</w>
mag ician</w>
mi xing</w>
absor ption</w>
ca de</w>
sweat y</w>
st all</w>
re z</w>
re fre
off ences</w>
g ate
strang led</w>
stero ids</w>
kidna p</w>
inse cts</w>
conce al</w>
ten ded</w>
se ller</w>
pota to</w>
deli a</w>
swif tly</w>
stur m</w>
i zed</w>
f fin
din al</w>
ani an</w>
under water</w>
so m
recruit ment</w>
pil gri
cro sses</w>
bar k</w>
tab let</w>
nik ki</w>
c hel
y u</w>
y ly</w>
presu mably</w>
econo mically</w>
die sel</w>
up dates</w>
tre ach
for bid</w>
clu tching</w>
chi m
refu ge</w>
ne al</w>
high lighted</w>
br ace
tur tle</w>
tun a</w>
imp lan
har per</w>
villa ges</w>
skir ts</w>
shi fts</w>
sen sor</w>
ir respective</w>
do pe</w>
deal ers</w>
investig ator</w>
don t</w>
ang les</w>
a '
i. d.</w>
gl as</w>
fra g
disc lose</w>
accur ately</w>
im mortal</w>
acqua inted</w>
impul se</w>
ha ble</w>
dis continued</w>
d we
polit ely</w>
ne lson</w>
lat eral</w>
vio lation</w>
refu ses</w>
no d</w>
met aboli
ho se</w>
comra des</w>
as is</w>
tre ason</w>
co s
anti bio
pe pper</w>
passion ate</w>
magnific ent</w>
inci dence</w>
success or</w>
ro ck
prospe cts</w>
she er</w>
publi shing</w>
motor cycle</w>
un limited</w>
targe ting</w>
ro e</w>
flash light</w>
scra mbled</w>
pla ins</w>
pac ks</w>
mer its</w>
go ose</w>
bu zz</w>
ba seline</w>
accep ting</w>
you t</w>
sel don</w>
la ge</w>
bar gain</w>
to m
sail ors</w>
ra mp</w>
grin ned</w>
b ates</w>
le thal</w>
ka therine</w>
jen na</w>
cree py</w>
sp as
j ab
flu shed</w>
boy d</w>
sil ver
ob ama</w>
me tro
gu er
regre ts</w>
pier re</w>
di ck
al lah</w>
smi les</w>
sing le-
can yon</w>
war nings</w>
ta pping</w>
restaur ants</w>
interoper ability</w>
fea thers</w>
acade mic</w>
el ding</w>
penta gon</w>
k lin
p neu
gree dy</w>
credi bility</w>
territ ories</w>
protoco ls</w>
gap s</w>
europe ans</w>
da y-
mor on</w>
ff e</w>
cu ba</w>
7 00</w>
swa p</w>
mini mal</w>
je wels</w>
t arily</w>
son ny</w>
go wn</w>
cho ke</w>
tui tion</w>
per ceived</w>
n g</w>
instal lations</w>
g ases</w>
ti pped</w>
teen th</w>
photogra ph
organi zations</w>
kit ty</w>
gr ace
en dang
courty ard</w>
compas sion</w>
col in</w>
co mic</w>
be ers</w>
interpre t</w>
authori sing</w>
vio let</w>
non- compliance</w>
k h
ja zz</w>
correspon ds</w>
bor g</w>
w ling</w>
ti fied</w>
recru ited</w>
conce pts</w>
cap tive</w>
vi gil
v icious</w>
matthe w</w>
see mingly</w>
mini sters</w>
nat alie</w>
exa min
bo sses</w>
reduc tions</w>
ra ises</w>
d well</w>
tiff any</w>
th or</w>
thro ws</w>
pre cip
denti st</w>
ob s</w>
nick y</w>
co ded</w>
1 10</w>
sp an</w>
radio active</w>
documen ted</w>
camp s</w>
a isle</w>
wa ste
u ous</w>
ren ched</w>
mor t</w>
mb ia</w>
gand alf</w>
compens ate</w>
al ine</w>
p act</w>
o wing</w>
mu ffled</w>
k ent</w>
ste m</w>
mar gin
lucki ly</w>
ad ren
recei ves</w>
pl en
phoen ix</w>
kne lt</w>
compar ing</w>
so- so-
han di
glo be</w>
back pack</w>
vi enna</w>
non e
ex cu
f luc
adri an</w>
trans position</w>
prophe t</w>
gro ve</w>
bo thers</w>
un ks</w>
t- up</w>
ro les</w>
har mon
tan a</w>
su ici
mur phy</w>
brace let</w>
ss man</w>
op h
len i
che aper</w>
lo b
evi dently</w>
ank les</w>
contribu ting</w>
coll ateral</w>
campa ig
9 11</w>
vagu ely</w>
modi fy</w>
go a'
consist ently</w>
. europa.
vi ability</w>
sne aking</w>
par as
open ly</w>
inter rog
m sy</w>
disa gree
d f</w>
cl one</w>
re ll</w>
over dose</w>
n un
cun ning</w>
alter natives</w>
s cul
min ority</w>
battle field</w>
sy dney</w>
jam med</w>
fe llas</w>
tion ality</w>
sign ments</w>
nation ality</w>
in ger</w>
g lowed</w>
e ll
con so
admi red</w>
rele asing</w>
mon a</w>
explo it</w>
exce eds</w>
bon nie</w>
pyrami d</w>
inhi bit
val ve</w>
tremen dous</w>
glori ous</w>
ti ghtened</w>
pursu ing</w>
pre cin
n ad
ha gen</w>
emb ar
re payment</w>
ju de</w>
flow ed</w>
bi zar
part -
my th</w>
wea ker</w>
wan der</w>
o dd
glan cing</w>
fra u
c p
bul k</w>
mon a
inhabit ants</w>
in land</w>
ev ing</w>
bron ze</w>
sho ved</w>
pre servation</w>
dou glas</w>
clari fied</w>
c tedly</w>
pic s</w>
le dge</w>
er up
en a
2. 3</w>
u gh</w>
rum ours</w>
phi lip</w>
nas a</w>
manu ally</w>
fic tion</w>
cru el
an ita</w>
dar k
an e
ur ged</w>
reha b</w>
lo go</w>
di ana</w>
ty pically</w>
notic ing</w>
conver sations</w>
absor b</w>
under mine</w>
paki stan</w>
conce aled</w>
bau er</w>
re nia</w>
mo tionless</w>
analy ses</w>
know -
gi ous</w>
ru bbing</w>
mat er
lli an</w>
u ld</w>
re main
infe ctions</w>
ash ley</w>
v la
po lar</w>
leg es</w>
ko so
un locked</w>
third- country</w>
pier ced</w>
obe di
cur led</w>
temper atures</w>
sal vation</w>
mag ni
lo cking</w>
s nu
intri gued</w>
flo ck</w>
2 8
x- ray</w>
w and</w>
qu al
earth quake</w>
ca d
a e</w>
tou ches</w>
soci eties</w>
manufac ture</w>
har rington</w>
oper ates</w>
mi se</w>
j ared</w>
drun ken</w>
un ic
sa b
j u</w>
fluc tu
do om</w>
de ed</w>
counter -
conqu ered</w>
low ering</w>
fer r
exerci ses</w>
co me
br yan</w>
v ating</w>
re x</w>
perfu me</w>
fru strated</w>
who res</w>
tri ple</w>
speci fies</w>
foun tain</w>
blan kets</w>
ra ged</w>
k not</w>
v ak</w>
di ge
cre pt</w>
mar gins</w>
pl ato
her it
viol ently</w>
lau ren</w>
bla h</w>
ad mission</w>
wor thless</w>
poi rot</w>
none theless</w>
er adi
associ ates</w>
ic ing</w>
citi zen
ro sie</w>
pois oning</w>
ir onic</w>
ho g
wat ch
sha wn</w>
di xon</w>
week ly</w>
ve il</w>
negoti ating</w>
ve in</w>
li ds</w>
bud dies</w>
u -
mon ks</w>
gu ine
gr inning</w>
er son</w>
civili zed</w>
recy cling</w>
main land</w>
car to
ac c
with drew</w>
r ha
note book</w>
less er</w>
shor ts</w>
ra g</w>
k is</w>
gr ounded</w>
syste matically</w>
spen cer</w>
zomb ie</w>
scal es</w>
postp oned</w>
explan atory</w>
lever age</w>
bar t</w>
ris king</w>
h u</w>
ab y
len a</w>
im mu
hand -
reimbur sement</w>
infil tr
embarra ss</w>
disc ou
ris en</w>
sh ane</w>
negle cted</w>
naz i</w>
herit age</w>
volunte ered</w>
slo ven
meta ph
cheer ful</w>
ab sent</w>
sp ends</w>
if you</w>
cock tail</w>
an toni
al pha
worm hole</w>
stre tching</w>
ro d
pal est
din er</w>
coordin ate</w>
ach ment</w>
accu mul
vi su
p iled</w>
whe at</w>
star ve</w>
ro y
attribu te</w>
t ful</w>
sandw ich
or o
min ating</w>
govern mental</w>
f o</w>
conver gence</w>
w it</w>
prescri ption</w>
garden s</w>
cu lt</w>
no tori
hun ch</w>
gui ld</w>
go th
dar cy</w>
ab str
naz is</w>
cr an
app re
speci alised</w>
ru pt</w>
f .</w>
cy ber
youn gest</w>
un a</w>
sta dium</w>
li ca</w>
triump h</w>
t ying</w>
ic on</w>
an ten
willi e</w>
vi ru
u .
ri ley</w>
ori an</w>
do t</w>
cr un
c lat
blu e-
b ind</w>
yo r
tre vor</w>
mat o
contrac tor</w>
up gra
need les</w>
nai ve</w>
ini an</w>
goa' uld</w>
di son</w>
brief case</w>
ali se</w>
regi ment</w>
overwhel ming</w>
ju an</w>
dis grace</w>
deduc tion</w>
armor ed</w>
read er</w>
ob servers</w>
ha ul</w>
e ments</w>
contro ver
s- a-
macro economic</w>
deg c</w>
compul sory</w>
t ta</w>
fro st</w>
christop her</w>
as sign</w>
you- you-
tor an
re set</w>
prote ctor</w>
entitle ments</w>
tar zan</w>
cu tter</w>
a ired</w>
over looked</w>
mani ac</w>
lo ads</w>
anti bodies</w>
dri ve
col ours</w>
zz i</w>
sha ved</w>
po or
gra bbing</w>
ess a</w>
du el</w>
pr us</w>
ci gar</w>
pl ate
do wed</w>
ca b
but ler</w>
will ing
un believ
po ly</w>
ge able</w>
g ard</w>
ful fill</w>
ex cre
der -
cho ked</w>
aru tha</w>
la den</w>
tri angle</w>
l d
be ams</w>
un clear</w>
orien tation</w>
elabor ate</w>
con figure</w>
ma ine</w>
la g</w>
in solvency</w>
comb ine</w>
so s</w>
lim itations</w>
is ers</w>
dis c</w>
v ich</w>
col on</w>
sa vi
nic hol
cau tiously</w>
archi ves</w>
remain der</w>
gra ve
cy prus</w>
unexpe ctedly</w>
brief ing</w>
wo mb</w>
se ssions</w>
mer ge</w>
coher ence</w>
stra p</w>
philli p</w>
i o
do ssi
disagre e</w>
cat astro
f lared</w>
ex otic</w>
super natural</w>
str o</w>
nor we
lin g
co operative</w>
soverei gn</w>
repe ating</w>
mr i</w>
fer tility</w>
du l
cou rier</w>
loo kin</w>
gri mly</w>
bat tered</w>
app les</w>
al be
w to</w>
sar ge</w>
astoni shment</w>
sh rou
o z</w>
entitle ment</w>
al icia</w>
disp lays</w>
tim acy</w>
swa m</w>
pri cing</w>
op a
mi de</w>
har a</w>
substan tiated</w>
re ty</w>
neighb our
con voy</w>
con nor</w>
bizar re</w>
vi er</w>
remin ding</w>
ori um</w>
jan et</w>
defin ing</w>
t ling</w>
strai ghten</w>
l ust</w>
er ly</w>
em bedded</w>
cap it
wel comes</w>
the sis</w>
remin der</w>
pen ing</w>
is man</w>
id en</w>
gr o</w>
ton es</w>
en li
deteri oration</w>
b ate</w>
vag ina</w>
v ine
ugh ty</w>
u s
spon sor</w>
po les</w>
or phan
dou gh
te l
moi sture</w>
let te</w>
gg ling</w>
vel vet</w>
u sa</w>
sin cer
bubb les</w>
swe ating</w>
sp it
nerv ously</w>
sli e</w>
clari fication</w>
vaccin ation</w>
sc a</w>
ri val</w>
pa irs</w>
min a</w>
hea p</w>
wag ons</w>
suspici ons</w>
surpri ses</w>
ple dge</w>
or te
mu te</w>
lef t-
co y</w>
c as</w>
quaran tine</w>
inevit ably</w>
gi bbs</w>
auth entic
super sti
spo ck</w>
satell ites</w>
hi ring</w>
conta minated</w>
audi tion</w>
ani um</w>
vi able</w>
la y
g wen</w>
fu h
capac ities</w>
bomb ing</w>
no ah</w>
ir ony</w>
f ana
cul ated</w>
crow ds</w>
ali g
ab u</w>
smugg ling</w>
public ity</w>
mi d</w>
co ated</w>
bur ke</w>
ag nes</w>
a ur
sha me
ll ings</w>
in ha
cripp led</w>
bra in
bar be
abduc ted</w>
inde fin
comman ding</w>
sun ny</w>
su spend</w>
shi fting</w>
ro gue</w>
phi li
men tor</w>
labe ls</w>
buff alo</w>
broo ke</w>
sur gical</w>
le slie</w>
fig uring</w>
dis rup
be lli
tuc ker</w>
tro phy</w>
medi an</w>
hesit ation</w>
garden er</w>
fre ddy</w>
croati a</w>
ari ans</w>
win ding</w>
pac es</w>
li ation</w>
cle ve
stu art</w>
ste st</w>
pp ies</w>
gas ped</w>
coast al</w>
casu ally</w>
5. 1</w>
lac king</w>
el der</w>
car ni
antoni o</w>
ac es</w>
tur n
plato on</w>
inte gra
indi gn
di ssi
bran dy</w>
ro bbing</w>
r ack</w>
op tional</w>
legen ds</w>
f ing</w>
confron ted</w>
ar nie</w>
tow ns</w>
stair case</w>
im f</w>
gene tically</w>
en d-
3 ,000</w>
uni ons</w>
reli ability</w>
produc es</w>
stero id</w>
hy gi
expan ding</w>
comp ass</w>
arra y</w>
portra it</w>
ga mb
eigh teen</w>
di ous</w>
or phan</w>
er o</w>
champion ship</w>
ve ctor</w>
resi stant</w>
le e
ha ts</w>
dra ke</w>
cir cling</w>
an as</w>
ado le
vom iting</w>
toran aga</w>
li ary</w>
ev al</w>
willing ness</w>
s word
ir regular</w>
hor mon
can al</w>
beauti fully</w>
ur gency</w>
sy m
superi ors</w>
ra pp
i do
ef ta</w>
ch and
1 000</w>
0 9</w>
un anim
sp rin
scre ens</w>
gen s</w>
atlan tis</w>
addi cted</w>
pri vati
de part</w>
bu z
m is</w>
cred its</w>
a sted</w>
tack le</w>
st ina</w>
sandwich es</w>
mal function</w>
gh e
explic it</w>
den ted</w>
af fir
a partments</w>
ir o</w>
b son</w>
sta kes</w>
mat ing</w>
marke ted</w>
f .
ca ps</w>
sal es
ho ckey</w>
contro ller</w>
n ab
missi ble</w>
credi ble</w>
aw fully</w>
wal lace</w>
vi s-a-
sanc tuary</w>
gradu ation</w>
deter mines</w>
de light</w>
vis-a- vis</w>
ti les</w>
b is</w>
umb re
surve ys</w>
ro tting</w>
o y</w>
intra ven
ap point</w>
teen ager</w>
tal ents</w>
ne s
m ick</w>
hy dra
clic king</w>
side ways</w>
celebr ated</w>
c z
appell ants</w>
stra w
he pa
vari eties</w>
thir teen</w>
revolu tionary</w>
equ als</w>
consi sting</w>
circu its</w>
bru ises</w>
ri al</w>
gre et</w>
exemp tions</w>
t si</w>
ru ining</w>
lot tery</w>
ha ck</w>
be cky</w>
writ ers</w>
fulfi lling</w>
to ma
refle cting</w>
mat tress</w>
l ens</w>
en gul
unemplo yed</w>
sti ly</w>
spi ke</w>
ma tive</w>
ignor ant</w>
pro pe
ma b</w>
ho tels</w>
di ane</w>
conta mination</w>
bo iling</w>
acc use</w>
scre wing</w>
pan ties</w>
or che
flo ated</w>
enlar gement</w>
el ders</w>
e- mails</w>
don key</w>
tal kin</w>
shu tt
mu slim</w>
bu r</w>
sin king</w>
out lined</w>
expor ters</w>
purcha ses</w>
le ster</w>
hone sty</w>
foun dations</w>
ar gen
slow er</w>
g ali
eigh t-
addi ct</w>
toler ate</w>
shel ves</w>
particip ant</w>
mo ment
z ap
on ica</w>
el ded</w>
bl ouse</w>
a we</w>
ha iry</w>
at ar</w>
ha grid</w>
ar ises</w>
treat s</w>
olymp ic</w>
gh s</w>
authori sations</w>
xi e</w>
te am
s l
na iled</w>
mon ia</w>
k ung</w>
in ject</w>
t z
hepa tic</w>
de sc
ben ny</w>
au xi
subje ct-
ra ft</w>
mer cur
di lu
restri ct</w>
koso vo</w>
v ened</w>
de scent</w>
bi g
2 6
rat ings</w>
persi stent</w>
ha i</w>
s our</w>
mon t
tri dge</w>
l one</w>
par ks</w>
dee pest</w>
dd ling</w>
be having</w>
mel ting</w>
le vy</w>
flat tered</w>
explan ations</w>
albe it</w>
wi ping</w>
m po
k n
conqu er</w>
con fer
viol ated</w>
suppre ssed</w>
over seas</w>
met abo
se bas
meaning ful</w>
gi ants</w>
full- time</w>
broad er</w>
vi vi
preci sion</w>
mar y
clo ses</w>
jo el</w>
humili ation</w>
gin ger</w>
squad ron</w>
mor ris</w>
flo yd</w>
d. c.</w>
ben ding</w>
wri sts</w>
le ver</w>
bra tions</w>
ape u
ste lla</w>
no stri
in coming</w>
fri es</w>
vi lla</w>
sta mped</w>
bar nes</w>
sha ke
roman s</w>
dri ft</w>
cylin der</w>
cra b</w>
concomit ant</w>
glu co
sc ans</w>
m ace</w>
ed a</w>
de fi
black -
archite cture</w>
suppor tive</w>
senten ces</w>
satis fying</w>
sa in
fuh rer</w>
confe der
astoni shed</w>
1 2.
mi cal</w>
deliber ate</w>
1. 3</w>
yach t</w>
for mat
wide spread</w>
re production</w>
pun c
po ps</w>
pi g
l acked</w>
inter viewed</w>
subject- matter</w>
perfe ction</w>
induc ed</w>
g at
feli x</w>
congratu late</w>
cleve land</w>
sub conscious</w>
ro ckets</w>
ignor ance</w>
da isy</w>
cla w</w>
rec la
it ors</w>
che w</w>
ag an</w>
tru sting</w>
r as</w>
le ash</w>
datab ases</w>
4. 3</w>
fisher men</w>
court room</w>
ch en
vie wers</w>
re signed</w>
he ctor</w>
di ving</w>
wi re
na po
in vention</w>
fri ghtening</w>
de tri
wil der
ver a</w>
stu res</w>
occup ation</w>
dang ers</w>
cripp le</w>
shan now</w>
al ling</w>
su lli
ho mer</w>
glit tering</w>
to w</w>
supple mented</w>
ri d
house holds</w>
bri dges</w>
acceler ation</w>
subsidi aries</w>
sp rings</w>
g na
vege table</w>
citizen ship</w>
cf sp</w>
black ma
inqu iry</w>
fa stest</w>
cal med</w>
con ceived</w>
hu gged</w>
dead lines</w>
cu be</w>
cru de</w>
presen tly</w>
comple ment</w>
cal ci
bal let</w>
lon gest</w>
eng lish
bu lli
v y
4. 8</w>
200 4/
199 1</w>
stir red</w>
slo va
ma h
ex changes</w>
de sk
cha n</w>
pain ter</w>
for th
co 2</w>
clea rer</w>
wit z</w>
thir st</w>
sal mon</w>
drive way</w>
disc arded</w>
vol can
re tali
prostitu te</w>
coo ling</w>
thi gh</w>
gro cer
grand children</w>
ar tery</w>
out si
ni es</w>
man o
leaf let</w>
den ver</w>
ba ke</w>
re son
plun ged</w>
pan els</w>
pan icked</w>
n ou
mari juana</w>
l t
elli ot</w>
won ders</w>
villa gers</w>
reluc tant</w>
poul try</w>
han na</w>
cho pper</w>
beha ved</w>
fore man</w>
hurri cane</w>
gradu al</w>
snat ched</w>
sho cking</w>
raz or</w>
mi sses</w>
10 7</w>
unti e</w>
temp tation</w>
sel dom</w>
or ated</w>
he h</w>
co medy</w>
s ited</w>
police men</w>
mar co</w>
dex ter</w>
alli son</w>
t win
rac ist</w>
obli vi
ab ack</w>
ri sk
mirac les</w>
mercur y</w>
har rison</w>
g ating</w>
de tro
co stly</w>
cli p</w>
un to</w>
ca the
se less</w>
opti mal</w>
od y
occu py</w>
le ys</w>
hus bands</w>
emer ge</w>
don ors</w>
c ere</w>
para meter</w>
nitro gen</w>
fel lows</w>
dimen sional</w>
ange lo</w>
par li
design ate</w>
pu mped</w>
parli amen
mi sle
leg ged</w>
el ven</w>
conserv ative</w>
bro dy</w>
ar ou
pe ter
insul ted</w>
ro se
pro minent</w>
o e
mad man</w>
hero ic</w>
che wing</w>
c ly
5. 2</w>
with standing</w>
so litary</w>
capsu le</w>
for ge</w>
culti vation</w>
out look</w>
hung arian</w>
c unt</w>
tradi tions</w>
ther apeu
sha m</w>
sa man
cou sins</w>
bel ts</w>
ver dict</w>
tor ment</w>
susan nah</w>
interru pting</w>
de vo
syn thetic</w>
lou ise</w>
expor ter</w>
ab do
mor ality</w>
d us</w>
time table</w>
down ward</w>
continu ously</w>
n ace</w>
lo gs</w>
fe e
vo la
tri bal</w>
mp son</w>
m ack
it ate</w>
interru ption</w>
ss ance</w>
reve lation</w>
norwe gian</w>
ne cro
ga il</w>
c sa</w>
ga so
far t</w>
detro it</w>
body guard</w>
enab les</w>
ra ins</w>
il and</w>
id a</w>
and re</w>
trac e
thir ds</w>
shri mp</w>
er in</w>
descen ding</w>
cor oner</w>
wi e</w>
sor ting</w>
mat tered</w>
distr action</w>
au x</w>
la x
disappe ars</w>
de lic
pharmac ist</w>
min eral</w>
me li
de x</w>
con junction</w>
ba k
rever sed</w>
pen sions</w>
pa ste</w>
gra vit
thou ghtful</w>
depar ted</w>
brea st-
boun ce</w>
sa mu
har mony</w>
c s
men ting</w>
do te</w>
bil li
bet a</w>
scrat ching</w>
exhau stion</w>
sign ation</w>
shar on</w>
ri o</w>
man ny</w>
integra l</w>
fer ry</w>
bar king</w>
accep ts</w>
ab sen
g roo
w led</w>
threat ens</w>
circum stance</w>
10 4</w>
quanti tative</w>
nai ssance</w>
en .
astron o
were wolf</w>
per missible</w>
gest ured</w>
flee ing</w>
r ator</w>
ou tra
nu t
f ly
dis pose</w>
a ka</w>
ste ss</w>
go ats</w>
dish on
cru shing</w>
at tic</w>
am in</w>
tra ps</w>
li thu
ha mp
deva stating</w>
bal li
stre am
spin al</w>
precin ct</w>
3 ,
sp rink
resi dual</w>
mel anie</w>
mar tin
con front</w>
p im
k nuc
disa tion</w>
sei zu
s lot</w>
ro s</w>
poor ly</w>
man dy</w>
ja ws</w>
fle tcher</w>
den sity</w>
de on</w>
choo ses</w>
ri ot</w>
re acher</w>
per for
gr ound
co- operation</w>
transmit ter</w>
van essa</w>
sp an
mi lls</w>
co co
apologi es</w>
reck less</w>
che ering</w>
auxi liary</w>
white -
righ te
inha bited</w>
ex or
bru shed</w>
ac hu
un sub</w>
ko sig
is a</w>
i si
ham mond</w>
explo rer</w>
compar ative</w>
publi sher</w>
lli e</w>
fl ung</w>
dri fting</w>
quan tum</w>
ic t</w>
commit ting</w>
attrac tion</w>
te m</w>
sti ble</w>
retar ded</w>
precau tions</w>
j ing</w>
hi ps</w>
com in</w>
by pass</w>
avo id
new com
di r</w>
accompli sh</w>
ver onica</w>
sin cere</w>
shu d
pul sion</w>
pati ently</w>
n .</w>
li am</w>
hosp it
wil d
propo sing</w>
less ness</w>
for ged</w>
at ories</w>
4. 5</w>
pro xim
preclu de</w>
k ane</w>
disse mination</w>
dis charged</w>
dero gations</w>
sco res</w>
no ting</w>
land lord</w>
inf li
face book</w>
theore tical</w>
sebas tian</w>
sco tch</w>
len der</w>
hea ther</w>
fi ling</w>
expre ssions</w>
den ying</w>
blo ck
who lly</w>
ste fan</w>
mper ed</w>
compe ten
ab outs</w>
than ked</w>
supp lement</w>
re signation</w>
prece ded</w>
nutri tion</w>
isa ac</w>
k an</w>
ha ve
disp en
sum mon</w>
str an
sh im
har ri
encry pted</w>
bai ley</w>
so ever</w>
prepar atory</w>
mu mmy</w>
zi e</w>
per ceive</w>
n c
mor se</w>
cra ig</w>
bud gets</w>
brand on</w>
authori zed</w>
as cen
x a
sni per</w>
down loaded</w>
contrac ted</w>
ne ur
dri fted</w>
disgui sed</w>
deb bie</w>
manipu late</w>
ge ly</w>
bu yers</w>
on o
boun ced</w>
4. 1</w>
to ol
substitu te</w>
seizu res</w>
sa ves</w>
hal ls</w>
gaso line</w>
em bo
clar a</w>
ban ana</w>
ti sation</w>
re union</w>
rail road</w>
inste in</w>
ha stily</w>
ba y
v u
survi vor</w>
ru m</w>
im posing</w>
ea ster</w>
ch lori
acu lar</w>
univer sities</w>
re mn
hand cuffs</w>
cur tis</w>
bar racks</w>
arm our</w>
trans mit</w>
star ling</w>
massac re</w>
do ct
tri cky</w>
shu tting</w>
ren de
pro -
on ous</w>
kas par</w>
exi le</w>
cr ate</w>
adv ances</w>
tro lls</w>
to bin</w>
s well</w>
alex .</w>
adren aline</w>
out set</w>
neighbour hood</w>
continu ity</w>
bloo d-
sau sage</w>
ri sh</w>
pe di
mb h</w>
di zz
bre ached</w>
bet es</w>
six teen</w>
sin gs</w>
ren tal</w>
n orton</w>
wh ales</w>
vor kosig
saman tha</w>
r yo
ne dra</w>
municip ality</w>
in fir
hi des</w>
fla g
er i</w>
sta tioned</w>
hi v</w>
cre ek</w>
cou p</w>
bo xing</w>
aler ted</w>
adven tures</w>
thro ats</w>
j in
dia betes</w>
deb tor</w>
bra king</w>
aud ited</w>
a shore</w>
sum mari
ri pe</w>
it ch</w>
u x</w>
stor ms</w>
murder ers</w>
inci dents</w>
g room</w>
col dly</w>
cla d</w>
imper ative</w>
emer gence</w>
ac quis</w>
twenty- four</w>
sub missions</w>
p tive</w>
gi fted</w>
at ers</w>
tho mpson</w>
ro ll
ra ging</w>
not withstanding</w>
no minal</w>
nin th</w>
met re</w>
en der</w>
ca ss</w>
spi ral</w>
mona stery</w>
ka y
il ers</w>
fru its</w>
ff er</w>
200 1/
win ston</w>
nau sea</w>
memor an
do g
ca valry</w>
thou ghtfully</w>
there after</w>
t roo
legen dary</w>
je wel</w>
fi lls</w>
den se</w>
chron ic</w>
re views</w>
dan e</w>
inv aded</w>
perver t</w>
millen ni
imag inary</w>
vi i</w>
tradi tionally</w>
kur t</w>
i um</w>
fac e-
cur ved</w>
safe guards</w>
regi sters</w>
demo li
practic ing</w>
mo men
fag got</w>
renew al</w>
poli tically</w>
ma dri
liber al</w>
c m
z ona</w>
sha ck</w>
reci pro
pi llars</w>
key board</w>
bio diversity</w>
ri char
pharmaceu tical</w>
mo des</w>
gra vel</w>
easi est</w>
dru ms</w>
be acon</w>
understand able</w>
sti mulate</w>
pur ity</w>
memoran dum</w>
k ar</w>
inf ant</w>
amate ur</w>
a ve
out numbered</w>
g ically</w>
four teen</w>
gre ed</w>
att acker</w>
plat forms</w>
plane tary</w>
nur sing</w>
ha wa
depo sited</w>
cred ited</w>
authenti c</w>
under way</w>
sp lit
me o</w>
li b
cough ing</w>
vide o
rit u
man sion</w>
de z</w>
cu mu
ca bles</w>
blur red</w>
- ass</w>
resu med</w>
exagger ated</w>
vi le</w>
prote ins</w>
p us</w>
mar ched</w>
clar ke</w>
wee ken
under gone</w>
k ai</w>
don e
ben der</w>
vorkosig an</w>
t v
ra tic</w>
lin king</w>
struc tured</w>
sme lling</w>
slee py</w>
prote sted</w>
mp h
en or</w>
e th</w>
sha ck
re start</w>
presu med</w>
bu mped</w>
alter nate</w>
ly mp
ir on
slow ing</w>
retri eve</w>
con vul
be ll
with stand</w>
twi light</w>
trea ties</w>
sabo tage</w>
ne at
ha zard</w>
bat tal
20 ,000</w>
therapeu tic</w>
se ve
foreig ners</w>
ra d
nichol as</w>
n in</w>
boun ty</w>
al as
re marked</w>
pit er</w>
ma st</w>
egyp tian</w>
sn ack</w>
s lan
reli es</w>
he dge</w>
bi es</w>
pipe line</w>
i-i-i-i-i-i-i-i- i-i-i-i-i-i-i-i-
com b</w>
battal ion</w>
rende zv
psy cho</w>
jun kie</w>
extrac tion</w>
e thical</w>
depo sit
co ats</w>
bio logy</w>
que ue</w>
qu ery</w>
pen gu
lim b</w>
documen tary</w>
coo led</w>
color ado</w>
bicy cle</w>
age ing</w>
war ding</w>
specu lation</w>
dimini shed</w>
que ens</w>
org as
k tor</w>
im po
he ll
ev a
be hold</w>
appre hen
ra ven</w>
in significant</w>
hu gh
h ound</w>
disa bility</w>
super man</w>
sun rise</w>
statu tory</w>
jessi e</w>
imprison ed</w>
diagno sed</w>
ambi gu
prosper ity</w>
mu scu
mu g</w>
interven er</w>
bac hel
shu a</w>
pe aks</w>
hawa ii</w>
compli cations</w>
youn g
sle eves</w>
nic er</w>
gerich t</w>
commer ci
casu alties</w>
ri an</w>
g mbh</w>
eng en</w>
toi lets</w>
sur ge</w>
fami li
se ll
s wan
eri an</w>
testi fied</w>
squ at
ra gged</w>
mas ked</w>
hel ple
dv d</w>
announ cer</w>
in flam
e be</w>
centr alised</w>
bit es</w>
ar ma
list ing</w>
cu shi
ph en
len ny</w>
am ster
resi due</w>
may a</w>
effici ently</w>
di ans</w>
cra shing</w>
cr ane</w>
weeken ds</w>
ti ans</w>
re pri
evacu ate</w>
distor tions</w>
web sites</w>
temp late</w>
sch engen</w>
mush rooms</w>
fav ors</w>
chic ks</w>
wid ened</w>
viol ate</w>
hor ns</w>
gi g</w>
genu inely</w>
d .a.</w>
benef ited</w>
jam as</w>
echo ed</w>
b c</w>
200 3/
w .</w>
st les</w>
ro ared</w>
r up</w>
nu mb</w>
infir mary</w>
in sight</w>
financi ally</w>
ch eri
annu lled</w>
un aware</w>
ti -
sil hou
gas ping</w>
di pped</w>
wea ken</w>
so fia</w>
l lation</w>
ga mble</w>
disru pt</w>
cr ust</w>
clu msy</w>
to ll</w>
sub mitting</w>
st oned</w>
pp er
p c</w>
out line</w>
neighb ours</w>
ho bby</w>
hair cut</w>
go -
eth ics</w>
atri c</w>
w ick
pro found</w>
mon roe</w>
icel and</w>
hou ston</w>
gu el</w>
bri cks</w>
spo ke
slova kia</w>
napo leon</w>
mu le</w>
dar ker</w>
co sme
cly de</w>
c p</w>
yl on</w>
under going</w>
pay ers</w>
bow ling</w>
wo ken</w>
disa sters</w>
appe aring</w>
th fully</w>
practic ed</w>
lin ger</w>
lic ity</w>
fin als</w>
musi cians</w>
s ment</w>
gau ge</w>
electro magnetic</w>
tha iland</w>
re sign</w>
ra tion
port able</w>
mor oc
f in</w>
epide mic</w>
acti vation</w>
wi llow</w>
w-w- w-w-
re jo
prou dly</w>
go blin
endur ed</w>
ten ants</w>
slaugh ter
sla very</w>
pois onous</w>
e i</w>
dar kened</w>
d as</w>
wan der
suppre ss</w>
respe ctable</w>
pin ch</w>
imp aired</w>
fle e</w>
tre mble</w>
sor row</w>
se als</w>
remo tely</w>
pre de
coun tess</w>
car son</w>
admi ration</w>
the l</w>
ter esa</w>
infor mal</w>
gn ment</w>
glu e</w>
discipl inary</w>
electr ons</w>
amster dam</w>
teen age</w>
rapp orte
rand all</w>
w inters</w>
ta c</w>
ser y</w>
sain t-
g .
tu ous</w>
ribb on</w>
ri dden</w>
rebe llion</w>
ne cks</w>
bat man</w>
ma dison</w>
im er</w>
il le</w>
fu ss</w>
ce able</w>
bun k</w>
ari um</w>
vo ters</w>
tho od</w>
ri co</w>
rendezv ous</w>
barre ls</w>
supervi sed</w>
post al</w>
gal lo
ti l</w>
mono poly</w>
mer chan
hospit ality</w>
antibio tics</w>
sun k</w>
modi fication</w>
inve sting</w>
fir stly</w>
scul p
fail ures</w>
amu sing</w>
work shop</w>
l ured</w>
hu m
< <</w>
war ran
ti um</w>
su ed</w>
o e</w>
n ag
mo ses</w>
ben e</w>
nur sery</w>
18 0</w>
sh ers</w>
prede cess
oun dings</w>
mar sh
de preci
postp one</w>
narco tics</w>
ho ods</w>
ce s
bro om</w>
w ic
terri fying</w>
t ate</w>
st ened</w>
physi cian</w>
de b</w>
appropri ately</w>
addi ction</w>
- scale</w>
ver sus</w>
ski pped</w>
phi a</w>
nostri ls</w>
la sts</w>
immu no
condi tioning</w>
cal la
ari zona</w>
stra tions</w>
m s
ki sses</w>
haras sment</w>
han gs</w>
commissi oned</w>
am ne
mar ching</w>
labor atories</w>
im migrants</w>
expl ored</w>
ban anas</w>
atlan ta</w>
wron gly</w>
pou ch</w>
pas sive</w>
minimi se</w>
m ity</w>
good- looking</w>
croo ked</w>
ti est</w>
na ughty</w>
excu ses</w>
diso be
d g
ambu shed</w>
scar cely</w>
q i</w>
par achu
mirac ul
mar ty
domini c</w>
ro ast</w>
de fle
brow ser</w>
vati can</w>
sto ol</w>
mi guel</w>
gori th
dossi er</w>
cardi ac</w>
al gorith
accumul ated</w>
wr ath</w>
new ton</w>
den ise</w>
consci ously</w>
c uc
ali zing</w>
al ec</w>
tuni c</w>
interce pted</w>
co efficient</w>
car men</w>
aven ge</w>
tele communications</w>
sc ored</w>
notic es</w>
l or</w>
en chan
neat ly</w>
mor rison</w>
gra il</w>
far -
sc roll</w>
proce eding</w>
mer edith</w>
exemp ted</w>
lun atic</w>
con sor
abor tion</w>
sti cky</w>
over sight</w>
mi ri
hard ened</w>
bre tt</w>
w oul
up grade</w>
scre ening</w>
la- la-
hur led</w>
disadvanta ge</w>
d ling</w>
wo ol</w>
n sa</w>
goblin s</w>
focu ses</w>
dan eel</w>
be ckett</w>
acceler ate</w>
feed back</w>
cho king</w>
weal thy</w>
edi tion</w>
hu m</w>
vari es</w>
resi sted</w>
po ll
bl ur</w>
au gu
af t</w>
va tions</w>
regu late</w>
parliamen tary</w>
ann on</w>
ta ges</w>
f lynn</w>
3 0-
there in</w>
sh rine</w>
refu gee</w>
pre sti
lip stick</w>
ju dy</w>
hyp no
greg or</w>
cross bow</w>
acknowle dges</w>
photogra pher</w>
holl and</w>
ff les</w>
dor o
cara van</w>
vi r</w>
t ton</w>
sp iders</w>
ram say</w>
pho ebe</w>
ro tation</w>
pla in
excell ency</w>
euro s</w>
en ne</w>
di ar
compla in
z ach</w>
terri fic</w>
re adily</w>
min er
ingredi ent</w>
hand ker
fi ona</w>
descri bing</w>
cool er</w>
fugi tive</w>
ca mb
3 rd</w>
sub heading</w>
irrit ated</w>
frequ encies</w>
ele anor</w>
un used</w>
tri pped</w>
kid neys</w>
f ty</w>
draw ings</w>
chan g</w>
vas cular</w>
umbre lla</w>
tro pical</w>
treat ments</w>
politici an</w>
min t</w>
jeal ousy</w>
inf an
gi deon</w>
dyna mite</w>
z al
we dge</w>
w ong</w>
per ry</w>
confir ming</w>
bur sting</w>
euro zone</w>
clau dia</w>
t c</w>
ssa l</w>
no ses</w>
no pe</w>
mete or</w>
accoun tant</w>
swee ping</w>
sur f</w>
inse ct</w>
dele gations</w>
con rad</w>
blin d
s burg</w>
ra p</w>
neighb ouring</w>
contribu tes</w>
bren nan</w>
re mark</w>
om ni
fre a
fil med</w>
al armed</w>
under lined</w>
ve z</w>
fa bul
apologi zed</w>
vice- president</w>
re publi
popu lations</w>
n inj
modu les</w>
hy de</w>
eu v
eri al</w>
wa its</w>
hyp noti
commer ce</w>
sho vel</w>
sear ches</w>
rang ing</w>
m ously</w>
kno b</w>
down stream</w>
administra tions</w>
la use</w>
excep tionally</w>
c c</w>
app lause</w>
a ys</w>
3 8
what soever</w>
surr oundings</w>
space craft</w>
si zes</w>
humili ating</w>
f lou
do dge</w>
b ats</w>
un acceptable</w>
stun ning</w>
mili tia</w>
mi zed</w>
un usually</w>
pro files</w>
me ssy</w>
mar ina</w>
furi ously</w>
fron tier</w>
f all
sele cting</w>
pe er</w>
k ol
campaig ns</w>
bu lly</w>
tele gram</w>
inv ali
cor al</w>
sie ge</w>
re fra
pre acher</w>
monit ors</w>
investig ators</w>
hoo ks</w>
he in
dar ing</w>
d ari
ad or</w>
pu mp
nor ma</w>
n .
la z
l b</w>
imp ly</w>
com bu
bag gage</w>
sul ph
proce eds</w>
po tion</w>
ly dia</w>
fre men</w>
dru id</w>
at re
anti dote</w>
un ite</w>
u tter</w>
t ini
re iter
pre ference</w>
mo ss</w>
loo sen</w>
il legally</w>
en force</w>
bever ly</w>
ta -
stran ded</w>
point less</w>
hysteri cal</w>
expo sures</w>
vo cational</w>
si ri
qu isite</w>
on- the-
as ley</w>
and ra</w>
semin ar</w>
life long</w>
licen sing</w>
inf o</w>
hugh es</w>
vo cal</w>
stupi dity</w>
re covering</w>
pol is</w>
p ounded</w>
bran ds</w>
accommo date</w>
w u</w>
sni ffed</w>
rede mption</w>
hu ddled</w>
vac ant</w>
type- approval</w>
proje ctions</w>
pen s</w>
mo tives</w>
de cen
un do</w>
privi leges</w>
cre ep</w>
bor rowing</w>
vo wed</w>
stre ams</w>
reduc es</w>
re ser
de ceive</w>
bit terly</w>
au to</w>
a o
j en</w>
fl our</w>
alig ned</w>
plan ting</w>
v and
u ser
ro ma</w>
na omi</w>
millenni um</w>
it ative</w>
bri e</w>
break through</w>
bl end</w>
ro dri
respect ful</w>
phi la
or na
m mo
descen dants</w>
cy n
sti pul
seven teen</w>
na tionally</w>
hol m</w>
blin king</w>
bene dict</w>
sa ints</w>
ma stur
home land</w>
ar k
abra ham</w>
sk ins</w>
s nit
jac ent</w>
it y-
hau led</w>
analy tical</w>
ad mitting</w>
shake spe
restra int</w>
recru it</w>
fac tories</w>
engul fed</w>
electron ics</w>
ca thy</w>
bal ti
ag gra
star ters</w>
sh ei
mu ti
ad jacent</w>
th ia</w>
tele scope</w>
self- defense</w>
ex hal
preva il</w>
mor phine</w>
gi gan
fac ial</w>
ear liest</w>
de a</w>
cro codi
bal ancing</w>
su scep
k as</w>
le u
ca m
bla zing</w>
be ts</w>
ro dney</w>
first- class</w>
de pic
costu mes</w>
andre a</w>
re en</w>
lin er</w>
hybri d</w>
ho ff</w>
en gra
cru sa
calci um</w>
bar red</w>
za k
pro prie
jo shua</w>
insp ire</w>
fi sher</w>
er as
so lic
in son</w>
del phia</w>
viru ses</w>
thi ghs</w>
sci ssors</w>
sc aring</w>
ra h</w>
o-o- o-o-
disgu sted</w>
as pir
z ack</w>
ski es</w>
secur ing</w>
of the</w>
lo v</w>
intermedi ate</w>
comp lies</w>
20 -
whole sale</w>
un armed</w>
to wels</w>
sol vent</w>
recon struc
r ants</w>
lo gged</w>
jon esy</w>
impor ter</w>
buff er</w>
beli efs</w>
bani shed</w>
20 th</w>
micro -
expl oring</w>
e man
comple ting</w>
car pen
broad way</w>
bloo m</w>
b ance</w>
te aches</w>
slo pes</w>
s v
occur rence</w>
mea dow</w>
helicop ters</w>
ed gar</w>
e cli
we e</w>
regre tted</w>
mail box</w>
hor ny</w>
di li
bru enor</w>
av atar</w>
a steroid</w>
to p-
no dding</w>
ma tions</w>
laun ching</w>
fru stration</w>
flat -
c '
boun cing</w>
phila delphia</w>
kar a</w>
ha th</w>
exac er
cor delia</w>
co- financing</w>
u ss</w>
do -
where abouts</w>
phan tom</w>
me g</w>
ev an</w>
bit ter
be sto
pro longed</w>
lu min
imag ining</w>
harve sted</w>
ha ze</w>
exhau stive</w>
distribu te</w>
country side</w>
copy right</w>
bun ker</w>
bar ray
any a</w>
tat too
s nee
i da
fin ch</w>
b low
alter n
aby ss</w>
un e</w>
mu sed</w>
hi er
fe males</w>
co gno
cha u
nar rator</w>
manife stly</w>
ger ald</w>
g lin
craw ford</w>
bath ed</w>
stro m</w>
pan cakes</w>
inher it</w>
ar ances</w>
peas ants</w>
manipul ated</w>
hi lt</w>
consul tant</w>
chor us</w>
broad ly</w>
ad ams</w>
war dro
san e</w>
free zer</w>
che mo
purcha sing</w>
provo ke</w>
mi grant</w>
ex tr
un predictable</w>
emplo y</w>
1 12</w>
ven e
sh ang
madri d</w>
kar ma</w>
ff ici
e instein</w>
constra ints</w>
al mighty</w>
mathema tical</w>
lim o</w>
ki ra</w>
endang ered</w>
don o
progre ssive</w>
moment arily</w>
momen tum</w>
memb ran
enti rety</w>
christi ans</w>
bb les</w>
y ang</w>
standar di
interven tions</w>
fil ters</w>
cos mic</w>
9 00</w>
spe eding</w>
mun d</w>
mi lit
camp ing</w>
boul der</w>
z ane</w>
scra p</w>
k ron
gar lic</w>
spect acular</w>
so lo
pup pet</w>
pp in</w>
miti gate</w>
ar sen
ba thing</w>
commen ted</w>
to l
colli sion</w>
c low
anticip ate</w>
7 th</w>
tor na
ru bble</w>
enter tain</w>
consu me</w>
S hi</w>
se ct</w>
sacrific es</w>
mu stache</w>
insi sts</w>
evalu ations</w>
bul k
ri des</w>
night fall</w>
n en</w>
ha irs</w>
enhan cing</w>
emp tied</w>
scru b</w>
re k</w>
inter section</w>
de por
chim ney</w>
adju sting</w>
2 2
re fin
play ground</w>
p s
dis gust</w>
ali gnment</w>
se da
organi sational</w>
it ary</w>
cogno s</w>
r t
molecu lar</w>
a ster</w>
10 5</w>
re consider</w>
or tho
ce llu
butter fly</w>
ali an</w>
ad or
w ul
read ers</w>
pen n
hang ar</w>
gre asy</w>
bur dens</w>
bli ss</w>
a wait</w>
2. 4</w>
sti f
stewar t</w>
sp r
ren dered</w>
gi bson</w>
disru ption</w>
defici encies</w>
ssi on
men ac
gluco se</w>
cumu lative</w>
clin ically</w>
worl d-
transfer ring</w>
thro p</w>
po sit
ju piter</w>
in convenience</w>
ill -
hygi ene</w>
enthusias tic</w>
dolph in</w>
de tte</w>
cal f</w>
slu t</w>
ri g</w>
proxim ity</w>
ob serves</w>
ni ko
mon strous</w>
imp rin
thresho lds</w>
th ru
spee ches</w>
priv ately</w>
moti vation</w>
l k</w>
gri ffin</w>
dolph ins</w>
cy cli
congre ssman</w>
aval on</w>
3. 3</w>
tribu te</w>
pla za</w>
in voice</w>
ren der</w>
polic y
pain fully</w>
leni ency</w>
intru der</w>
cho pped</w>
balti more</w>
liqui dation</w>
guine a</w>
fra mes</w>
sulli van</w>
samu el</w>
po ster</w>
mother fuckers</w>
mar ri
in capable</w>
i vy</w>
g m</w>
co x</w>
ro i
op pose</w>
li on
ske p
scenari os</w>
mathema tics</w>
in ate</w>
fea ther</w>
mo tioned</w>
atre ides</w>
stra ined</w>
seri ousness</w>
rif les</w>
modi fications</w>
ha y</w>
st ler</w>
sit ter</w>
run ner</w>
mo ck</w>
hypothe tical</w>
fea sible</w>
fabul ous</w>
cho ir</w>
un covered</w>
tor ches</w>
r h
hide ous</w>
corpor ations</w>
si ghts</w>
s lit</w>
medium- sized</w>
flo rence</w>
diver se</w>
assu mes</w>
imp lied</w>
he ss</w>
gra pes</w>
ed f</w>
spect acle</w>
over lap</w>
ob sole
go sh</w>
fla gs</w>
an der
a woke</w>
ur l</w>
el vis</w>
dd ings</w>
tre mbled</w>
sna pe</w>
ja x</w>
inspe ctors</w>
f ter</w>
dup licate</w>
bla ming</w>
re tt</w>
re ins</w>
jo ints</w>
ha r</w>
g ou
cu lly</w>
cere moni
car dinal</w>
200 6/
zz le</w>
n ly</w>
lan do</w>
hal ted</w>
fo il</w>
ten ts</w>
re construction</w>
negli gible</w>
ha zar
tra ine
shri e
mu tually</w>
ma h</w>
gener ating</w>
anti- competitive</w>
ut tered</w>
over time</w>
extingui shed</w>
da mi
celebr ity</w>
4 th</w>
tax payers</w>
she e
re gina</w>
per cep
hi o</w>
gg les</w>
expre ssing</w>
bas in</w>
way lander</w>
ven ice</w>
pai ge</w>
k les</w>
entreprene urs</w>
autono mous</w>
2007- 2013</w>
h ans</w>
consu l</w>
! !</w>
seduc ed</w>
se wer</w>
re pro
pim p</w>
destruc tive</w>
deni al</w>
co d</w>
class room</w>
c v
W o</w>
12 -
bachel or</w>
arm strong</w>
accu sing</w>
whis pers</w>
under world</w>
kno ts</w>
int ance</w>
how ling</w>
gi o</w>
fre aks</w>
fla vor</w>
classi cal</w>
broad ca
att ackers</w>
wrec ked</w>
wardro be</w>
stri pper</w>
presu me</w>
lea ked</w>
in ated</w>
impati ent</w>
gri ll</w>
gren ade</w>
ge sser
fib res</w>
den ing</w>
teri or</w>
s part
pp i</w>
la ir</w>
transpor ter</w>
o tto</w>
min d
m ur</w>
heli um</w>
facilit ating</w>
ca me
acqua intance</w>
addi tives</w>
ad dre
syl via</w>
spo t
senti mental</w>
nor a</w>
invo ked</w>
d ash</w>
al b
partic le</w>
mor rha
e ased</w>
anticip ation</w>
ac s</w>
so ck</w>
flu ids</w>
cit ade
star ved</w>
se ph
life style</w>
inje ctions</w>
gate way</w>
form alities</w>
expec tation</w>
ca de
pas sports</w>
ho c</w>
fol ding</w>
ev ans</w>
th reads</w>
obje cted</w>
hu mour</w>
dr one</w>
a man</w>
optimi stic</w>
ha milton</w>
y man</w>
scu m</w>
ni xon</w>
dete ctor</w>
deri va
sy ria</w>
psychiatri c</w>
i-i- i</w>
er r
do lls</w>
appe als</w>
un lock</w>
gan gs</w>
co met</w>
bel lowed</w>
ar no
an ton</w>
su es</w>
ri gged</w>
mur ray</w>
ll ery</w>
dr on</w>
deriva tives</w>
an cies</w>
zz o</w>
shakespe are</w>
dun geon</w>
cro ft</w>
con stable</w>
ch ment</w>
be ck
b out</w>
pro vin
mal ice</w>
endea v
bri ghter</w>
bar ked</w>
break up</w>
ti- brie</w>
stab bing</w>
spra yed</w>
organi se</w>
it us</w>
ful fil
electr on</w>
di agra
cont ingent</w>
cat ti-brie</w>
wea ther
un related</w>
to- day</w>
pa thy</w>
ma sses</w>
jer u
gra ins</w>
gr ac
cy rus</w>
cryst als</w>
communic ating</w>
ze al
w es</w>
ther mo
no ble
di oxide</w>
conven tions</w>
col oured</w>
wrink led</w>
share holder</w>
seve lt</w>
du mp
d ders</w>
a ero
occu pa
ha il</w>
gigan tic</w>
fa st-
stri pes</w>
kin son</w>
jon as</w>
jeru salem</w>
ha ck
bang ed</w>
accompli ce</w>
ab normal</w>
rober ts</w>
recei ver</w>
pronoun ce</w>
in done
divi den
defe cts</w>
work place</w>
se u
ridi cu
live stock</w>
he mi
gree ting</w>
alle y
ab er
ran king</w>
par ado
mau rice</w>
k am
it i</w>
enzy me</w>
d' you</w>
c lan
brother -in-law</w>
an gie</w>
shor tage</w>
roo sevelt</w>
pres sures</w>
mit z</w>
har ness</w>
for fe
establi shments</w>
defe ct</w>
clu tched</w>
arou sed</w>
apo llo</w>
cha p</w>
cal eb</w>
signat ures</w>
se am
in dent</w>
head ings</w>
tre vi
trans form</w>
psycho logy</w>
hu dson</w>
co smo
back yard</w>
3 6
1. 4</w>
spon sor
ro cking</w>
republi can</w>
phar macy</w>
mi su
gu lar</w>
d renched</w>
cre ator</w>
ca di
volun tarily</w>
ter rain</w>
e un
convic t</w>
rest less</w>
ge stion</w>
dividen ds</w>
dazz ling</w>
lun ged</w>
h r
gang ster</w>
ce il
b ree</w>
presi dents</w>
pla u
it er</w>
fulfil ment</w>
dispat ched</w>
topp led</w>
re paid</w>
mysteri es</w>
loo k
de vote</w>
ag ers</w>
a while</w>
meli ssa</w>
do cks</w>
comman ders</w>
co con
un seen</w>
simi larity</w>
sha dow
ev ac
bbi sh</w>
admi r
try in</w>
pit ched</w>
molecu le</w>
j e</w>
bio -
ban ner</w>
al vin</w>
se duce</w>
r ory</w>
po sters</w>
munici pal</w>
fla shes</w>
draw ers</w>
dan cers</w>
ali son</w>
win ners</w>
in competent</w>
cha ined</w>
bri ghtly</w>
air plane</w>
so c
presen ts</w>
plu gged</w>
or acle</w>
brother hood</w>
au stin</w>
sub ur
o hio</w>
es the
desig ner</w>
cy clo
sco o
inher it
har i</w>
brea st
zo o
preven tive</w>
out -of-
l ons</w>
corro bor
q .</w>
no od
intraven ous</w>
he ck</w>
fr ater
fif ty-
di sta
camp bell</w>
bi g-
ab bot</w>
promp ted</w>
mi sin
ha unt</w>
en tail</w>
emb raced</w>
sti tches</w>
cr acking</w>
c ac
seas ons</w>
ra tions</w>
prefer ential</w>
n ally</w>
hal ey</w>
escap ing</w>
did nt</w>
cu ff</w>
centri c</w>
squ a
oun d-
ma gi
habit ats</w>
gno me</w>
fa king</w>
disor ders</w>
ar ose</w>
amoun ted</w>
x ml</w>
weigh ted</w>
vari ations</w>
vari ation</w>
to my</w>
reve als</w>
our se</w>
net te</w>
free doms</w>
evac uation</w>
di ly</w>
ve y</w>
vari ables</w>
sta mps</w>
lic king</w>
foren sic</w>
comp ounds</w>
carb ons</w>
bro ker</w>
ben nett</w>
archite ct</w>
vi gor
pe g</w>
interfer ing</w>
good will</w>
demonstr ating</w>
bur gh</w>
te al</w>
stre sses</w>
lin e
bul b</w>
abstr act</w>
a e
wre stling</w>
work force</w>
inten tly</w>
al a
ther mal</w>
susta in</w>
split ting</w>
risk -
pean ut</w>
pal ms</w>
mb a</w>
awa its</w>
rig id</w>
rese mbled</w>
me at
do ve</w>
discre et</w>
cti vity</w>
a wards</w>
3. 5</w>
s z
pa ul
p to
juli et</w>
d to</w>
appe aled</w>
an ato
unbeliev able</w>
syl vani
state -
siri us</w>
j acked</w>
b u</w>
ven us</w>
ski l
r ance</w>
no wad
er m</w>
cla us</w>
bear able</w>
as th
re spir
du ane</w>
m one</w>
instruc tor</w>
gener als</w>
conce ssions</w>
wei ghts</w>
thin k
stre aming</w>
sp at</w>
s g
ree se</w>
recor der</w>
peri ph
obe yed</w>
muscu lar</w>
mour ning</w>
de arly</w>
ci d</w>
ch ard</w>
ti mber</w>
pil es</w>
metaboli sm</w>
dre ad</w>
rey no
me lan
gr at</w>
tattoo ed</w>
off spring</w>
nowad ays</w>
heavi er</w>
coo ks</w>
co ali
ce a
arbit ration</w>
spon taneous</w>
op tical</w>
cre st</w>
boar ded</w>
tren ch</w>
rapporte ur</w>
mar vin</w>
j ade</w>
bun dle</w>
war ts</w>
sp h
mete or
medium- term</w>
cruel ty</w>
ra ils</w>
pic tured</w>
p raised</w>
me a</w>
da h</w>
moo dy</w>
clean ers</w>
anten na</w>
ali en
x i</w>
win es</w>
seph renia</w>
restri al</w>
public -
oni an</w>
mi sh</w>
cr ates</w>
correspon dence</w>
clin ton</w>
201 6</w>
cri ses</w>
band age</w>
al bu
sne a
scan ning</w>
resi li
re cover
oun ced</w>
lun a</w>
lanter n</w>
gre y
cardi o
o ec
mer it</w>
eli jah</w>
dan a</w>
ar teries</w>
rid cully</w>
ra ma</w>
pa edi
ox ford</w>
o va</w>
lear ns</w>
handker chief</w>
gr y
gesser it</w>
d t</w>
archi e</w>
subsidi arity</w>
stev ens</w>
side -
ro aring</w>
ho vering</w>
ha ss
cu lum</w>
vo mit</w>
un familiar</w>
tan tly</w>
sand ers</w>
reha bil
lor e</w>
kne el</w>
hu go</w>
well- known</w>
to pics</w>
pru dent</w>
lat ors</w>
gen ous</w>
com pressed</w>
cal y
accoun table</w>
ske tch</w>
min i</w>
du mmy</w>
barbe cue</w>
appren tice</w>
t ants</w>
pu ri
pota ssi
jud gement</w>
infor mant</w>
divi sions</w>
con figured</w>
ar men
198 9</w>
sa dd
rang ers</w>
licen sed</w>
inspe cted</w>
her bs</w>
he imer</w>
eras mus</w>
chemo therapy</w>
bu ster</w>
bi dding</w>
amaz ingly</w>
si ded</w>
pup il</w>
multip lied</w>
extin ct</w>
econo mics</w>
car bon
under ing</w>
tr in
pu dding</w>
k yo
gg ins</w>
dee p-
si p</w>
r ons</w>
eigh ty</w>
appreci ation</w>
mar row</w>
go blin</w>
fore see
eur atom</w>
weigh s</w>
si mu
recipi ents</w>
presen ting</w>
infan try</w>
fre der
for -
dinosa urs</w>
ato ms</w>
ap e</w>
anne xed</w>
vol tage</w>
sloven ia</w>
c' mon</w>
bu rial</w>
ari sto
1 30</w>
na ming</w>
d les</w>
che wed</w>
capsu les</w>
al lied</w>
ste ms</w>
sp lin
ri pping</w>
la va</w>
k r
inherit ance</w>
ar te
any how</w>
4 6
stri es</w>
ro meo</w>
o mar</w>
mercen ary</w>
hormon es</w>
em powered</w>
cy to
sha ving</w>
sa ur
o h
mi gr
li sm</w>
du es</w>
dono van</w>
chand ler</w>
w ns</w>
rabb i</w>
bi as</w>
as a</w>
to p
quo ted</w>
po ke</w>
le y
alas ka</w>
toma to</w>
she a</w>
se y
ro aming</w>
ne ga
kic ks</w>
gl en</w>
ghe tti</w>
g ha
ce o</w>
bru ised</w>
sympa thetic</w>
jud ith</w>
gre ase</w>
go l</w>
sen ed</w>
meas ur
in fr
greg ory</w>
ge tic</w>
col d-
acciden tal</w>
syner gies</w>
restor ing</w>
oce ans</w>
multi lateral</w>
credit or</w>
colon ies</w>
temp les</w>
si b
no isy</w>
lon el
in cin
to xi
pe ed</w>
de arest</w>
yo n
statu te</w>
say in</w>
part- time</w>
mercen aries</w>
le one</w>
instin ctively</w>
str ingent</w>
reg gie</w>
prohi bit</w>
ki l
hun ched</w>
cen ta
ac ity</w>
venti lation</w>
trevi ze</w>
thank fully</w>
ru bbish</w>
gar cia</w>
annu ally</w>
vi e</w>
slic ed</w>
prob ation</w>
mil dly</w>
legi on</w>
fren zy</w>
di version</w>
cri mson</w>
ar an</w>
war mer</w>
so vie
ra vine</w>
posi tively</w>
ow l</w>
lur king</w>
ine -
ver te
u g
provo ked</w>
o val</w>
es is</w>
ch unk</w>
cat er
techn icians</w>
prece dented</w>
obsc ure</w>
hear ted</w>
gun shot</w>
gali leo</w>
cu bs</w>
confron tation</w>
bra very</w>
astronau t</w>
19 80</w>
scor pi
ri chie</w>
mil an</w>
har t
distur bance</w>
defen ses</w>
d roo
comfor ting</w>
vi ii</w>
ty re</w>
ri ddle</w>
kee pers</w>
ida ho</w>
stri ps</w>
pre fers</w>
mat ron</w>
ja ma
fa inted</w>
5 th</w>
un finished</w>
st ung</w>
repe al</w>
r ally</w>
predat or</w>
pat ty</w>
hazar dous</w>
desc end</w>
bo a
anti que</w>
w ary</w>
vo ws</w>
re t
pe ering</w>
oper atives</w>
me tals</w>
li king</w>
di me</w>
bur g
vigil ance</w>
vali dation</w>
spi kes</w>
o a
klin gon</w>
je ep</w>
discer n</w>
deduc t</w>
ver ge</w>
sli pp
lin ear</w>
investi gative</w>
fresh man</w>
ever -
di ment</w>
devo tion</w>
arti llery</w>
ans en</w>
- european</w>
spe ars</w>
pier cing</w>
ne ural</w>
it an</w>
high- quality</w>
explo itation</w>
un precedented</w>
ten ds</w>
sa uc
eg f</w>
chil dish</w>
band its</w>
atten dance</w>
ali stic</w>
sau di</w>
mat u
lea ped</w>
l '
iso late</w>
in n
cor on
redun dan
rece ssion</w>
particu lars</w>
paren tal</w>
nu n</w>
manu script</w>
exa ms</w>
dissi p
atten ding</w>
sylvani a</w>
spea kers</w>
re viewing</w>
consi sted</w>
comfor ted</w>
clin ing</w>
bear ded</w>
pre mature</w>
lang ley</w>
de m</w>
ci sm</w>
reluc tantly</w>
quar ter
obsole te</w>
king -
en tal</w>
chap ters</w>
adver sely</w>
gen eva</w>
con cei
10 0
stab les</w>
q a
pick up</w>
me ts</w>
il -
flir ting</w>
cyn thia</w>
ca ss
bo il</w>
arno ld</w>
sigh ted</w>
respon dents</w>
hol ster</w>
grow n
co ding</w>
cap ability</w>
vari ed</w>
u late</w>
suppor ters</w>
scri pts</w>
remedi es</w>
nor theast</w>
im provi
ap es</w>
star gate</w>
soc cer</w>
sa m
milli onaire</w>
even ly</w>
depen ded</w>
ty pe
stro de</w>
poe ms</w>
notori ous</w>
in stances</w>
fi ery</w>
comprehen sible</w>
clin ging</w>
bo o</w>
advi ser</w>
un due</w>
sen sing</w>
ho p
fla wed</w>
sy rup</w>
potassi um</w>
mano euv
heart beat</w>
custo mary</w>
c had</w>
tan ner</w>
spa tial</w>
sha n</w>
reyno lds</w>
free -
dis continuation</w>
t down</w>
hor rors</w>
fe eds</w>
di p</w>
sa i
foresee able</w>
excell ence</w>
ear nings</w>
depre ssing</w>
cow boys</w>
achiev ements</w>
a va</w>
10 8</w>
zi er</w>
volcan o</w>
ti ly</w>
t les</w>
sty les</w>
lar a</w>
labe lled</w>
in voices</w>
effe cted</w>
dol ph</w>
di stances</w>
con ci
a very</w>
pu mps</w>
north west</w>
lia ison</w>
don ate</w>
ci de</w>
argen tina</w>
ar do</w>
aggre gate</w>
adole sc
scru tiny</w>
r y-
la yout</w>
an gui
un -
persi st</w>
analy ze</w>
wi ser</w>
sou theast</w>
short cut</w>
ratt led</w>
oec d</w>
ll ary</w>
ger -
ff a</w>
exhi bit</w>
en er</w>
e tal</w>
bal tic</w>
cli ffs</w>
bur t</w>
af fili
samp led</w>
ry an
ro sa</w>
prote sts</w>
pa stor</w>
p he</w>
lob ster</w>
gh et
echo ing</w>
dis connect</w>
co dy</w>
ac p</w>
x u</w>
sp rang</w>
s lender</w>
out break</w>
lec ter</w>
sti al</w>
damag ing</w>
** *</w>
woo dy</w>
sales man</w>
ri k</w>
fib re</w>
exten ds</w>
vir gin
sa sha</w>
petro l</w>
medi c</w>
kne eling</w>
he im</w>
clow ns</w>
auto mated</w>
st acked</w>
salu te</w>
merchan di
sand ra</w>
popu lated</w>
insan ity</w>
geographi c</w>
gar rett</w>
expo sing</w>
du sk</w>
adv ancing</w>
occur ring</w>
ke -
k h</w>
harb our</w>
g atory</w>
bil bo</w>
ac cru
x .</w>
terr ace</w>
recogni zing</w>
li zard</w>
fore casts</w>
fear ful</w>
dream t</w>
bo sch</w>
ad er</w>
wind shield</w>
th as</w>
sc y
g lee</w>
ex cise</w>
de stri
de ceived</w>
arbit r
y ale</w>
tr on</w>
the matic</w>
pla ster</w>
orphan age</w>
lab y
gin ny</w>
fac to</w>
ct u</w>
19 th</w>
tun ed</w>
rhy me</w>
resi dential</w>
reli ance</w>
refriger ator</w>
pro xy</w>
po well</w>
ma grat</w>
lonel iness</w>
in ting</w>
f ang</w>
decen cy</w>
dece ption</w>
com plying</w>
coali tion</w>
bank rupt</w>
ro ts</w>
ll on</w>
li me</w>
cre ati
bei jing</w>
tis sues</w>
ru thless</w>
tor so</w>
spa ghetti</w>
pre pa
p lea
inter course</w>
gun men</w>
centi meters</w>
cap tains</w>
accu sations</w>
- san</w>
ro cked</w>
men tions</w>
isra eli</w>
ha emo
grin ding</w>
c ke</w>
broad band</w>
lei gh</w>
evalu ating</w>
co hen</w>
cle men
bla dder</w>
1 25</w>
veter ans</w>
laby rin
hit ch
cree ping</w>
chur chill</w>
bra dley</w>
bo obs</w>
a zi
t sur
perpetr ator</w>
nipp les</w>
mu ddy</w>
stel lar</w>
space ship</w>
p seu
m 2</w>
hi ssing</w>
evol ve</w>
vul can</w>
rel ying</w>
h our
gro aned</w>
dra fted</w>
det ached</w>
under estimated</w>
sca res</w>
richar ds</w>
enti n</w>
assass ins</w>
sel le</w>
pi one
ph oned</w>
gener ic</w>
competi tor</w>
c r</w>
w reck
shi vered</w>
psycho logist</w>
lat ch</w>
fossi l</w>
en ri
smar test</w>
periodi c</w>
oppon ents</w>
har lan</w>
gover n</w>
fac ul
ee ee
diver si
director ate-
br and-
wr ong
tempor al</w>
sen or</w>
me mo</w>
wh ining</w>
teen agers</w>
ste e
sta ins</w>
reser vo
is -
d ore</w>
air -
wi lly</w>
tow n
on-the- spot</w>
ex its</w>
bre w</w>
u sable</w>
standar disation</w>
ritu als</w>
margin al</w>
ka ye</w>
br ink</w>
sexu ality</w>
rehear sal</w>
recogni ses</w>
pro tru
lithu ania</w>
lan ce
impor ting</w>
far m
eag erly</w>
bri ght
treach erous</w>
suc cu
intimid ated</w>
humili ate</w>
eri k</w>
dist ort</w>
directorate- general</w>
ch ants</w>
bi scu
bac teri
quali fication</w>
pin ched</w>
ze ment</w>
in take</w>
bu ses</w>
transp lan
sp ru
po ked</w>
defen dants</w>
confisc ated</w>
app lau
an ol</w>
sp s</w>
ski pper</w>
re treated</w>
re tail
r -
inv ites</w>
dor f</w>
budd ha</w>
ar ctic</w>
str angle</w>
patri cia</w>
made line</w>
her b</w>
wo ven</w>
speci men</w>
pump kin</w>
men t-
fro wn</w>
foo ling</w>
devi ls</w>
curren ts</w>
ca fe
alu mini
1 60</w>
wreck age</w>
vit amin</w>
obje ctively</w>
matthe ws</w>
ly ri
la sh</w>
ec .europa.
ca bly</w>
bre w
ta me</w>
duc hess</w>
desk top</w>
cho le
- off</w>
war fare</w>
th ic
sli ck</w>
ri ous</w>
pa w</w>
n age</w>
jean- claude</w>
jas per</w>
bi tions</w>
3 9
2 1st</w>
si mulation</w>
remark ably</w>
mur dering</w>
techn ician</w>
po op</w>
mag nit
je lly</w>
id le</w>
horri fied</w>
bor is</w>
ba re
al arms</w>
tr ance</w>
i fr
fore stry</w>
el bows</w>
dd ler</w>
co lt</w>
4 ,
savi or</w>
grand daughter</w>
go ver</w>
duc ks</w>
do ts</w>
con nie</w>
bon y</w>
announ cing</w>
ac ies</w>
velo city</w>
so lit
provi sionally</w>
pe ered</w>
ni mitz</w>
mer y</w>
maneu ver</w>
deri vative</w>
ceil ings</w>
blood shed</w>
accoun tability</w>
stru an</w>
lic ked</w>
gar a</w>
con se
ch rome</w>
ste w</w>
manipu lation</w>
breast- feeding</w>
ama zement</w>
8 :00</w>
z in
v ings</w>
un ner
spi lling</w>
pl uc
her r</w>
har kon
do x</w>
disin fe
6 0s</w>
rich er</w>
re born</w>
i us</w>
ht ml</w>
ga zed</w>
de af
repor tedly</w>
pic ard</w>
expe ct
t tle</w>
stor y
smi ley</w>
proble matic</w>
id an</w>
gen cies</w>
fl ank</w>
doro thy</w>
bi ll
wilder ness</w>
ta h</w>
pre occupied</w>
homo sexual</w>
fol ds</w>
ffin s</w>
de clining</w>
cha vez</w>
cat aly
ca ges</w>
aw a</w>
audi ble</w>
star board</w>
righte ous</w>
ni co
mar tian</w>
jeff erson</w>
daw son</w>
pan e</w>
mis understood</w>
mal ta</w>
gen ts</w>
g s
foun ding</w>
foun der</w>
extrac ted</w>
exerci sing</w>
es thetic</w>
cy p
calla han</w>
bra d
bo vine</w>
ste er</w>
squ at</w>
ru dy</w>
mic hi
fre ddie</w>
ear marked</w>
wi ght</w>
ryan air</w>
question able</w>
o ils</w>
x x
twi sting</w>
ste al
k at</w>
fire arms</w>
c row</w>
we asley</w>
pu mping</w>
pe t
orche stra</w>
kal ten</w>
dang ling</w>
cur b</w>
c or</w>
b or</w>
ta d</w>
privile ged</w>
pat ches</w>
imbal ances</w>
emb roi
consp ic
ca in</w>
se gments</w>
revo ked</w>
peti tion</w>
p on</w>
me la</w>
ne ville</w>
murder ous</w>
mu sli
l ding</w>
contrac tors</w>
bo re
ba king</w>
198 8</w>
thri ll</w>
sovie ts</w>
pp a</w>
la bs</w>
infor ming</w>
so lar
re agan</w>
fro wning</w>
fin nish</w>
achi lles</w>
a ah</w>
villa in</w>
veter an</w>
s ms</w>
rod gers</w>
re ared</w>
pi ssing</w>
or cs</w>
harri et</w>
fli pped</w>
flav our</w>
bloo ded</w>
auth ors</w>
aph ra
10 2</w>
titu des</w>
reassur ed</w>
ra j</w>
lit ter</w>
di le
wire less</w>
sav ages</w>
re new</w>
orgas m</w>
mo ck
9 :00</w>
ter o
rene g
reconci liation</w>
pe destri
par chment</w>
mar il
f r</w>
diagno stic</w>
str ating</w>
sa ul</w>
reas sure</w>
chuck led</w>
black ened</w>
a a</w>
w u
ol ds</w>
noti fications</w>
lo dging</w>
ke ller</w>
bitter ness</w>
ba the</w>
sur round</w>
stu ffs</w>
re united</w>
pon der</w>
pat ron</w>
ma ble</w>
un il
survi ves</w>
squee zing</w>
sni ff</w>
re acting</w>
g lim
floo ding</w>
5. 3</w>
vi ktor</w>
tex t
temp ting</w>
see ker</w>
revi ve</w>
propag anda</w>
pre view</w>
pilgri ms</w>
men tioning</w>
g han</w>
com posite</w>
chi lled</w>
tur k</w>
remn ants</w>
no bles</w>
lo ren
fre i
bl un
autono my</w>
vo w</w>
un lea
proce ssors</w>
manti cor
inv ade</w>
encry ption</w>
dr yly</w>
dis solve</w>
deci pher</w>
comb ating</w>
camb ridge</w>
ali gn</w>
tru st
point ments</w>
m me
le in</w>
it z</w>
ic hi</w>
audit or</w>
ano mal
1 1.
sp ices</w>
self- employed</w>
musli ms</w>
m mer
j r.</w>
in effective</w>
hi ve</w>
gg in</w>
enzy mes</w>
de cks</w>
ss ness</w>
rever sible</w>
le ptic</w>
gra ss
fli ck</w>
blu ff</w>
ballo ons</w>
1 40</w>
or derly</w>
gl aci
con signment</w>
ba x
refra in</w>
re productive</w>
nu m</w>
merci ful</w>
m c</w>
jac ques</w>
g ad
fa ked</w>
mi ze</w>
k ul
g led</w>
disagree ment</w>
d ship</w>
concu ssion</w>
chi efs</w>
speci fying</w>
hypothe sis</w>
gran ite</w>
compe lling</w>
citade l</w>
3 0,000</w>
ten tac
retail ers</w>
out ward</w>
menac ing</w>
inher ent</w>
evol ving</w>
toler ated</w>
thro po
over la
li m</w>
lat via</w>
large -scale</w>
flat tery</w>
co- ordin
che z</w>
bur gl
vege tation</w>
unic orn</w>
suici dal</w>
mar ker</w>
har ding</w>
fish ery</w>
en sign</w>
co pen
b p</w>
un reasonable</w>
steph anie</w>
ren s</w>
identi fies</w>
gra m
cre denti
bu l</w>
tra ils</w>
soo thing</w>
regulat ors</w>
psycho tic</w>
pa ins</w>
her cu
e z
co yo
aro ma</w>
vin es</w>
torpe do</w>
substitu tion</w>
phenomen a</w>
nine teen</w>
micro wave</w>
dani els</w>
cal vin</w>
bomb ed</w>
ap ron</w>
sh in</w>
gar rison</w>
expl oration</w>
b ber
saw yer</w>
reinfor ce</w>
on ey</w>
jo se</w>
ig ni
fan gs</w>
e co-
vla di
v .
ta ped</w>
rob bie</w>
odd ly</w>
loa f</w>
infr ared</w>
dizz iness</w>
cop ying</w>
co on</w>
an gi
sla in</w>
no t-
nic kel</w>
middle- aged</w>
explo sions</w>
eleph ants</w>
du bi
de cker</w>
apo caly
18 th</w>
zi p</w>
triump h
succe ssion</w>
restra ining</w>
over ly</w>
land ers</w>
jo han
gener ators</w>
fanta sies</w>
wan da</w>
re ich</w>
mag n
invol un
d ner</w>
attribu table</w>
ar tie</w>
abo ve-
ni gg
bra dy</w>
alumini um</w>
w right</w>
st i</w>
scan ner</w>
pa wn</w>
l acks</w>
ev el
chel sea</w>
brand- new</w>
upgra ded</w>
ste als</w>
sat ory</w>
merchandi se</w>
i ster</w>
di rk</w>
de ple
cheer fully</w>
amaz on</w>
tru sts</w>
stal king</w>
or d</w>
li ti
credenti als</w>
the o</w>
s ach
repe ti
ob serving</w>
k man</w>
juven ile</w>
grace ful</w>
curi ously</w>
conne cts</w>
yo ga</w>
tru ste
s wan</w>
loo med</w>
interce pt</w>
high light</w>
g ings</w>
dia pers</w>
bo iled</w>
a qua
vani on</w>
ss en</w>
paedi atric</w>
min im
m u</w>
m ack</w>
er ty</w>
jo ker</w>
expi re</w>
el bryan</w>
ea st
che que</w>
u .</w>
predat ors</w>
no bel</w>
igni tion</w>
fear less</w>
a erial</w>
se men</w>
ra w
jeff rey</w>
repa ir
pack aged</w>
di gni
der man</w>
aggre ssion</w>
tsur ani</w>
ho liness</w>
fri gate</w>
dri ck</w>
dr o</w>
consor tium</w>
cle ars</w>
stal lion</w>
si ci
la m</w>
is ance</w>
irrit ation</w>
fisher man</w>
ve s
si bility</w>
rhe a</w>
in er
g lared</w>
es say</w>
di on</w>
christ ina</w>
buck le</w>
authenti cation</w>
sho wers</w>
reas se
port land</w>
po sting</w>
plau sible</w>
he x
happi est</w>
escor ted</w>
9 2/
sli des</w>
cu t-
to tal
sco pic</w>
ro mul
re ign</w>
pi geon</w>
jag ged</w>
indi ct
in fi
y ne</w>
vi vid</w>
soci ally</w>
si cs</w>
ro cke
metaph or</w>
fri ghten</w>
eth nic</w>
coupl ing</w>
corn ered</w>
wa ke
si pping</w>
shit ty</w>
sca m</w>
ha -
depreci ation</w>
chil i</w>
c in</w>
wide -
we sley</w>
virgin ity</w>
un willing</w>
tle ila
tar y-
smugg led</w>
ro wer</w>
pro position</w>
hor mone</w>
assi stants</w>
to mat
mar got</w>
m ound</w>
frac ture</w>
deduc ted</w>
contin ental</w>
communi sts</w>
collap sing</w>
cock pit</w>
att achment</w>
5 0-
un d</w>
trans posed</w>
photograph ed</w>
non- discriminatory</w>
magnit ude</w>
extr ater
el in</w>
chan ge
cere al</w>
EU R</w>
y uri</w>
shou ts</w>
re pre
hon or
ho bb
flick ering</w>
un ting</w>
sn uck</w>
shang hai</w>
ser bia</w>
mi key</w>
infra structures</w>
bro ok</w>
ari c</w>
lit es</w>
le ar</w>
hurri edly</w>
ele vated</w>
contro lla
cafe teria</w>
fo y</w>
ac credit
vit ro</w>
sti tch</w>
splen did</w>
re funds</w>
k nit
deton ate</w>
corru pted</w>
arti stic</w>
ad mit
accu mulation</w>
?? ??
ri b</w>
ma ids</w>
lo cally</w>
jo yce</w>
analo gy</w>
hu gging</w>
hi ro</w>
ca pped</w>
ab bey</w>
x y
stin king</w>
sal on</w>
re calls</w>
premi ums</w>
in tuition</w>
ho sting</w>
ha e
f gar</w>
en rolled</w>
cock ro
analo gue</w>
10 :00</w>
rac e
mc gee</w>
commo dore</w>
alley way</w>
u re
spar ked</w>
po mp
h q</w>
dra gon
cin dy</w>
athle te</w>
addi tive</w>
- and</w>
to wed</w>
la ur
dow ns</w>
bu zz
spla sh</w>
oni on</w>
expl or
divi ding</w>
counci ll
bak ery</w>
sni ffing</w>
prefer ably</w>
misle ading</w>
jo anna</w>
ga unt</w>
con secu
ca vity</w>
blo g</w>
3. 4</w>
vacc ines</w>
spit ting</w>
pha ses</w>
metal lic</w>
mani an</w>
gg led</w>
dang er
col a</w>
b ital</w>
D e</w>
trou ble
slo an</w>
she ila</w>
ser o
no lan</w>
mor tem</w>
i i
deliver ies</w>
trau matic</w>
mis fortune</w>
medi eval</w>
vaccin ated</w>
ori gins</w>
collabor ation</w>
box er</w>
aspir in</w>
1 14</w>
ul ture</w>
promp tly</w>
par o
lo we</w>
lar ing</w>
foo t-
den ies</w>
br at</w>
sou ven
slipp ery</w>
pre p</w>
per t</w>
ido l</w>
glea med</w>
gi bb
ef sa</w>
chlori de</w>
z h
t- shirts</w>
sub cu
sil as</w>
ra tive</w>
despi se</w>
helple ssly</w>
cen ters</w>
ame lia</w>
sha des</w>
peop les</w>
mi le
im minent</w>
door step</w>
de ut
au c</w>
ac les</w>
weap on
ton gues</w>
swee ts</w>
statu es</w>
re morse</w>
re al-
ninj a</w>
hel ena</w>
gre l</w>
girl friends</w>
al lan
psycho path</w>
grown -up</w>
forth coming</w>
english man</w>
cha tter</w>
a men</w>
we ar
u ter
suc cumb
sch u
me sh</w>
it ating</w>
for mulation</w>
direc ting</w>
cal ler</w>
ty ran
mar gar
compen satory</w>
swit ches</w>
no bility</w>
mid ity</w>
mer lin</w>
labyrin th</w>
k led</w>
ho g</w>
di lution</w>
brief ed</w>
an thropo
v s</w>
tra mpled</w>
sp ring
sha pe
pre domin
ga e</w>
affor ded</w>
accredit ation</w>
. 1</w>
str ands</w>
stabili zed</w>
qual itative</w>
pa ula</w>
p ines</w>
ir responsible</w>
halluc inations</w>
for mid
eye lids</w>
bo mber</w>
on ers</w>
man ned</w>
ir is</w>
disadvanta ged</w>
bin o
xi a</w>
regi stra
over look</w>
nei ll</w>
in ability</w>
glu ed</w>
enjo ys</w>
a tively</w>
3 :00</w>
sw at</w>
gl are</w>
care ers</w>
spe lled</w>
j in-
h end</w>
d aph
counterfe it</w>
concentr ating</w>
con dom</w>
cance llation</w>
pee led</w>
kit a</w>
hu b</w>
fran ce
est onia</w>
cti ous</w>
y i</w>
su ing</w>
spor ting</w>
scre w
sch mid
reje cting</w>
pu tin</w>
lon a</w>
lap sed</w>
har dy</w>
ex- husband</w>
en forced</w>
de dly</w>
assaul ted</w>
arti fact</w>
scar let</w>
re id</w>
pre n
o lives</w>
inter pol</w>
conflic ting</w>
wo o</w>
ta mp
mil ky</w>
dra l</w>
su shi</w>
stev ie</w>
mi l</w>
mb lance</w>
ligh ten</w>
impati ently</w>
emb ryo
au g
pneu monia</w>
judi ci
favor able</w>
cry stal
cau l
app alled</w>
thank ful</w>
tex tile</w>
te asing</w>
respir atory</w>
maril yn</w>
evacu ated</w>
bi kes</w>
be fore
authori se</w>
wy att</w>
suff ice</w>
libr arian</w>
g y-
do ctr
9 1/
0. 5</w>
ton ne</w>
multi- annual</w>
for ti
er nie</w>
dis belief</w>
d s
van ity</w>
te -
slee p
sher lock</w>
pop corn</w>
poi sed</w>
no de</w>
mini -
dre sser</w>
19 70</w>
win ced</w>
time- limit</w>
snit ch</w>
shutt le
ni ght-
man ure</w>
fulfi ls</w>
bloo died</w>
ali as</w>
after ward</w>
ta i</w>
swi m
spee ds</w>
pe p
hi pp
episo des</w>
emphasi ses</w>
can ni
ac tu
ver sa</w>
tle ssly</w>
swa yed</w>
s anti
re pul
pan ting</w>
no minated</w>
grand parents</w>
deci mal</w>
card assi
at m</w>
subordin ate</w>
me tro</w>
mar ath
inter n</w>
fon t</w>
char ts</w>
ab ed</w>
shri ll</w>
respe cting</w>
pa yer</w>
mi sty</w>
mexic ans</w>
melo dy</w>
identi ties</w>
beg in
be ak</w>
appropri ation</w>
weak ening</w>
tomat oes</w>
mer chants</w>
medi cs</w>
in puts</w>
hyper space</w>
di aly
comm u
co cked</w>
chee ses</w>
bra g</w>
ta vern</w>
supp lying</w>
scot tish</w>
popu larity</w>
par ish</w>
leng thy</w>
ha ste</w>
en do
ang ed</w>
3 50</w>
trea sures</w>
tali ban</w>
stre ak</w>
len ses</w>
d ye</w>
cul ating</w>
clic ked</w>
annu l</w>
anch ored</w>
ad mits</w>
tra m</w>
rac ial</w>
m t</w>
ferr ari</w>
f law</w>
st as</w>
re gained</w>
ra v
per secu
ka thy</w>
gru mpy</w>
dru m
dis su
carpen ter</w>
ban ka</w>
ap y</w>
and ers</w>
al legi
sme lly</w>
pleas antly</w>
mu ta
mo cking</w>
en i</w>
defici ency</w>
am mo</w>
wal l
squi re</w>
s wine</w>
manag es</w>
ban ker</w>
an na
200 2/
- general</w>
sole mn</w>
progre ssed</w>
ol in</w>
ghet to</w>
ela ine</w>
wee ds</w>
up dating</w>
sil enced</w>
scre ws</w>
read ings</w>
quar ry</w>
proto type</w>
p ins</w>
is hable</w>
clu tch</w>
ar ag
trave lers</w>
sna pping</w>
o' neill</w>
mech anic</w>
formul ated</w>
dri lling</w>
dra matically</w>
con du
' t</w>
wre tched</w>
proje ction</w>
pro li
mag in
integr ate</w>
hal e</w>
da k</w>
cap tivity</w>
assi sting</w>
N i</w>
wheel er</w>
relen tless</w>
pa ws</w>
ne arer</w>
imp lant</w>
fran co
d ac
c z</w>
1 15</w>
pe te
nu isance</w>
mo to</w>
ca ssi
swir ling</w>
rob inson</w>
ple dged</w>
gra dy</w>
enter taining</w>
bul ary</w>
black thorne</w>
appli ca
tre sses</w>
th ai</w>
spe lling</w>
sku lls</w>
peace fully</w>
fla sk</w>
defen ders</w>
cri tics</w>
catastro phe</w>
be aches</w>
w ler</w>
te ller</w>
fr an</w>
disap pointing</w>
wol fe</w>
ut most</w>
slo vak</w>
regu larity</w>
r ust</w>
[...]
