. 22197512
, 18692071
the 16281274
to 9659157
you 9262338
i 8275290
and 6825291
of 6674868
a 6549323
it 5229004
in 4787150
's 4530164
that 4037024
? 3909440
he 3633896
was 2944830
n't 2917574
is 2895528
be 2680040
for 2616605
... 2571198
we 2531214
do 2336579
have 2273807
on 2199710
with 1937525
me 1865490
this 1836876
but 1770416
not 1746163
they 1724559
`` 1623673
what 1592425
'' 1588073
your 1493423
as 1486855
my 1483287
if 1440716
'll 1374065
're 1340913
his 1327748
'm 1321226
she 1318008
know 1304360
are 1288174
so 1225462
him 1215339
at 1211861
will 1165227
all 1158803
there 1152467
did 1127698
out 1119631
by 1082686
her 1079490
from 1032659
had 1021272
! 1019264
when 963024
just 960853
like 956630
were 948994
no 930108
an 927361
can 917306
up 893709
one 890262
or 888868
get 881040
about 872829
- 811952
got 798734
would 786686
them 746556
been 746398
here 745175
said 734469
want 722301
who 714076
go 713865
has 693141
've 648039
think 642410
see 635241
now 635011
which 620366
could 612612
time 604493
how 603328
come 592687
-RRB- 590587
-LRB- 586845
us 586360
right 575313
going 549744
then 541220
na 518187
back 510125
their 508744
only 499604
' 490709
into 482763
let 480852
well 479748
more 472840
take 470067
gon 462301
should 446434
our 442317
where 440748
` 437835
tell 436775
because 434708
some 429793
something 409124
before 391779
say 390325
'd 385194
even 384865
why 378120
man 377858
other 376797
: 370510
any 368930
way 367235
never 364229
people 364153
does 356345
look 353468
down 351927
make 348830
over 336040
need 334691
good 333724
first 332089
two 330223
than 326382
these 311555
little 307362
after 305306
really 304339
find 293171
ca 292422
its 287272
too 281833
must 281047
still 278453
off 274062
thought 274014
told 268565
give 260861
those 260358
okay 260110
much 259846
new 257644
made 252743
put 252081
-- 249890
mean 247136
very 245500
sure 243130
may 242973
thing 242010
life 238074
years 236059
shall 233982
commission 229916
also 227749
last 225263
long 224604
day 223141
yeah 222214
done 220803
work 218497
such 218158
anything 217549
again 217248
found 215810
came 212283
wanted 211777
help 208529
call 204591
being 201853
; 201080
away 201012
around 198956
oh 198810
someone 197185
keep 196373
place 194297
through 192650
everything 192440
always 190985
maybe 190700
talk 186803
under 183612
used 182664
same 182171
use 182113
since 180973
left 179889
ever 179240
better 177503
things 177325
nothing 175891
own 173243
night 172893
member 170434
took 169743
case 168661
world 168262
love 167961
sorry 167709
every 163655
might 163213
without 162713
great 161397
three 161031
once 160846
another 160782
yes 160744
home 160150
article 158976
doing 158972
knew 157304
until 157260
while 156081
old 156054
most 154781
house 154593
called 151481
states 149830
guy 149772
many 147729
head 147631
wo 147470
money 147215
each 147151
1 146394
/ 145629
name 145370
enough 144793
mr. 144256
saw 143196
leave 142341
feel 142257
between 140349
stop 140251
taken 140222
went 139659
heard 139059
am 137799
kill 137589
lot 137557
show 137182
order 136012
father 135826
information 135379
asked 135246
seen 135180
looking 134117
next 131372
already 130698
end 130572
believe 130454
set 130086
face 129488
men 129024
part 128729
% 128247
both 127981
gone 127864
hand 127104
able 126103
happened 125479
trying 125274
remember 124768
room 124257
eyes 124206
ask 124017
together 123378
god 123092
care 122227
supposed 121773
hear 120527
today 120254
understand 120232
best 119648
try 118561
state 118140
else 117833
kind 117794
bad 117300
girl 117159
against 117133
hey 116550
few 116463
car 115044
please 114740
mind 113940
big 113839
dead 113445
woman 112967
year 112654
however 110615
anyone 110034
days 109995
point 109703
killed 109451
lost 108146
soon 107720
court 107692
says 107652
yet 107572
job 106659
fact 106147
whole 106063
means 105486
number 104922
guess 104910
himself 104503
2 103702
wait 103689
son 103549
possible 103392
looked 103141
course 102925
bring 102851
regulation 102539
mother 102445
body 102415
talking 102149
taking 101951
stay 101729
start 101509
decision 101210
family 100388
friend 99992
meet 99351
getting 99342
un@@ 99091
real 98915
least 98667
everyone 98456
european 98230
guys 98077
door 97784
different 97521
far 97176
second 97061
though 96892
probably 96779
coming 96411
system 96367
re@@ 95881
ta 95756
gave 95428
listen 95020
ago 94938
change 94512
-@@ 93869
behind 93487
open 93162
sir 92527
nice 92327
tried 91973
started 91879
water 91334
hard 90761
side 89962
eu 89698
given 89479
idea 89024
saying 88814
live 88530
uh 88519
boy 87988
hands 87898
die 86921
necessary 85924
hope 85887
times 85762
yourself 85295
market 85181
wants 84877
death 84863
turned 84236
happy 83705
measures 83338
thank 83126
light 82889
important 82716
run 82630
within 82395
question 82224
school 82163
moment 81786
friends 81643
morning 81628
law 81261
move 81224
fine 80974
working 80904
national 80809
cut 80693
actually 80669
wrong 80310
dad 80080
ship 79761
pay 79529
3 79205
data 78968
during 78883
later 78123
hours 77917
therefore 77912
mom 77477
play 77402
control 77224
wife 77176
minutes 77016
looks 76979
blood 76932
almost 76913
five 76792
baby 76559
power 76333
young 76285
felt 76169
'cause 75843
person 75771
city 75704
tomorrow 75563
turn 75441
public 74985
country 74889
heart 74697
high 74539
business 74363
whether 74173
directive 74143
alone 73966
hell 73917
matter 73812
according 73756
myself 73747
ready 73551
front 73011
fucking 72751
miss 72644
following 72213
line 72089
sent 72067
problem 71950
rest 71936
having 71932
general 71924
met 71791
seems 71719
small 71397
couple 71231
reason 71095
close 70958
less 70947
clear 70823
afraid 70701
read 70351
hurt 70030
four 69582
kids 69574
knows 69408
thinking 69128
bit 68689
whatever 68523
brought 68404
hit 68347
full 68340
shot 68167
community 67807
months 67680
area 67509
o 67460
seemed 66988
report 66987
office 66761
comes 66551
company 66480
fire 66457
gets 66455
pretty 66291
police 66249
air 65896
phone 65294
10 65231
half 65195
true 65145
c 64869
human 64721
making 64498
tonight 64411
doctor 64389
period 64387
war 64383
week 64367
become 64362
level 64112
security 64055
shit 64051
chance 64025
concerned 64001
e@@ 63969
happen 63953
rules 63876
k@@ 63691
fight 63148
party 62973
died 62673
certain 62633
plan 62631
brother 62491
black 62377
support 62203
women 62111
needed 62062
b 61913
particular 61832
deal 61580
inside 61503
voice 61195
sleep 61176
watch 61085
makes 60958
others 60864
either 60637
above 60457
word 60386
using 60367
eat 60302
free 60118
needs 60047
account 59992
o@@ 59735
known 59621
check 59550
send 59479
king 59438
4 59412
de@@ 59401
present 59338
decided 59233
waiting 59195
in@@ 59155
exactly 58962
financial 58820
caught 58695
s 58623
crazy 58424
5 58054
white 58008
children 57883
hold 57870
finally 57348
married 57294
authorities 56745
a@@ 56493
food 56461
group 56306
application 56153
held 56067
aid 56064
union 56012
sometimes 55820
late 55809
council 55759
quite 55737
based 55712
shut 55541
provided 55463
further 55422
truth 55310
goes 54792
s@@ 54749
six 54238
began 54147
answer 54122
return 53994
running 53921
government 53920
game 53906
words 53733
service 53652
captain 53576
risk 53327
gun 53282
bed 53221
provide 53214
table 53171
several 53093
services 52950
action 52912
telling 52884
appropriate 52858
drink 52610
across 52539
break 52423
ground 52363
view 52073
stopped 51847
kept 51782
conditions 51699
situation 51590
dark 51571
minute 51476
respect 51474
trust 51435
longer 51397
save 51256
procedure 51222
worry 51124
paid 51115
feet 51045
changed 51041
date 50985
easy 50930
ec 50711
past 50633
basis 50592
walk 50530
moved 50465
along 50447
hour 50413
ensure 50399
beautiful 50375
land 50373
t@@ 50281
-LSB- 50273
evidence 50251
wan 50102
-RSB- 50029
third 49783
story 49680
20 49677
town 49672
future 49650
forget 49630
fuck 49527
specific 49514
special 49495
required 49411
d@@ 49354
child 49320
involved 49112
list 48929
fell 48903
legal 48882
main 48480
$ 48345
red 48273
form 48174
safe 48169
million 48127
act 48038
alive 47963
eye 47739
costs 47639
sit 47606
countries 47351
p@@ 47206
products 47200
lose 47127
stand 46895
carried 46801
outside 46687
lives 46681
wish 46673
cases 46649
available 46638
hair 46610
referred 46608
force 46572
paragraph 46501
ran 46447
husband 46442
?! 46396
buy 46330
kid 46274
mine 46174
book 46107
daughter 46022
fall 45814
ass 45710
meant 45632
allowed 45618
team 45465
weeks 45335
l 45293
considered 45129
earth 44905
n@@ 44859
figure 44732
position 44652
pick 44635
lead 44474
large 44429
6 44395
speak 44319
takes 44243
i@@ 44225
test 44162
field 44159
ten 44091
girls 44063
agreement 43996
sense 43991
catch 43944
fun 43898
um 43892
economic 43832
treatment 43711
e 43678
applicant 43435
amount 43399
ok 43395
led 43388
ma@@ 43369
dr. 43364
er 43337
entire 43290
accordance 43283
questions 43085
perhaps 43060
anyway 43005
policy 42839
mouth 42804
t 42803
single 42565
rather 42418
building 42338
en@@ 42331
board 42178
ai 42165
energy 42148
secret 42096
activities 42015
al@@ 41936
d 41936
sound 41761
worried 41756
upon 41740
huh 41723
product 41591
la@@ 41576
covered 41559
worked 41557
subject 41542
development 41517
interest 41249
street 41191
living 41175
cold 41128
meeting 41074
leaving 41010
lady 40975
parents 40800
somewhere 40768
relevant 40722
value 40652
g@@ 40613
access 40578
mo@@ 40517
addition 40463
quickly 40450
protection 40434
wall 40401
thanks 40374
completely 40323
stood 40295
stuff 40260
including 40247
trouble 40230
apply 40221
among 40125
ro@@ 40123
30 40120
president 40046
shoot 39928
trade 39798
often 39732
moving 39634
attack 39628
scared 39618
k 39536
strong 39526
dinner 39520
z@@ 39469
m 39289
seem 39239
instead 39231
bank 39177
lord 39157
suddenly 39149
price 39071
key 39066
road 38994
jack 38981
sister 38960
we'il 38956
problems 38925
parties 38854
le@@ 38728
write 38690
annex 38671
sign 38624
di@@ 38553
murder 38551
patients 38441
b@@ 38366
somebody 38282
top 38267
forward 38260
itself 38220
production 38146
increase 38081
established 38034
explain 37954
dog 37919
glad 37892
15 37867
ar@@ 37732
u@@ 37722
co@@ 37579
common 37549
g 37397
carry 37284
ra@@ 37281
age 37219
born 37199
broken 37152
learn 37140
process 37051
news 37042
lo@@ 37024
follow 36998
ti@@ 36942
floor 36906
protect 36833
expected 36808
de 36793
committee 36784
sitting 36715
space 36699
boys 36677
closed 36597
provisions 36588
7 36556
12 36515
li@@ 36511
yours 36475
y@@ 36466
happens 36449
c@@ 36439
stupid 36418
se@@ 36331
i. 36279
whose 36266
effect 36251
fear 36220
immediately 36140
implementation 36126
rights 36040
result 36025
serious 36013
promise 35880
pain 35853
damn 35850
me@@ 35832
difficult 35806
continue 35736
hospital 35730
l@@ 35722
clean 35711
cover 35684
normal 35677
mrs. 35614
unless 35602
hot 35560
win 35554
authority 35536
although 35516
non-@@ 35457
sick 35325
attention 35318
short 35269
purpose 35258
themselves 35245
social 35243
bet 35197
playing 35179
local 35110
programme 35098
u 35092
ha@@ 35078
passed 35060
drive 35058
ca@@ 35057
touch 34950
miles 34929
m@@ 34913
management 34892
to@@ 34884
excuse 34874
worse 34771
sa@@ 34650
honor 34612
ate 34600
thus 34522
nobody 34480
mr 34474
private 34474
assessment 34458
contact 34445
message 34422
project 34382
share 34360
except 34353
lie 34218
master 34141
requirements 34062
john 34019
mark 33918
be@@ 33849
spent 33785
broke 33684
personal 33669
do@@ 33665
f@@ 33646
feeling 33593
especially 33580
likely 33559
pull 33499
2@@ 33489
experience 33401
nature 33354
finished 33336
reached 33324
asking 33258
8 33251
file 33212
si@@ 33205
worth 33204
example 33191
learned 33145
window 32985
none 32955
surprised 32942
results 32918
low 32887
sort 32883
anymore 32860
n 32857
issue 32854
step 32766
sun 32707
box 32656
agreed 32623
computer 32616
tax 32610
expect 32605
deep 32594
v@@ 32575
sea 32562
europe 32537
opened 32516
reasons 32510
type 32406
terrible 32385
cause 32350
members 32333
early 32308
x 32262
investigation 32260
ri@@ 32161
reach 32142
interested 32125
sex 32110
month 32109
applied 32069
mi@@ 32063
international 32031
ed 31959
continued 31936
written 31910
dream 31903
thinks 31816
opinion 31813
brain 31744
below 31697
sky 31687
ted 31654
raised 31623
allow 31486
holding 31464
seeing 31419
research 31382
loved 31355
due 31324
final 31300
p 31218
standing 31210
giving 31159
hundred 31112
poor 31087
v 31083
competition 31073
throw 31039
lived 31006
h@@ 30948
added 30945
followed 30892
ones 30862
missing 30807
9 30774
imagine 30733
received 30693
skin 30623
changes 30615
bo@@ 30569
current 30560
charge 30557
picture 30544
escape 30520
address 30515
herself 30511
piece 30452
works 30358
3@@ 30342
ta@@ 30332
pass 30320
create 30320
event 30274
cost 30269
fast 30255
offer 30232
nearly 30217
study 30155
health 29974
wonder 29971
choice 29915
operation 29908
history 29872
adopted 29779
bitch 29771
systems 29760
consider 29753
paper 29721
limited 29707
officer 29698
army 29642
training 29640
pe@@ 29548
50 29542
green 29495
an@@ 29495
blue 29469
total 29433
section 29420
notice 29413
failed 29412
realized 29404
te@@ 29330
ahead 29327
spend 29322
contract 29294
sell 29225
destroy 29147
terms 29146
became 29134
lay 29116
stone 29079
hate 29061
f 29042
watching 29000
complete 28990
es 28970
doubt 28947
weird 28946
beginning 28896
filled 28892
middle 28887
saved 28884
everybody 28810
y 28797
related 28795
dear 28770
talked 28744
showed 28728
letter 28725
station 28715
strange 28702
directly 28692
areas 28691
go@@ 28640
clearly 28621
prepared 28560
fully 28544
nor 28517
calling 28456
laid 28430
ers 28398
tired 28387
certainly 28377
lucky 28368
beat 28336
watched 28298
higher 28293
straight 28226
rate 28165
record 28121
american 28088
bodies 28077
lying 28068
returned 28027
en 27981
remain 27969
perfect 27945
sat 27901
plane 27879
request 27875
staff 27858
circumstances 27847
funny 27813
handle 27711
r 27676
companies 27589
ho@@ 27499
wind 27466
suppose 27365
upset 27356
you'il 27352
harry 27328
points 27265
planet 27230
huge 27223
major 27211
no@@ 27178
impact 27171
agent 27158
le 27128
crime 27085
er@@ 27068
mar@@ 27035
machine 27030
created 27020
ne@@ 26993
al 26971
boss 26945
so@@ 26945
reference 26885
r@@ 26877
significant 26877
bar 26825
sounds 26822
framework 26816
music 26800
principle 26771
visit 26743
orders 26737
united 26714
near 26712
over@@ 26711
rid 26677
arms 26633
usually 26633
clothes 26573
he@@ 26545
decide 26544
animals 26518
slowly 26505
ring 26503
walked 26499
responsible 26469
dangerous 26466
fish 26432
11 26421
relationship 26399
prison 26380
class 26365
choose 26358
proposal 26287
wedding 26250
toward 26247
legislation 26158
seven 26131
duty 26125
po@@ 26070
built 26045
prove 26040
sector 26024
eight 26019
pulled 25924
proceedings 25867
horse 25821
military 25787
accept 25738
ing 25733
agree 25730
fired 25704
j@@ 25681
context 25673
approach 25665
locked 25644
killing 25635
cooperation 25627
york 25622
rule 25582
quiet 25540
yesterday 25529
safety 25519
otherwise 25513
wearing 25478
magic 25469
granted 25462
du@@ 25437
or@@ 25412
ts 25402
mistake 25360
* 25354
killer 25299
bear 25279
figured 25269
till 25267
north 25256
industry 25218
noticed 25213
helped 25211
equipment 25173
promised 25150
pro@@ 25146
fix 25125
memory 25106
code 25102
procedures 25100
dropped 25086
finish 25081
coffee 25062
hotel 25056
transport 25008
resources 24998
ting 24952
documents 24941
claim 24933
individual 24916
natural 24901
named 24894
entered 24858
spoke 24836
neck 24795
guard 24767
similar 24757
effective 24741
amazing 24729
effects 24701
train 24689
realize 24658
animal 24654
note 24651
simply 24625
join 24622
/@@ 24553
quality 24549
places 24523
sing 24505
wondering 24462
stuck 24452
knowledge 24403
rock 24401
ride 24377
south 24368
bought 24355
measure 24328
goods 24324
caused 24266
concerning 24260
parts 24253
pressure 24235
thousand 24231
picked 24227
per 24219
justice 24201
gas 24182
ac@@ 24112
ru@@ 24110
river 24107
forever 24103
z 24076
gold 24047
star 24025
ways 23982
ice 23953
avoid 23879
car@@ 23869
battle 23830
boat 23823
ordered 23818
provides 23724
fault 23721
4@@ 23718
regard 23714
# 23713
wrote 23712
bag 23692
fly 23663
peace 23645
glass 23626
smile 23619
french 23599
plans 23588
writing 23586
blow 23578
destroyed 23567
hang 23558
mentioned 23549
fi@@ 23535
100 23473
con@@ 23441
cool 23433
seconds 23422
calls 23413
credit 23400
weapons 23328
grow 23308
card 23306
arm 23294
waste 23284
begin 23278
apartment 23276
st 23273
man@@ 23223
additional 23212
size 23162
gotten 23159
speed 23147
hide 23146
rich 23121
condition 23100
beyond 23100
admit 23082
regards 23077
technical 23073
round 23057
stage 23049
role 23041
target 23030
simple 23027
analysis 23027
america 23023
missed 23006
il 23003
practice 22984
wear 22981
ke@@ 22946
'em 22937
base 22896
ous 22876
lower 22843
enemy 22826
da 22824
island 22810
drop 22803
starting 22748
political 22741
opportunity 22723
played 22720
dance 22690
besides 22635
wake 22624
interesting 22617
increased 22603
hole 22600
submitted 22563
at@@ 22548
build 22544
on@@ 22523
capital 22506
ge@@ 22453
soul 22435
contested 22429
reports 22429
search 22421
ab@@ 22349
lu@@ 22339
cop 22333
reported 22332
stick 22324
prevent 22315
projects 22309
su@@ 22307
supply 22280
designed 22270
follows 22258
hello 22235
statement 22230
movie 22223
ball 22215
judgment 22153
14 22152
command 22144
pa@@ 22113
actions 22102
release 22099
official 22084
fair 22082
headed 22082
25 22075
disappeared 22058
west 22049
surprise 22006
provision 22005
calm 21986
aware 21950
x@@ 21942
sword 21940
bu@@ 21871
appeal 21858
angry 21845
13 21840
meaning 21823
twice 21810
danger 21788
growth 21767
judge 21752
accident 21737
uncle 21734
offered 21727
damage 21704
existing 21686
competent 21677
mission 21666
weight 21659
scope 21658
obviously 21650
managed 21644
empty 21635
ms 21634
careful 21550
se 21545
driving 21543
determined 21532
press 21529
cops 21504
ah 21497
original 21479
evil 21478
network 21471
believed 21440
ma 21437
forgot 21431
victim 21431
busy 21428
ba@@ 21427
activity 21405
patient 21388
dose 21387
t-@@ 21383
honest 21380
2006 21373
evening 21372
objectives 21371
church 21350
mad 21336
released 21332
claims 21321
foot 21314
bi@@ 21304
hu@@ 21301
chair 21246
partner 21237
internal 21225
levels 21224
society 21208
fool 21200
potential 21200
possibility 21187
checked 21167
dress 21138
nose 21131
pre@@ 21100
review 21100
unit 21075
liked 21072
gi@@ 21056
treated 21033
crew 21023
sold 21007
heavy 21000
included 20979
quick 20977
vi@@ 20930
count 20925
honey 20921
hidden 20886
understood 20885
5@@ 20881
prices 20846
40 20807
flight 20792
sam 20790
won 20789
ya 20783
names 20769
intended 20767
persons 20736
proposed 20727
na@@ 20722
connection 20719
funds 20674
19@@ 20662
it@@ 20648
cell 20610
progress 20604
direct 20593
th@@ 20583
investment 20545
teeth 20543
material 20536
shown 20512
turns 20508
direction 20502
property 20490
swear 20488
rose 20483
include 20448
w@@ 20447
fighting 20447
2004 20444
tu@@ 20442
la 20429
shows 20407
ability 20406
device 20395
finding 20387
seat 20371
apart 20352
18 20351
strength 20349
path 20346
24 20337
decisions 20334
2008 20331
breath 20318
lunch 20313
books 20301
gentlemen 20299
focus 20293
16 20290
program 20282
administrative 20278
source 20258
lock 20256
planned 20209
fingers 20205
tree 20203
basic 20199
forced 20197
medical 20184
closer 20173
chief 20148
queen 20145
easily 20137
eventually 20136
dressed 20127
burn 20115
sh@@ 20109
ships 20108
budget 20104
ated 20072
range 20052
eur 20047
likes 20035
walls 20010
term 20000
tv 19993
fixed 19972
teach 19956
te 19930
defined 19923
specified 19865
7@@ 19860
threw 19842
2009 19839
exchange 19817
ch@@ 19816
surface 19788
loss 19785
anybody 19782
replied 19760
document 19754
luck 19751
hearing 19734
smell 19731
fat 19727
6@@ 19721
impossible 19716
club 19668
ko@@ 19647
ve@@ 19632
central 19628
smart 19613
ans 19608
ii 19578
greater 19576
drunk 19567
previous 19561
performance 19552
developed 19515
song 19512
hoping 19476
answered 19473
environment 19457
wood 19452
scene 19450
ga@@ 19431
mor@@ 19424
confirmed 19382
2005 19348
earlier 19346
wine 19341
communication 19324
van 19296
corner 19259
listening 19248
spread 19247
difference 19247
ton 19231
parliament 19226
sufficient 19217
| 19181
add 19181
agency 19180
east 19171
applicable 19150
heading 19116
taught 19098
recently 19081
per@@ 19047
records 19045
transfer 19041
h 19035
dying 19033
payment 19031
putting 19028
neither 19006
whoever 19005
heads 18997
trees 18975
afternoon 18952
indeed 18933
race 18932
various 18929
advantage 18928
drugs 18928
lawyer 18899
radio 18887
whom 18863
disease 18859
gate 18858
.@@ 18822
marry 18811
knowing 18809
pointed 18808
ating 18804
seriously 18799
bar@@ 18787
waited 18786
determine 18779
michael 18777
2007 18773
welcome 18764
programmes 18759
summer 18750
invited 18738
explained 18734
ly 18732
workers 18724
mu@@ 18710
draw 18707
distance 18706
park 18693
joe 18689
ladies 18679
sudden 18670
marriage 18627
meat 18627
solution 18616
re-@@ 18587
assume 18578
worst 18567
criteria 18551
selected 18536
appeared 18536
active 18512
walking 18510
pi@@ 18506
gu@@ 18504
ad@@ 18482
par@@ 18467
cross 18459
trip 18454
ni@@ 18447
suit 18438
willing 18436
jo@@ 18430
issues 18423
joint 18421
peter 18414
standard 18403
numbers 18400
store 18399
capacity 18393
bridge 18369
department 18349
cat 18345
raise 18345
somehow 18340
german 18332
sight 18329
moreover 18300
ki@@ 18272
growing 18271
shoulder 18269
proud 18266
method 18264
st@@ 18253
forgotten 18252
steps 18247
presence 18246
flying 18220
keeping 18220
tells 18219
kiss 18207
sleeping 18200
george 18192
ce@@ 18191
enter 18172
der 18163
travel 18160
kitchen 18126
events 18123
mention 18119
opening 18078
camp 18078
appear 18062
bottom 18042
option 18041
towards 18029
language 18029
2010 18021
maximum 18018
require 18009
smoke 18000
germany 17982
tri@@ 17976
fit 17973
17 17969
survive 17964
associated 17959
legs 17950
fucked 17936
guarantee 17936
kingdom 17928
carrying 17928
text 17921
commander 17911
burned 17887
oil 17878
serve 17874
listed 17866
hurry 17861
easier 17859
matters 17853
laugh 17850
groups 17848
advice 17836
feed 17827
limit 17823
despite 17820
slow 17810
chest 17780
nine 17765
republic 17742
dis@@ 17736
strategy 17730
turning 17720
relating 17698
as@@ 17692
compared 17689
arrest 17685
jump 17674
bill 17673
concluded 17663
art 17632
technology 17622
planning 17610
gives 17609
observed 17607
cash 17593
balance 17584
drawn 17557
paul 17555
convinced 17547
anywhere 17541
appreciate 17537
film 17525
center 17511
el@@ 17509
barely 17506
jail 17485
christmas 17485
da@@ 17481
pictures 17470
effort 17466
foreign 17439
removed 17439
setting 17421
bunch 17396
ended 17395
driver 17390
responsibility 17375
tough 17372
vehicle 17366
definitely 17355
shop 17349
error 17346
d-@@ 17346
tom 17340
heat 17329
studies 17326
david 17309
insurance 17308
purposes 17307
hiding 17288
arrived 17273
improve 17267
reduced 17267
ka 17257
excited 17256
speaking 17252
cars 17235
windows 17224
spirit 17205
ben 17193
leg 17192
approved 17185
stole 17133
lines 17131
identified 17124
signed 17119
carefully 17115
darkness 17114
equal 17107
scheme 17091
ates 17078
forgive 17076
charlie 17064
benefits 17049
edge 17046
moon 17033
ine 17022
steal 17020
leaves 17013
mer@@ 17003
benefit 17003
video 16981
wild 16980
00 16973
objective 16972
details 16937
ka@@ 16933
cry 16928
employment 16898
bus 16882
feelings 16870
older 16856
english 16855
happening 16854
beer 16835
y-@@ 16827
th 16822
kidding 16789
ds 16785
college 16785
har@@ 16780
8@@ 16779
plenty 16764
freedom 16762
remembered 16750
site 16748
frank 16736
knife 16720
undertaking 16701
pieces 16692
2012 16681
citizens 16677
expression 16669
content 16668
drug 16660
education 16654
cor@@ 16653
reading 16634
lights 16624
issued 16610
affected 16609
remains 16609
series 16607
attacked 16601
daddy 16576
blame 16548
institutions 16538
guns 16535
monitoring 16494
throat 16487
track 16467
receive 16461
helping 16444
movement 16433
economy 16426
enjoy 16417
ter 16417
fe@@ 16406
sed 16403
mike 16399
fishing 16387
dreams 16387
ver@@ 16385
achieve 16377
response 16369
instance 16368
task 16319
2011 16316
ter@@ 16308
grew 16302
mess 16281
dry 16277
weapon 16267
ag@@ 16258
model 16254
apparently 16235
conversation 16234
separate 16230
ch 16228
dirty 16226
france 16226
standards 16219
suggest 16206
soldiers 16178
positive 16164
described 16157
mc@@ 16155
humans 16146
demand 16144
tests 16138
criminal 16135
wi@@ 16135
sub@@ 16134
a. 16122
page 16107
sad 16107
universe 16106
exist 16105
nervous 16080
truck 16079
considers 16075
cu@@ 16074
informed 16057
connected 16056
pu@@ 16052
s-@@ 16042
bound 16040
jesus 16026
powerful 16010
trial 15999
dick 15993
james 15972
eating 15964
bomb 15947
ant 15935
global 15933
shoes 15928
discovered 15917
placed 15895
particularly 15895
crisis 15893
bigger 15893
regional 15885
for@@ 15882
silence 15878
territory 15876
minimum 15872
grab 15866
operations 15857
prince 15851
shooting 15831
argument 15826
warm 15813
chinese 15810
achieved 15809
touched 15801
thoughts 15794
sweet 15785
birthday 15781
obligations 15768
acting 15763
wide 15762
protected 15753
id 15746
camera 15722
wonderful 15722
sp@@ 15715
existence 15709
e-@@ 15709
airport 15705
ourselves 15700
match 15691
signal 15689
arrested 15688
stars 15685
village 15682
we@@ 15680
currently 15667
lack 15659
sending 15645
files 15642
pack 15641
administration 15627
object 15613
interests 15604
markets 15600
london 15598
self-@@ 15597
facts 15594
biggest 15593
idiot 15584
reduce 15584
starts 15584
recognize 15570
regular 15568
pleasure 15559
internet 15552
risks 15547
obligation 15545
suspect 15544
replaced 15543
2003 15523
hi@@ 15519
average 15516
fresh 15516
forces 15513
evaluation 15509
colonel 15489
grown 15481
don 15445
favor 15443
lieutenant 15429
je@@ 15423
mass 15408
shape 15391
feels 15373
kick 15372
struck 15370
entry 15359
grant 15351
hi 15351
requires 15321
hall 15311
paying 15279
dude 15269
entitled 15238
committed 15233
treaty 15220
essential 15219
served 15216
assistance 15208
stolen 15203
mountain 15194
fought 15192
el 15188
extra 15175
march 15175
client 15165
treat 15148
under@@ 15132
copy 15129
gift 15126
leader 15124
overall 15115
recent 15109
stayed 15107
requested 15092
losing 15088
completed 15068
ber@@ 15053
furthermore 15041
wondered 15040
quietly 15038
environmental 15017
girlfriend 15000
double 14998
taste 14969
w 14946
prepare 14946
chi@@ 14942
storm 14921
lips 14918
capable 14918
ling 14912
civil 14910
accepted 14906
milk 14903
stories 14899
lies 14898
assets 14880
character 14879
chapter 14877
9@@ 14876
2013 14864
desk 14861
proper 14857
drove 14840
everywhere 14826
professor 14795
notes 14775
supported 14755
conclusion 14744
sides 14742
noted 14740
status 14739
totally 14738
correct 14731
ss 14729
species 14718
commercial 14692
absolutely 14688
leading 14686
efforts 14676
powers 14657
reduction 14629
spot 14609
december 14607
ja@@ 14604
failure 14603
annual 14593
stepped 14591
customs 14579
applications 14575
physical 14570
finds 14565
ci@@ 14550
perfectly 14532
innocent 14518
stated 14517
eesc 14513
fallen 14492
pushed 14492
19 14482
beneath 14480
sha@@ 14462
mon@@ 14460
i-i 14455
introduce 14448
undertakings 14448
weak 14448
buddy 14446
rise 14442
chosen 14423
21 14422
staying 14401
obtained 14399
rain 14397
buried 14392
re 14386
medicine 14384
emergency 14365
guards 14364
obvious 14363
debt 14338
china 14337
thousands 14337
jobs 14329
bathroom 14327
woods 14320
challenge 14315
instruments 14308
useful 14294
noise 14293
former 14292
mary 14277
split 14268
half-@@ 14266
remove 14259
usual 14251
the@@ 14243
les 14232
acts 14226
sees 14220
richard 14203
principles 14202
henry 14195
twenty 14186
witness 14180
professional 14175
ears 14166
victims 14154
sale 14144
produced 14144
negative 14143
asleep 14133
color 14123
affect 14116
grand 14111
normally 14109
implemented 14090
plus 14079
examine 14065
dogs 14060
tie 14053
teacher 14048
highly 14044
properly 14042
cup 14040
confused 14034
structure 14029
ste@@ 14020
forest 14018
cha@@ 14017
fund 14002
joke 14000
onto 13997
0@@ 13986
hanging 13967
bright 13957
skills 13956
tight 13937
banks 13935
remained 13922
stomach 13915
proof 13884
warning 13879
slept 13878
~ 13861
types 13849
discuss 13844
plant 13839
out@@ 13836
link 13830
crying 13829
ur@@ 13825
shame 13821
31 13820
values 13818
unfortunately 13818
detective 13814
successful 13813
tape 13808
appears 13807
authorisation 13781
murdered 13772
bother 13769
beside 13755
traffic 13753
producers 13752
castle 13744
relation 13737
brown 13732
mal@@ 13730
band 13717
version 13716
ideas 13708
hill 13707
anger 13702
director 13693
minister 13693
bastard 13687
brothers 13679
articles 13673
silent 13670
contained 13662
sa 13662
contain 13662
breakfast 13653
lab 13650
location 13645
payments 13634
firm 13627
balls 13626
paris 13625
ar 13621
finger 13620
bottle 13618
ation 13609
drew 13600
surely 13598
can@@ 13594
convince 13585
bringing 13581
image 13578
career 13572
agents 13562
22 13552
june 13552
faster 13551
net 13527
contracts 13521
implementing 13507
television 13489
infringement 13469
exercise 13464
policies 13455
beach 13452
metal 13446
certificate 13442
ancient 13432
mate 13421
population 13419
function 13415
hungry 13415
weekend 13414
slightly 13414
inform 13412
sh 13394
contrary 13390
post 13385
ze 13384
interview 13382
shadow 13381
letters 13377
concern 13364
pants 13356
men@@ 13341
threat 13336
fa@@ 13328
pregnant 13312
settled 13290
guilty 13283
elements 13278
attached 13276
trained 13271
success 13254
max 13252
strike 13245
her@@ 13238
ley 13232
seek 13227
engine 13226
streets 13224
mountains 13209
examination 13207
cal@@ 13205
merely 13202
bra@@ 13199
tea 13197
accounts 13193
sts 13182
expenditure 13180
pocket 13175
23 13173
dust 13171
0 13162
ps 13161
drinking 13159
attempt 13159
officers 13151
defense 13147
whenever 13146
hired 13143
ons 13139
unable 13125
tall 13120
snow 13114
fate 13104
push 13096
science 13094
als 13094
block 13082
ks 13075
pilot 13074
60 13073
armed 13072
famous 13064
forms 13062
regarding 13053
doors 13053
manager 13040
hung 13040
charges 13040
amended 13040
cast 13023
1@@ 13019
extent 13018
introduced 13017
compliance 13004
allows 12992
vote 12986
fill 12985
dollars 12984
sal@@ 12983
sergeant 12974
contains 12966
faith 12954
region 12950
ad 12943
map 12935
stared 12913
pool 12907
falls 12905
century 12895
faces 12892
recovery 12862
throughout 12854
adoption 12850
approval 12839
keeps 12833
complex 12827
quit 12821
ties 12819
recommended 12818
papers 12817
horses 12815
mrs 12807
ends 12801
border 12790
ju@@ 12780
silver 12779
checks 12779
agreements 12765
gar@@ 12762
mental 12760
gods 12759
aim 12757
tra@@ 12751
dies 12744
pretend 12741
zed 12700
scientific 12681
bird 12680
stock 12671
absence 12656
students 12653
gra@@ 12652
os 12652
blind 12651
restaurant 12645
circle 12640
ded 12626
russian 12625
troops 12622
hat 12620
performed 12620
joined 12613
enable 12589
external 12589
000 12588
volume 12569
keys 12569
hardly 12568
assess 12561
roof 12555
mostly 12549
ding 12548
tiny 12541
uniform 12534
breaking 12528
ic@@ 12528
sake 12525
2001 12525
package 12511
customers 12510
fuel 12509
prior 12508
greatest 12502
port 12491
processing 12488
ex@@ 12487
lied 12483
shirt 12470
che@@ 12469
showing 12467
screen 12463
establish 12448
tower 12434
cells 12429
applicants 12426
vo@@ 12422
personally 12402
hero 12402
min@@ 12383
published 12383
options 12376
accordingly 12370
sales 12366
detailed 12365
linked 12363
advance 12338
importance 12324
op@@ 12320
birth 12317
lake 12313
sharp 12311
iron 12295
indicate 12294
reality 12285
deserve 12284
thin 12284
boyfriend 12278
intelligence 12268
tied 12267
speech 12260
concerns 12257
delivered 12253
design 12248
guidelines 12227
games 12226
actual 12223
billion 12222
aside 12217
presented 12212
den@@ 12203
falling 12163
focused 12160
remind 12156
staring 12136
rescue 12131
ours 12120
ir@@ 12114
occurred 12096
dare 12091
di 12080
selling 12080
influence 12079
addressed 12079
2002 12078
users 12068
winter 12068
methods 12066
complicated 12065
recorded 12044
crowd 12038
majesty 12028
indicated 12022
entirely 12002
theory 11996
operating 11986
ss@@ 11975
identify 11974
marks 11968
ys 11965
kicked 11961
adopt 11957
res 11953
financing 11948
maintain 11942
july 11934
butt 11926
pleased 11919
january 11918
apologize 11915
partners 11915
ren@@ 11910
registered 11905
2000 11903
soft 11902
definition 11897
recital 11889
gs 11881
inter@@ 11881
cards 11865
examined 11864
comfortable 11862
qu@@ 11859
sooner 11859
& 11859
defend 11857
monster 11853
substance 11848
tears 11841
proposals 11839
sentence 11838
smiled 11832
gay 11832
bri@@ 11828
understanding 11827
employees 11823
consumers 11807
belong 11806
controlled 11800
ster 11799
rates 11797
bones 11795
naked 11790
signs 11788
limits 11786
select 11783
pissed 11780
manner 11758
centre 11750
chose 11745
ls 11741
steel 11740
wave 11733
jim 11727
operational 11719
27 11715
initial 11714
ph@@ 11713
dozen 11710
jimmy 11699
journey 11697
familiar 11694
loves 11694
ne 11692
is@@ 11689
smaller 11686
instrument 11668
spoken 11667
ke 11666
ge 11665
sample 11660
changing 11640
yellow 11639
wash 11635
controls 11634
creature 11631
dragon 11625
media 11624
letting 11622
origin 11615
wa@@ 11611
heaven 11608
invite 11607
crossed 11607
located 11604
nick 11596
chamber 11591
whispered 11589
notified 11584
vision 11581
experienced 11577
chain 11574
click 11574
produce 11565
user 11564
characteristics 11563
selection 11556
materials 11552
bullet 11550
vehicles 11548
enemies 11538
ou@@ 11525
nuclear 11515
ll@@ 11512
ness 11496
solve 11489
consideration 11480
28 11476
a-@@ 11466
fed 11464
owner 11458
consequences 11444
stairs 11440
develop 11439
lately 11436
knees 11433
generally 11422
gh@@ 11421
instructions 11411
sand 11403
va@@ 11389
considering 11379
ters 11373
memories 11367
holy 11363
hoped 11355
cute 11347
doctors 11336
fourth 11330
collection 11315
units 11313
extended 11312
val@@ 11310
fu@@ 11308
italian 11307
nowhere 11301
wound 11297
exposed 11292
bone 11284
deliver 11282
aunt 11275
pri@@ 11274
disappear 11273
secure 11256
tongue 11247
_ 11246
items 11244
reporting 11242
tions 11237
spring 11237
suffered 11229
sta@@ 11218
18@@ 11213
thick 11210
rejected 11210
soldier 11197
burning 11195
drawing 11191
garden 11190
paragraphs 11176
screaming 11175
independent 11170
shed 11168
replace 11167
lift 11148
cook 11145
sto@@ 11144
flowers 11130
via 11129
tin 11112
recognized 11110
assumed 11107
interpretation 11101
jumped 11093
university 11090
beauty 11088
giant 11086
sc@@ 11085
button 11073
birds 11057
testing 11055
weather 11055
ll 11054
bal@@ 11049
ally 11045
server 11030
wow 11027
ear 11025
laws 11023
organisations 11011
flew 11007
shock 11007
farm 11003
il@@ 10998
degree 10992
fail 10988
temperature 10986
fo@@ 10980
comply 10978
claimed 10977
april 10966
mm 10964
machines 10958
wherever 10958
federal 10922
ten@@ 10919
export 10912
sought 10911
submit 10910
square 10907
yo@@ 10893
owe 10890
com@@ 10886
moments 10883
construction 10877
daily 10876
woke 10860
funding 10834
meetings 10834
burden 10823
imports 10815
devil 10812
settle 10806
operators 10806
amounts 10798
length 10797
ruined 10792
healthy 10790
90 10789
duties 10786
cancer 10781
consumer 10768
realise 10765
sources 10765
pre-@@ 10736
pair 10735
gen@@ 10731
transferred 10716
ron 10713
rising 10712
announced 10709
danny 10709
loud 10708
mg 10700
virus 10696
ger 10681
ford 10679
significantly 10673
income 10670
regarded 10669
highest 10662
grace 10658
joy 10657
san 10651
ugly 10644
possibly 10624
mainly 10624
flow 10623
au@@ 10618
ler 10617
sarah 10613
trapped 10612
arguments 10605
institution 10600
permission 10599
photo 10599
refused 10596
convention 10596
grounds 10591
suffering 10589
shoulders 10585
shook 10585
marketing 10551
october 10548
cousin 10547
ev@@ 10542
pal@@ 10539
cia 10534
dealing 10531
singing 10528
justified 10526
hundreds 10526
description 10522
bloody 10508
up@@ 10500
september 10483
mixed 10467
broad 10462
ff 10462
thrown 10456
roll 10452
dating 10452
bob 10448
mama 10448
phase 10444
ra 10436
sugar 10435
contribution 10434
providing 10416
hunt 10416
ms. 10408
saving 10402
combination 10399
coat 10387
opposite 10381
reasonable 10378
ryan 10372
far@@ 10371
wet 10365
long-term 10362
ray 10362
rooms 10361
style 10354
families 10351
creation 10349
upstairs 10342
trick 10342
preliminary 10334
expert 10324
sheriff 10322
illegal 10322
200 10310
authorised 10307
answers 10304
lin@@ 10293
pen@@ 10293
ce 10283
british 10283
es@@ 10278
houses 10274
yard 10274
ocean 10273
england 10270
sk@@ 10268
bite 10257
princess 10257
learning 10256
occur 10254
ard 10254
concept 10253
va 10248
unknown 10244
breathing 10243
ma'am 10233
ty 10231
declared 10228
mb@@ 10228
smith 10219
protocol 10217
aimed 10212
priest 10211
recognised 10210
pan@@ 10206
ven@@ 10204
violence 10200
establishment 10194
29 10189
cheese 10184
shower 10182
load 10179
afford 10169
500 10169
larger 10167
laughing 10163
conference 10162
regions 10158
tools 10158
regulations 10151
infrastructure 10137
ker 10125
compensation 10124
comments 10111
clinical 10110
display 10109
stronger 10104
ner 10100
am@@ 10089
figures 10088
ze@@ 10085
im@@ 10083
dar@@ 10083
runs 10079
grey 10079
repeated 10078
ko 10076
ings 10073
entity 10072
80 10065
suggested 10057
applies 10057
grave 10056
empire 10056
fbi 10044
marked 10044
ent 10041
arrangements 10025
vessel 10020
referring 10019
45 10018
pulling 10005
nodded 10003
student 10003
+ 10001
substances 9999
wing 9999
jake 9999
desire 9998
knocked 9996
bucks 9995
cutting 9991
golden 9989
route 9986
harm 9986
businesses 9976
millions 9976
formed 9974
zone 9971
delay 9967
laughed 9964
35 9960
dna 9956
favorite 9953
confidence 9948
expressed 9947
asshole 9946
manage 9931
electronic 9928
participation 9928
tone 9921
washington 9921
arrive 9917
war@@ 9915
leads 9911
conduct 9904
desert 9900
becoming 9899
permanent 9899
ordinary 9887
truly 9885
gri@@ 9885
neighborhood 9881
fake 9877
anti@@ 9876
tony 9871
priority 9827
suicide 9826
fleet 9825
cre@@ 9823
nation 9821
= 9816
consumption 9816
thomas 9809
tar@@ 9807
throwing 9807
satisfied 9794
bur@@ 9793
warned 9792
investments 9790
draft 9789
surrounded 9782
differences 9781
billy 9780
passengers 9778
cried 9775
useless 9775
chicken 9774
spare 9767
ked 9764
surveillance 9762
lan@@ 9749
confirm 9746
ana 9746
emperor 9744
26 9738
identity 9737
fellow 9734
negotiations 9731
sexual 9725
tre@@ 9721
recommendations 9720
reminded 9720
ty@@ 9719
temporary 9716
monitor 9705
impressed 9704
admitted 9699
grass 9690
appointment 9688
courage 9675
spending 9670
database 9670
organisation 9670
requirement 9666
becomes 9661
revealed 9658
ve 9657
experts 9655
corridor 9652
czech 9651
dan 9644
stones 9643
automatically 9638
eaten 9637
ben@@ 9632
background 9630
sis 9624
threatened 9621
relax 9620
breathe 9618
tasks 9618
badly 9616
johnny 9615
alarm 9611
dancing 9606
christ 9601
extremely 9599
increasing 9592
gray 9591
ser@@ 9589
factors 9585
ku@@ 9584
flat 9576
coach 9576
reputation 9568
loaded 9568
detail 9565
wizard 9565
tor@@ 9565
frozen 9560
ticket 9557
vat 9555
ses 9554
belt 9549
storage 9549
ed@@ 9547
anna 9546
j 9541
remaining 9540
eggs 9538
secrets 9538
guest 9537
specifically 9536
web 9534
regret 9534
cleared 9532
mac@@ 9531
bobby 9530
der@@ 9528
grade 9525
repeat 9521
alternative 9520
nu@@ 9519
suffer 9512
amendment 9507
latter 9504
loose 9492
developing 9488
win@@ 9488
prefer 9488
explanation 9484
fin@@ 9479
valley 9479
wolf 9475
ki 9474
gain 9473
wal@@ 9473
listened 9461
bedroom 9461
bleeding 9459
angel 9458
g-@@ 9447
representative 9444
reaction 9442
screwed 9441
knock 9437
coast 9435
wore 9435
notification 9432
abandoned 9431
shake 9430
rolling 9420
survived 9415
euro 9412
i.e. 9411
italy 9409
aircraft 9406
library 9405
ina 9405
closely 9400
of@@ 9398
arthur 9397
ghost 9393
sectors 9390
beg 9387
ors 9383
containing 9379
case-law 9376
harder 9376
studied 9375
alien 9373
shared 9372
paint 9367
ity 9367
one-@@ 9366
asks 9364
includes 9363
eh 9363
well-@@ 9361
plate 9360
anti-@@ 9359
surgery 9351
spell 9351
jane 9350
expensive 9345
he'il 9344
mirror 9338
younger 9323
modern 9318
accompanied 9317
concentration 9308
assigned 9302
creatures 9297
ator 9288
fer@@ 9286
fields 9279
shi@@ 9278
cab 9277
ap@@ 9275
bond 9274
symptoms 9270
category 9267
loan 9262
cra@@ 9260
distribution 9243
americans 9237
passing 9231
regulatory 9230
hated 9228
plants 9228
practices 9225
association 9224
nurse 9220
lifted 9217
quarter 9212
injury 9212
friday 9208
handed 9207
dy 9206
escaped 9203
hid 9200
bags 9198
classified 9195
silly 9193
duke 9192
innovation 9188
shares 9181
belongs 9181
domestic 9169
officials 9164
star@@ 9164
secretary 9158
rome 9153
eec 9150
dig 9148
lee 9147
november 9145
bro@@ 9145
faced 9145
plastic 9144
division 9141
guests 9136
shouted 9135
buying 9113
initiative 9110
buildings 9105
explosion 9104
royal 9101
ing@@ 9098
ky 9094
shadows 9091
audit 9083
ruin 9083
mail 9081
friendly 9079
register 9076
san@@ 9075
maintained 9075
rent 9068
charged 9067
efficiency 9066
ously 9066
iii 9058
mayor 9054
prime 9052
plea 9046
engaged 9041
wheel 9041
spanish 9041
sensitive 9037
scale 9033
express 9031
imposed 9031
latest 9026
mat@@ 9020
commitments 9020
mechanism 9015
sounded 9014
upper 9007
palace 9006
russia 9005
meal 8998
climb 8997
ensuring 8995
element 8993
findings 8991
ment 8990
proved 8990
dawn 8986
tan@@ 8981
pig 8978
electricity 8977
rope 8975
transactions 8971
kin 8970
registration 8967
lots 8965
ga 8965
funeral 8962
enforcement 8960
rare 8954
tes 8954
washed 8952
refuse 8950
expecting 8949
sunday 8947
row 8946
mood 8944
agricultural 8944
vessels 8942
producer 8941
cities 8928
deck 8923
beating 8921
trap 8916
yards 8913
approached 8907
represent 8905
10@@ 8904
majority 8898
lit 8897
martin 8895
2014 8890
rocks 8887
sons 8886
u.s. 8885
rolled 8885
louis 8883
believes 8881
therapy 8875
profit 8863
resulting 8860
ha 8847
brave 8842
corresponding 8833
exception 8830
dr 8829
bell 8827
2.@@ 8818
pursuant 8815
accounting 8805
eddie 8804
ur 8802
core 8799
football 8798
ck 8796
robert 8795
sets 8794
approximately 8792
goddamn 8791
charles 8787
bay 8778
pray 8777
relief 8776
japanese 8776
vampire 8775
wounded 8774
intention 8768
bored 8767
messages 8764
depending 8762
bury 8761
basically 8761
hmm 8755
solid 8738
online 8736
desperate 8734
tip 8733
embarrassed 8732
sen@@ 8732
entrance 8729
restructuring 8729
wise 8726
climate 8724
17@@ 8722
daniel 8721
stranger 8720
separated 8719
spain 8718
curious 8713
contribute 8711
unusual 8705
narrow 8703
steve 8701
48 8701
clients 8693
visible 8689
drinks 8689
import 8685
improved 8682
emissions 8679
advanced 8674
fuckin 8673
commitment 8670
arranged 8669
observations 8659
sti@@ 8658
-year-old 8653
supporting 8649
shots 8642
calculated 8639
ful 8638
massive 8638
ought 8636
formal 8634
wings 8633
previously 8631
ridiculous 8626
guide 8623
implement 8618
trail 8618
bs 8615
incredible 8614
immediate 8612
chemical 8609
scare 8605
male 8602
tur@@ 8596
sheet 8587
hood 8586
hurts 8583
cave 8581
valid 8578
glasses 8575
alcohol 8570
william 8561
dispute 8560
scream 8555
campaign 8549
raw 8547
exposure 8546
returning 8543
player 8538
blade 8533
entities 8528
facility 8527
bread 8524
70 8522
traditional 8520
lovely 8519
tro@@ 8519
cream 8509
ver 8509
helps 8507
injured 8506
assessed 8502
ill 8500
liability 8499
victory 8496
shift 8487
den 8484
mer 8481
e.g. 8481
parking 8477
warn 8475
don@@ 8474
saturday 8461
exact 8447
grandfather 8439
revenge 8434
enjoyed 8432
smiling 8430
residence 8428
estimated 8426
sch@@ 8426
culture 8424
respond 8423
mutual 8422
drag 8414
tail 8410
estate 8409
bor@@ 8397
1999 8393
creating 8387
unique 8386
ul@@ 8384
ned 8383
industrial 8382
dragged 8381
bio@@ 8381
jacket 8376
sin@@ 8373
3.@@ 8370
cure 8367
duration 8367
labour 8366
rode 8364
excellent 8364
youth 8362
landing 8361
eligible 8353
jury 8350
reward 8350
lesson 8348
intervention 8343
consequently 8343
trusted 8342
mp@@ 8341
divorce 8341
lla 8334
q@@ 8332
mobile 8328
quantities 8324
32 8322
legislative 8322
mistakes 8321
rough 8321
warrior 8319
ye@@ 8310
ged 8309
hire 8307
admiral 8306
zero 8301
sin 8300
ders 8295
adverse 8291
contracting 8290
depends 8285
operator 8284
ward 8281
driven 8271
finance 8270
1.@@ 8269
two-@@ 8268
license 8263
impression 8252
supplies 8241
celebrate 8238
ly@@ 8236
moves 8234
fundamental 8221
fifth 8221
female 8220
ba 8219
trace 8218
reaching 8217
assistant 8214
host 8213
awful 8207
wrapped 8206
consultation 8203
cr@@ 8200
tic 8198
false 8195
cake 8195
bullshit 8189
spy 8186
goal 8186
los 8185
breach 8184
sufficiently 8182
practical 8173
gang 8164
rat 8163
recovered 8159
interrupted 8156
reform 8153
pleasant 8152
award 8146
restrictions 8132
crap 8132
lin 8131
prisoners 8129
gre@@ 8127
dean 8126
mask 8125
fruit 8124
damaged 8123
wire 8111
declaration 8110
switch 8110
situations 8109
medicinal 8105
co 8103
uses 8101
smoking 8100
launch 8099
recognition 8094
operate 8082
primary 8081
valuable 8077
oral 8077
recall 8075
launched 8074
generation 8070
pressed 8063
audience 8063
rip 8060
stu@@ 8058
talent 8053
pen 8053
causing 8049
aspects 8049
connect 8047
witch 8046
ger@@ 8046
conclusions 8043
ic 8042
bow 8039
temple 8038
prisoner 8031
obtain 8029
dan@@ 8027
constitute 8024
tour 8018
winning 8015
cabin 8015
clouds 8012
et 8012
facilitate 8004
hunting 8003
divided 8001
blown 8000
han@@ 7989
they'il 7987
awake 7982
centuries 7981
permit 7979
alex 7972
opportunities 7971
transmission 7970
swim 7968
disappointed 7967
warrant 7966
waves 7965
twisted 7965
trigger 7960
tunnel 7948
functions 7946
receiving 7943
painting 7943
kar@@ 7941
tommy 7940
un 7939
schedule 7937
pale 7934
pension 7923
poison 7918
tank 7915
wo@@ 7913
raising 7905
distant 7903
profile 7903
considerable 7897
grabbed 7895
bon@@ 7892
pounds 7887
suitable 7882
cargo 7880
rachel 7873
suspected 7870
preparing 7868
cap 7864
boring 7855
brings 7855
africa 7854
ves 7851
fla@@ 7849
75 7847
reveal 7842
delivery 7841
lets 7838
kate 7836
grateful 7835
sar@@ 7830
blew 7829
beast 7827
forth 7826
crash 7824
adequate 7821
miracle 7821
checking 7807
slipped 7805
chances 7796
jealous 7794
destruction 7792
panic 7790
kidnapped 7784
ken@@ 7782
pp@@ 7782
gathered 7780
maintenance 7772
equivalent 7772
alert 7771
pointing 7768
pop 7766
:@@ 7763
odd 7762
begun 7761
af@@ 7758
introduction 7757
percent 7755
appearance 7753
season 7752
minds 7750
tele@@ 7744
ye 7744
reactions 7735
closing 7733
deny 7733
flesh 7725
painted 7716
bike 7715
cloud 7714
collect 7714
greek 7711
brief 7710
eu@@ 7710
verify 7709
wh@@ 7707
mystery 7705
ali@@ 7704
bre@@ 7703
midnight 7701
stays 7698
vacation 7695
preparation 7689
constant 7680
gates 7680
rely 7680
humanity 7679
stress 7677
torn 7670
super@@ 7669
36 7666
cleaning 7661
des 7658
relieved 7657
goodbye 7654
affairs 7650
robot 7645
deeply 7644
picking 7643
relations 7641
pin@@ 7639
thirty 7638
damned 7638
earned 7638
sustainable 7637
specify 7637
cancel 7636
tion 7628
coordination 7627
promote 7620
customer 7617
you@@ 7617
searching 7616
tested 7614
pushing 7612
accused 7610
identification 7610
simon 7608
cho@@ 7602
assure 7598
flag 7594
riding 7591
br@@ 7591
cable 7587
consistent 7586
motion 7583
resistance 7577
offers 7574
demon 7567
curse 7564
effectiveness 7551
pure 7550
leaned 7546
installed 7541
cro@@ 7535
effectively 7535
strengthen 7526
exhausted 7522
somewhat 7522
landed 7521
gained 7518
kim 7518
my@@ 7517
mile 7516
belonged 7515
ceiling 7512
default 7509
tickets 7509
med 7508
losses 7506
owned 7505
navy 7502
stra@@ 7500
protecting 7499
eric 7496
frightened 7494
kin@@ 7485
chase 7480
arrival 7475
k-@@ 7474
and@@ 7473
grandmother 7468
item 7468
column 7467
senior 7461
m-@@ 7459
screw 7459
stable 7453
individuals 7452
exists 7449
confess 7448
nights 7447
inspection 7447
captured 7447
combat 7446
wished 7445
ban@@ 7442
refer 7441
commit 7438
ns 7436
update 7435
ruling 7428
skull 7427
len@@ 7426
lat@@ 7426
difficulties 7423
trans@@ 7421
ob@@ 7420
propose 7418
bath 7415
purchase 7407
combined 7400
ia 7398
covering 7397
jason 7397
challenges 7392
toilet 7390
stealing 7388
ey 7387
samples 7385
allowing 7383
manufacturer 7383
images 7379
title 7379
monday 7374
behalf 7369
ance 7368
burst 7365
targets 7361
representatives 7358
represented 7357
shaking 7356
critical 7355
seeking 7351
voices 7351
hook 7350
minor 7349
perform 7347
organization 7341
300 7340
tables 7339
sue 7337
edward 7337
acid 7335
meantime 7331
hal@@ 7329
andy 7324
folks 7322
adjustment 7320
ning 7319
whore 7314
ches 7313
leaders 7313
exceed 7310
cy@@ 7305
literally 7302
senator 7296
cri@@ 7293
indian 7293
decent 7291
95 7291
february 7284
cycle 7283
revenue 7282
facing 7281
behavior 7280
\ 7278
33 7278
pride 7277
election 7270
za 7270
factory 7270
sacrifice 7267
mere 7266
positions 7265
sy@@ 7265
regime 7261
gently 7261
dra@@ 7259
crack 7259
pattern 7257
ham 7256
in-@@ 7256
ins 7225
factor 7224
dumped 7217
fifty 7212
complaint 7211
horror 7209
tal@@ 7205
wishes 7204
communications 7195
structural 7193
que 7191
mo 7187
random 7187
vast 7187
functioning 7187
determination 7185
mexico 7182
id@@ 7179
por@@ 7179
ski 7171
gentleman 7162
stream 7162
offering 7161
p-@@ 7160
back@@ 7159
panel 7159
screamed 7157
luke 7157
waters 7157
fri@@ 7156
behaviour 7152
rush 7151
plain 7147
pink 7145
alia 7145
print 7144
thy 7142
12@@ 7141
boats 7140
newspaper 7132
micro@@ 7124
sub-@@ 7123
pe 7122
defeat 7120
sen 7119
collected 7115
reply 7114
packed 7113
holes 7110
courts 7109
climbed 7107
western 7106
lled 7102
drizzt 7101
discussed 7099
pills 7099
mi 7096
technologies 7096
4.@@ 7095
sweat 7095
india 7095
california 7095
devices 7093
beaten 7089
imagined 7082
teaching 7081
dirt 7080
ered 7080
demonstrated 7077
gan 7076
participants 7071
relative 7069
tr@@ 7065
honestly 7064
partnership 7060
ying 7057
japan 7057
acted 7055
exemption 7053
ken 7051
walter 7051
pl@@ 7047
ther@@ 7041
reflected 7040
mode 7027
judicial 7021
co-@@ 7019
doubts 7017
ari@@ 7016
taxes 7010
clo@@ 7010
ser 7009
features 7006
calculation 7005
movies 7001
handsome 6999
ny 6996
ran@@ 6995
carbon 6994
severe 6991
netherlands 6991
00@@ 6987
tracks 6979
height 6979
brains 6977
amendments 6971
adult 6965
attacks 6964
describe 6964
components 6962
ite 6960
ence 6959
rob 6954
clark 6948
col@@ 6948
frame 6947
witnesses 6942
efficient 6938
37 6938
genius 6938
designated 6937
shore 6936
lan 6932
ignore 6932
downstairs 6931
constantly 6930
pa 6928
cameras 6928
gaze 6927
hitting 6925
nasty 6923
han 6922
defendant 6919
pages 6916
schemes 6915
kissed 6915
santa 6910
scott 6903
i-@@ 6903
remote 6902
vor@@ 6902
stored 6901
supplied 6900
pr@@ 6899
resolution 6897
42 6894
zi@@ 6894
jan@@ 6893
jurisdiction 6889
ending 6886
stretched 6886
cla@@ 6883
assured 6882
gal@@ 6881
incurred 6881
injection 6878
requests 6872
substantial 6870
incident 6869
aboard 6867
magazine 6865
parent 6864
nuts 6862
popular 6861
hen@@ 6860
debate 6860
talks 6859
august 6857
kevin 6854
bun@@ 6848
defence 6844
tear 6844
subsequent 6844
brian 6841
passenger 6840
smooth 6840
label 6838
bent 6834
satellite 6833
respected 6830
measured 6825
crimes 6824
governor 6821
ashamed 6821
objects 6819
branch 6819
contributions 6814
fred 6813
platform 6812
amy 6806
boo@@ 6805
apparent 6805
invented 6804
infected 6803
extension 6798
pie 6798
cheap 6790
gradually 6789
e-mail 6789
recover 6789
percentage 6789
geographical 6788
doc 6788
website 6784
fan 6781
gro@@ 6776
affair 6772
darling 6771
licence 6770
conflict 6769
chicago 6767
hy@@ 6765
ir 6761
lar@@ 6760
beard 6760
initiatives 6758
competitive 6757
unlike 6757
spotted 6756
terror 6756
betrayed 6754
garage 6753
lt 6752
ker@@ 6751
cos 6750
clock 6741
worlds 6740
governments 6738
grandma 6734
terrified 6734
scientists 6734
cal 6730
sum 6728
mes 6727
discover 6724
soil 6723
channel 6723
submission 6722
ec@@ 6721
intend 6720
chris 6716
34 6716
fore@@ 6712
kers 6709
em@@ 6708
shield 6707
egg 6702
p. 6693
logical 6683
chasing 6681
electric 6681
bars 6680
continues 6672
-up 6669
players 6665
atmosphere 6663
rage 6662
discussion 6661
basement 6659
indication 6657
ably 6657
improvement 6656
mysterious 6655
wanting 6654
violent 6648
transaction 6647
puts 6640
cooperate 6638
officially 6636
wan@@ 6633
frequency 6631
liquid 6630
attractive 6626
invisible 6626
cur@@ 6623
comfort 6621
and/or 6616
proceed 6608
shopping 6608
solutions 6607
disaster 6604
obsessed 6604
citizen 6602
ages 6601
settlement 6599
ingly 6598
inner 6596
flash 6595
mag@@ 6595
songs 6594
log 6594
automatic 6593
oxygen 6592
hits 6590
pla@@ 6589
invitation 6587
stopping 6587
rapidly 6587
on-@@ 6586
loans 6584
scheduled 6581
lands 6580
ry 6576
65 6575
char@@ 6572
39 6572
dollar 6571
angle 6571
lonely 6570
determining 6569
13@@ 6566
precise 6561
improving 6560
cares 6560
recommendation 6555
sharing 6553
relatively 6553
chin 6552
dealt 6552
gdp 6551
c-@@ 6549
hopefully 6547
session 6547
feared 6547
alice 6546
regularly 6546
successfully 6542
visited 6540
noble 6539
counting 6533
multiple 6532
suspended 6531
shy 6530
views 6529
conducted 6528
enterprise 6527
penny 6527
beings 6521
helicopter 6521
software 6521
fraud 6520
appointed 6520
naturally 6518
horrible 6516
alan 6516
comment 6515
hills 6514
bel@@ 6511
murders 6504
integration 6503
stakeholders 6500
zing 6494
studio 6493
gravity 6490
tries 6490
zo@@ 6489
si 6486
wil@@ 6486
qualified 6481
44 6481
extend 6477
equipped 6472
custody 6470
largely 6470
al-@@ 6470
chuck 6466
causes 6465
hol@@ 6465
budgetary 6463
cleaned 6458
essentially 6455
recording 6455
leadership 6454
correctly 6453
gentle 6452
statements 6450
trading 6449
son@@ 6449
honored 6445
gun@@ 6444
chef 6441
comparison 6441
periods 6439
pat@@ 6437
tive 6428
c. 6428
networks 6428
suck 6424
beneficiary 6422
verification 6422
promotion 6421
searched 6420
stands 6416
politics 6415
bo 6413
entering 6410
firmly 6410
nations 6409
facilities 6408
categories 6407
ol@@ 6407
scary 6403
orange 6402
high-@@ 6402
super 6402
deadline 6401
terrorist 6399
proven 6395
adjusted 6395
executive 6394
fiscal 6392
87 6391
sisters 6389
sur@@ 6389
thief 6388
cooking 6387
q 6384
cultural 6380
bowl 6378
signature 6376
monkey 6373
que@@ 6372
insisted 6371
repair 6371
wiped 6368
confusion 6366
ations 6364
argue 6364
piss 6363
ging 6362
assuming 6361
menu 6360
reducing 6357
demonstrate 6356
concrete 6354
tender 6352
fulfilled 6350
liver 6347
personnel 6346
cruel 6345
38 6343
20@@ 6343
reserve 6341
guaranteed 6341
dated 6341
schools 6340
madam 6340
binding 6338
dumb 6338
tent 6337
ruled 6337
alright 6336
mercy 6336
stability 6335
crown 6333
ville 6329
boxes 6327
throne 6326
ip 6325
wounds 6324
drank 6321
ban 6321
stan 6317
excluded 6313
farmers 6313
publication 6311
muscles 6307
parked 6306
inspector 6305
participate 6304
romantic 6304
fashion 6303
county 6300
treasure 6298
exclusively 6294
she@@ 6293
agencies 6293
contrast 6290
dor@@ 6289
ming 6286
fortune 6285
hand@@ 6284
borrow 6284
exit 6284
jo 6283
ary 6280
transparency 6276
candidates 6271
rude 6264
emily 6263
wooden 6261
bush 6260
ti 6259
sweetheart 6256
b. 6255
nor@@ 6255
brilliant 6254
league 6254
gor@@ 6249
infection 6245
dreamed 6243
mist 6236
garbage 6235
lawyers 6234
uncomfortable 6232
provisional 6229
friendship 6229
adam 6224
ignored 6224
guarantees 6219
ped 6218
necessarily 6217
cartel 6216
est 6212
elevator 6211
salt 6210
capture 6209
employee 6209
43 6206
advised 6205
kg 6205
pin 6205
cross-border 6200
servant 6199
tissue 6198
engines 6197
computers 6196
frankly 6194
painful 6192
head@@ 6192
sun@@ 6189
deeper 6187
sixth 6186
hor@@ 6186
tru@@ 6180
mud 6180
bullets 6177
rec@@ 6177
crossing 6176
kills 6176
switched 6175
eve 6173
del@@ 6173
sealed 6170
pete 6167
ton@@ 6166
47 6163
deemed 6163
punished 6159
robbed 6159
artist 6158
occasionally 6157
smes 6157
shelter 6155
mistaken 6154
susan 6152
dismissed 6151
phones 6149
southern 6149
cats 6147
define 6147
vulnerable 6146
initiated 6145
unhappy 6143
glanced 6141
sel@@ 6138
ho 6138
investors 6138
someday 6137
hearts 6129
warehouse 6125
overcome 6125
tool 6124
instant 6122
modified 6119
squad 6115
turkey 6112
stabbed 6110
slip 6110
str@@ 6108
seal 6107
so-called 6104
russians 6104
safely 6104
integrated 6101
beam 6101
rapid 6097
communicate 6094
sted 6093
ach@@ 6092
trunk 6088
snake 6083
seats 6082
corpse 6082
broadcast 6078
equally 6077
dr@@ 6075
granting 6074
displayed 6073
attorney 6071
arrange 6070
'@@ 6068
favour 6068
slave 6067
sexy 6062
d'@@ 6060
ripped 6059
ear@@ 6058
forehead 6056
lightning 6052
exceptional 6050
attend 6049
rats 6042
ments 6038
punishment 6035
sor@@ 6034
establishing 6029
sk 6027
nevertheless 6024
blocked 6022
sting 6017
replacement 6016
format 6016
elsewhere 6015
fle@@ 6014
dried 6012
tor 6011
cigarette 6006
carter 6003
sion 6002
christian 6000
personality 6000
emotional 6000
alleged 5997
loyal 5992
ators 5990
foundation 5989
lane 5988
strategic 5987
ml 5983
childhood 5981
journal 5979
chocolate 5978
ff@@ 5977
quantity 5977
colour 5970
escort 5969
developments 5963
mum 5960
gathering 5960
wasted 5959
radiation 5959
religious 5957
fever 5947
leather 5943
ars 5943
era 5942
breaks 5941
moral 5941
administered 5938
indicators 5936
pile 5936
blessed 5935
16@@ 5935
conclude 5933
rear 5933
spe@@ 5932
guidance 5931
installation 5926
prevented 5925
extraordinary 5923
shortly 5921
cat@@ 5920
fifteen 5918
constitutes 5915
commanded 5914
beneficiaries 5910
kelly 5909
iv 5907
happiness 5902
denied 5900
digital 5898
degrees 5896
nearby 5895
y' 5894
dri@@ 5894
intelligent 5892
snapped 5890
permitted 5888
existed 5887
ay 5886
serving 5884
gather 5882
tt 5879
anne 5879
password 5877
imp@@ 5877
covers 5876
urgent 5873
lling 5871
underground 5871
dave 5870
5.@@ 5870
legend 5861
guts 5858
dialogue 5851
neighbors 5851
photos 5847
shing 5841
fy 5840
procurement 5840
ian 5837
larry 5835
suspicious 5827
considerations 5824
carl 5823
st. 5821
dwarf 5820
sco@@ 5820
unlikely 5819
adapted 5815
agenda 5815
absolute 5812
ceremony 5807
din@@ 5806
justify 5804
studying 5804
blocks 5803
za@@ 5802
targeted 5799
cited 5799
statistics 5799
hopes 5796
berg 5795
score 5790
guilt 5789
sation 5788
ireland 5782
cuts 5779
directed 5779
ori@@ 5776
jackson 5776
pet 5774
composed 5773
2-@@ 5772
warriors 5771
bothered 5770
jerry 5769
eastern 5765
horizon 5761
meanwhile 5759
ang@@ 5758
wealth 5756
ji@@ 5754
yo 5754
brand 5753
slight 5749
processes 5748
secured 5748
flu@@ 5747
vi 5746
abuse 5746
priorities 5739
handled 5737
d. 5736
ministry 5734
worker 5733
sheep 5730
self 5728
sparhawk 5727
applying 5726
asset 5725
patrol 5723
reliable 5721
cs 5718
involvement 5718
15@@ 5716
freak 5714
boots 5712
sports 5711
outcome 5709
privacy 5708
attracted 5706
handling 5706
t. 5703
flames 5702
estimate 5697
servants 5694
medicines 5693
district 5687
objections 5687
advertising 5685
jungle 5685
sometime 5684
crashed 5684
pping 5683
_@@ 5679
kes 5676
increasingly 5673
holiday 5672
bearing 5671
comprehensive 5666
root 5663
ering 5662
mis@@ 5662
0.@@ 5660
ster@@ 5660
ching 5658
excitement 5658
ry@@ 5657
dedicated 5654
matt 5654
dro@@ 5651
differently 5650
cage 5649
to-@@ 5648
museum 5646
teams 5640
jones 5640
rice 5636
ralph 5635
contents 5634
sites 5631
howard 5630
earn 5629
refers 5627
quarters 5626
precisely 5623
tradition 5622
imagination 5621
soup 5620
filling 5620
faint 5620
tribe 5617
suits 5615
torture 5613
excessive 5608
ants 5608
sean 5607
mix 5601
morgan 5600
nerve 5599
reflect 5597
belly 5593
phil 5592
shell 5589
greece 5587
uk 5586
dale 5584
connections 5584
adjust 5584
bl@@ 5581
ing-@@ 5578
worn 5572
pipe 5570
cow 5570
relates 5570
protective 5568
clothing 5568
tin@@ 5568
sail 5567
maid 5567
cross-@@ 5566
twelve 5564
galaxy 5564
pays 5562
sta 5560
marine 5559
victor 5557
souls 5555
nonsense 5554
zer 5553
dump 5552
holds 5551
-RCB- 5551
struggle 5545
coincidence 5544
shocked 5543
-LCB- 5543
hunter 5539
ex 5539
continuing 5539
passion 5535
hon@@ 5535
three-@@ 5534
dly 5534
lover 5532
codes 5531
delete 5531
precious 5530
ck@@ 5526
heavily 5526
holder 5520
models 5518
flo@@ 5517
passage 5517
annie 5517
tend 5514
northern 5513
occasion 5511
pizza 5511
46 5509
glory 5506
allocated 5505
flower 5505
uc@@ 5502
whereas 5501
ecb 5496
survival 5494
pretending 5491
fence 5491
departure 5490
stake 5489
rarely 5488
le-@@ 5488
string 5486
enabled 5486
realised 5486
fee 5485
vimes 5483
bro 5478
trembling 5478
exciting 5477
pole 5474
obliged 5473
outer 5472
fancy 5472
depend 5471
discovery 5467
55 5467
tube 5467
meters 5467
touching 5465
ines 5464
succeed 5462
nar@@ 5462
begging 5461
knee 5457
communities 5453
bare 5453
kyle 5452
stuffed 5452
tfeu 5452
couch 5450
whoa 5450
mandatory 5449
49 5449
alliance 5447
classification 5443
processed 5442
knight 5440
blowing 5439
41 5437
needle 5436
copies 5436
properties 5435
partially 5433
encourage 5431
solved 5431
slaves 5429
lisa 5428
subjects 5425
discretion 5425
belief 5425
difficulty 5422
supervisory 5419
involving 5416
clever 5415
/ec 5413
argued 5411
mouse 5410
ak 5409
2020 5409
legitimate 5409
criminals 5404
fairly 5399
vice 5399
etc. 5398
divorced 5397
insane 5395
gear 5395
enjoying 5394
roger 5394
chairman 5393
relate 5393
symbol 5393
namely 5391
o-@@ 5388
eager 5385
wed 5384
xi@@ 5384
cliff 5383
presentation 5381
investigate 5379
spirits 5374
assist 5368
sink 5368
weakness 5367
injuries 5365
wipe 5365
visitors 5362
closet 5360
post-@@ 5359
bastards 5359
lo 5358
currency 5352
lar 5352
sections 5351
soviet 5349
stops 5345
grandpa 5342
digging 5342
certainty 5340
low-@@ 5338
religion 5337
pee 5335
reforms 5331
summary 5330
lessons 5327
dock 5327
wheels 5325
juice 5323
bills 5322
enterprises 5321
ality 5320
savings 5320
virgin 5320
initially 5319
demands 5315
gr@@ 5313
awareness 5312
medium 5309
roads 5309
typical 5309
vampires 5306
stare 5303
deficit 5303
crush 5302
com 5301
nanny 5300
plays 5297
sho@@ 5294
roland 5289
pussy 5287
structures 5284
sla@@ 5283
prize 5283
candy 5282
fears 5278
fires 5277
a.@@ 5276
tale 5276
confidential 5273
stocks 5269
inter 5267
principal 5263
jeff 5260
helen 5260
consciousness 5260
cared 5260
silk 5258
errors 5257
contacts 5257
vegas 5255
tal 5254
compatible 5253
14@@ 5252
wording 5249
rifle 5249
rail 5249
execution 5246
lodged 5244
layer 5244
skip 5241
compare 5240
palm 5240
sters 5239
operated 5239
ens 5238
withdrawal 5235
ak@@ 5234
muscle 5226
mid@@ 5225
opinions 5223
var@@ 5222
loo@@ 5218
subsequently 5218
kal@@ 5217
arrow 5216
duncan 5215
ces 5213
pursued 5213
doses 5212
black@@ 5211
motor 5211
routine 5210
noon 5209
et@@ 5207
lungs 5207
acceptable 5204
strongly 5201
testify 5197
hates 5197
indicates 5196
emma 5195
hammer 5195
steady 5193
characters 5193
prejudice 5192
shaped 5191
99 5190
competitiveness 5189
documentation 5189
claire 5189
ble@@ 5189
n-@@ 5188
hank 5185
halfway 5185
tis 5184
rabbit 5182
employed 5181
bug 5178
concentrate 5175
survey 5174
sport 5174
secondly 5174
plasma 5173
recommend 5172
robbery 5172
largest 5170
regardless 5168
sacred 5167
counter 5167
criterion 5166
owners 5166
clue 5164
tracking 5162
fantastic 5162
unexpected 5159
ani@@ 5158
92 5153
islands 5152
writer 5150
sticking 5147
startled 5146
ssi@@ 5145
swept 5145
updated 5145
ct@@ 5144
backup 5143
cattle 5142
candidate 5142
hatred 5141
qui@@ 5140
worthy 5140
comparable 5139
variety 5138
kor@@ 5138
dy@@ 5136
wor@@ 5136
fre@@ 5136
hel@@ 5135
germans 5133
pot 5131
thrilled 5130
classes 5130
dumping 5129
interrupt 5129
ory 5129
ja 5128
land@@ 5128
by@@ 5128
auto@@ 5127
magical 5126
mechanisms 5122
dates 5122
pace 5121
transparent 5121
withdraw 5120
pur@@ 5119
spo@@ 5116
booth 5114
terrorists 5113
theater 5113
ats 5113
bru@@ 5112
bat 5108
texas 5107
elizabeth 5106
fees 5106
perspective 5103
emotions 5103
settings 5102
bit@@ 5102
down@@ 5102
lli@@ 5101
organised 5101
loving 5101
st-@@ 5099
o'clock 5096
medication 5095
elected 5095
lily 5093
lon@@ 5090
destiny 5088
logic 5086
habit 5085
backs 5083
plates 5083
margin 5083
demons 5082
primarily 5081
abroad 5081
defeated 5079
parallel 5078
51 5075
filed 5072
smells 5071
rings 5068
airlines 5068
gap 5067
softly 5067
rape 5066
hong 5063
pan 5063
wallet 5061
deliberately 5061
extreme 5061
adults 5060
collective 5060
experiment 5059
fled 5057
microsoft 5054
exclusive 5054
mobility 5052
satisfaction 5050
begins 5049
consequence 5044
punch 5043
counted 5041
promoted 5040
eri@@ 5037
crushed 5037
ate@@ 5036
bat@@ 5035
suited 5035
stations 5032
toast 5031
mars 5030
loyalty 5029
activated 5029
cap@@ 5028
branches 5027
pregnancy 5025
joey 5025
restore 5024
miserable 5023
ale 5023
murmured 5020
lap 5020
behave 5018
delayed 5016
fra@@ 5015
dropping 5013
ross 5013
cent 5012
commissioner 5012
ong 5011
nightmare 5011
mm-hmm 5011
deserves 5008
mann 5006
flights 5006
opens 5005
kinds 5005
inclusion 5004
lamp 5004
mommy 5004
homes 5004
corporate 5002
visiting 5002
angeles 5001
thou 5001
winner 5000
see@@ 5000
prints 4996
climbing 4996
laughter 4995
glow 4994
roy 4992
conformity 4992
wars 4990
vital 4987
lists 4986
fist 4984
closest 4983
crowded 4980
recalled 4977
ongoing 4976
allocation 4973
involve 4972
appropriations 4971
revolution 4969
chan@@ 4969
governing 4966
surrounding 4966
wasting 4965
subparagraph 4963
lation 4963
pigs 4961
babies 4960
shining 4959
30@@ 4957
bull 4956
bride 4955
6.@@ 4954
borne 4952
imperial 4951
dd@@ 4949
supervision 4946
missile 4944
thi@@ 4941
lls 4940
fulfil 4940
,@@ 4938
borders 4938
lucy 4937
component 4937
threaten 4935
52 4935
programs 4934
gy 4934
farther 4934
plot 4932
pit 4932
bits 4931
poland 4930
l-@@ 4929
explode 4929
leaning 4928
fro@@ 4923
partly 4923
rick 4922
returns 4922
ble 4922
bombs 4921
notify 4920
88 4919
demanded 4918
colleagues 4917
baron 4917
acquired 4917
decades 4916
films 4914
clearing 4914
ol 4913
ges 4913
ot 4913
dependent 4912
patrick 4911
randy 4909
granny 4909
technically 4907
mp 4907
offended 4907
poisoned 4907
hurting 4907
attitude 4906
independence 4903
93 4903
smashed 4902
ths 4902
new@@ 4898
cer@@ 4895
eliminate 4895
ron@@ 4892
fied 4889
labor 4888
headquarters 4888
artificial 4882
planes 4882
van@@ 4882
del 4882
feeding 4882
organized 4880
charming 4878
possibilities 4877
competence 4876
concert 4875
possession 4875
adding 4873
jessica 4873
walks 4873
directives 4873
generations 4873
accustomed 4872
telephone 4872
legally 4871
seed 4869
hostage 4867
formation 4866
transition 4865
represents 4864
beloved 4861
85 4861
install 4858
s. 4857
suggests 4855
o'@@ 4854
printed 4853
furniture 4853
lowered 4852
unconscious 4848
reporter 4848
tt@@ 4847
apple 4846
grief 4845
air@@ 4845
ber 4843
loser 4840
banking 4840
tation 4839
1/@@ 4838
gross 4836
kong 4835
output 4832
andrew 4831
shoe 4831
relationships 4830
preferred 4828
dre@@ 4827
roman 4827
25@@ 4823
98 4823
destination 4823
emotion 4821
polite 4817
ratio 4817
underwear 4817
aged 4817
decade 4816
py@@ 4816
deadly 4815
consent 4815
organic 4812
threshold 4811
ef@@ 4810
li 4810
ist 4809
colors 4808
frequently 4807
em 4806
grip 4805
avoided 4805
suspicion 4804
champagne 4804
jacob 4803
taxation 4802
monitored 4802
garion 4800
academy 4799
wrist 4798
imported 4797
tte 4794
prom 4792
liar 4791
shes 4789
blanket 4787
mic 4787
kat@@ 4782
suspension 4781
stic 4780
decides 4780
bible 4780
outta 4779
punched 4777
robots 4776
fun@@ 4776
cooked 4775
folder 4775
sive 4775
arrangement 4773
fort 4771
tran@@ 4769
57 4768
swallowed 4767
ery 4766
complaints 4763
strict 4763
declare 4763
profits 4762
81 4762
gru@@ 4758
butter 4753
400 4752
drops 4750
meter 4750
teachers 4749
prescribed 4749
crystal 4749
bitter 4747
> 4746
baseball 4746
sy 4745
adjustments 4744
disgusting 4744
s.@@ 4741
mit@@ 4740
proportion 4740
tension 4739
invalid 4739
vic 4739
encounter 4738
booked 4738
governance 4736
vin 4736
hereinafter 4734
tuesday 4733
tons 4732
diamond 4732
fal@@ 4731
ft 4730
gla@@ 4730
manufacturers 4729
threatening 4727
sol@@ 4727
exporting 4727
reverse 4726
serial 4726
polish 4725
gifts 4725
ine@@ 4724
distracted 4722
breasts 4722
backed 4720
flame 4719
kissing 4717
languages 4715
conscience 4714
gesture 4714
eternal 4714
packaging 4712
occupied 4712
wins 4710
maker 4708
emerged 4705
raped 4703
boston 4703
ane 4701
visa 4701
planted 4700
ex-@@ 4699
lac@@ 4696
fighters 4695
disposal 4695
enormous 4695
cru@@ 4694
kra@@ 4687
dur@@ 4683
pped 4683
pas@@ 4683
busted 4679
lor@@ 4678
ched 4675
calendar 4672
deputy 4672
discrimination 4671
expectations 4669
favourite 4669
foolish 4668
railway 4666
tly 4666
assault 4666
stri@@ 4665
highway 4665
drowned 4664
ri 4663
mothers 4662
nathan 4658
removing 4656
all-@@ 4653
salary 4653
tion@@ 4652
chaos 4651
sil@@ 4651
iraq 4651
solar 4651
vers 4650
bla@@ 4649
missiles 4646
freeze 4645
desperately 4644
ping 4642
lia 4642
nearest 4641
sworn 4641
impose 4640
pon@@ 4640
robin 4637
assignment 4635
resist 4633
cigarettes 4630
rural 4630
gym 4629
accurate 4628
disabled 4627
heal 4625
sorts 4624
od@@ 4623
secondary 4621
austria 4620
kinda 4619
awkward 4619
fr@@ 4616
joining 4616
announce 4613
pity 4613
delicate 4612
rac@@ 4611
answering 4611
links 4610
sha 4610
awesome 4610
input 4610
chased 4609
extensive 4607
ws 4604
accession 4604
junior 4601
actor 4599
instructed 4598
masters 4598
housing 4598
lion 4595
opponent 4595
biological 4594
mur@@ 4594
withdrawn 4594
sheets 4591
berlin 4590
dressing 4590
pra@@ 4590
designation 4590
zation 4589
bas@@ 4588
guessing 4583
marty 4582
golf 4582
parameters 4582
armor 4580
interim 4580
procedural 4578
partial 4578
fighter 4577
ct 4576
mel@@ 4576
scan 4574
paused 4574
yn 4573
pardon 4572
floating 4568
strangers 4567
jews 4567
motherfucker 4566
who@@ 4566
uni@@ 4564
beth 4563
tics 4562
messed 4562
all@@ 4562
may@@ 4561
pope 4561
opposition 4558
encouraged 4557
poly@@ 4556
julia 4555
thursday 4555
vanished 4554
gary 4553
producing 4552
ro 4550
powder 4550
sm 4549
gus 4547
approve 4547
increases 4547
reminds 4546
genetic 4545
lea@@ 4545
1998 4543
tic@@ 4543
intense 4543
radi@@ 4542
household 4541
generous 4541
ang 4541
assembly 4540
helmet 4540
honour 4538
53 4537
ambassador 4536
annulment 4533
clearance 4533
deleted 4532
madness 4531
insist 4531
murderer 4531
fon@@ 4530
inch 4529
lly 4529
scattered 4527
moscow 4527
run@@ 4525
mia 4525
oliver 4524
attempted 4522
decline 4522
work@@ 4517
burns 4516
catching 4516
hollywood 4516
competitors 4515
dish 4515
promoting 4514
surrender 4513
stre@@ 4512
muttered 4510
ism 4510
cen@@ 4510
thereby 4509
ambulance 4509
a.m. 4509
deserved 4505
az@@ 4503
bureau 4503
good-bye 4502
lined 4500
jerk 4499
tore 4497
sses 4497
pump 4496
explains 4495
stretch 4495
yu@@ 4493
concentrated 4492
hydro@@ 4492
participating 4492
whisper 4490
irish 4490
kings 4487
carrier 4486
fur@@ 4486
incredibly 4483
shouting 4483
1-@@ 4483
seated 4483
destroying 4481
script 4481
swing 4480
nail 4479
crucial 4479
approaching 4479
terribly 4479
scenario 4478
encountered 4478
passes 4478
wisdom 4477
2015 4477
bee@@ 4474
sand@@ 4471
91 4471
actors 4470
96 4470
cursed 4469
mun@@ 4468
executed 4468
jordan 4467
mines 4466
bishop 4466
helpful 4462
canceled 4462
safer 4461
belgium 4460
ney 4458
washing 4457
peak 4457
adapt 4456
marie 4455
submits 4455
penalty 4455
statistical 4455
johnson 4455
bail 4454
homework 4454
residents 4454
directions 4452
ere 4450
monsters 4448
wolves 4445
ving 4443
angela 4439
ooh 4438
1,@@ 4435
collapsed 4435
practically 4434
m. 4431
profession 4427
embarrassing 4427
72 4427
interior 4426
clay 4425
5-@@ 4425
lit@@ 4425
sins 4424
stiff 4423
corruption 4421
ski@@ 4421
mounted 4421
interpreted 4420
laying 4420
aliens 4420
hug 4419
pal 4417
satisfy 4415
jenny 4415
pulse 4415
suggesting 4414
terminal 4414
scratch 4413
farmer 4412
mount 4411
champion 4410
democracy 4410
flows 4410
technique 4410
dimension 4408
56 4408
ok@@ 4408
visual 4406
multi-@@ 4403
advise 4402
ans@@ 4401
54 4401
vin@@ 4398
bonds 4398
complain 4398
dun@@ 4397
slid 4397
9.@@ 4396
responsibilities 4396
sticks 4395
votes 4394
awarded 4394
ash 4393
thereof 4391
chip 4389
odds 4389
ie 4388
alfred 4388
cloth 4387
purely 4386
restriction 4385
liable 4383
craft 4382
receipt 4380
radar 4378
investigating 4370
red@@ 4370
gordon 4368
immunity 4367
engineer 4366
brim 4365
elves 4363
diet 4362
trials 4360
ssa 4360
jewish 4359
er-@@ 4359
orbit 4354
kicking 4354
rin@@ 4354
and-@@ 4354
dreaming 4353
delicious 4352
b-@@ 4352
superior 4349
catches 4348
manual 4348
slide 4346
ace 4346
attempts 4344
water@@ 4343
pic@@ 4343
ston 4340
formula 4339
mara 4338
zz@@ 4336
resource 4335
passport 4335
occurs 4334
planets 4334
foster 4332
electrical 4331
oath 4330
stepping 4330
ils 4329
voluntary 4327
slo@@ 4326
min 4324
68 4324
asylum 4322
penis 4320
posted 4313
waving 4312
EUR@@ 4312
forty 4311
traveling 4311
recitals 4311
rep@@ 4310
toy 4310
clarify 4308
struggling 4307
surgeon 4306
maria 4305
61 4304
restored 4304
dug 4303
briefly 4303
tricks 4301
c.@@ 4300
tanks 4299
collapse 4299
colored 4299
gloves 4295
bang 4295
97 4294
barn 4294
remuneration 4294
llo 4291
firing 4290
carpet 4290
ids 4286
tha 4285
ly-@@ 4283
spite 4282
se-@@ 4281
vietnam 4279
fatal 4278
clause 4276
hereby 4274
jay 4273
exports 4273
detected 4272
150 4272
companions 4272
kie 4271
container 4270
interfere 4269
chat 4268
sneak 4268
securities 4268
tragedy 4267
paperwork 4267
exploded 4267
latin 4266
virtually 4265
arguing 4265
caramon 4264
vit@@ 4262
tan 4261
brick 4259
gen 4258
prohibited 4258
pers 4258
sally 4256
tobacco 4256
spreading 4256
forcing 4255
suspects 4254
sharply 4253
governed 4251
pockets 4250
breast 4249
lisbon 4245
isolated 4245
guarded 4244
eg@@ 4244
glo@@ 4243
mid-@@ 4243
ies 4240
civilian 4239
hyper@@ 4239
surprising 4239
tac@@ 4238
nails 4238
strengthening 4237
ana@@ 4234
cul@@ 4233
seized 4233
elena 4232
administrator 4232
verified 4230
l.a. 4229
ach 4228
purse 4227
nest 4227
poverty 4226
40@@ 4226
senses 4226
sang 4225
stroke 4224
tz 4224
unnecessary 4224
lifetime 4223
jet 4223
speaks 4222
sorted 4220
domain 4219
flowing 4218
clinic 4218
patience 4217
estimates 4217
confident 4217
impressive 4216
derived 4216
aries 4214
pursue 4214
offices 4214
sal 4214
licences 4211
expenses 4210
10,000 4209
threats 4209
cheating 4209
retired 4209
dining 4209
59 4208
ano 4208
sensors 4207
robe 4207
financed 4205
strip 4205
expiry 4202
logy 4200
fairy 4198
managing 4198
swore 4198
validity 4196
sophie 4194
originally 4192
du 4190
sey 4188
cracked 4188
leo 4187
lers 4186
companion 4183
colleague 4182
historical 4182
embassy 4180
troubled 4177
assessing 4177
confession 4177
ivan 4176
green@@ 4175
charity 4175
jokes 4173
sunlight 4172
ancestors 4171
dignity 4168
widely 4167
71 4166
labelling 4165
idiots 4165
zu@@ 4164
ac 4163
ren 4163
meets 4161
sia 4161
programming 4160
heroes 4160
miller 4159
barry 4159
depressed 4158
paths 4157
maintaining 4155
ringing 4151
publish 4150
leg@@ 4150
sul@@ 4148
lobby 4148
movements 4148
expressly 4148
forbidden 4147
deaths 4146
composition 4143
swung 4143
rang 4142
reaches 4141
employer 4141
pit@@ 4140
observe 4138
relatives 4137
owns 4136
generated 4136
physically 4135
badge 4135
balanced 4134
greatly 4134
sandwich 4133
fixing 4132
rod 4131
vain 4131
judges 4129
divide 4128
mistress 4128
mers 4128
emerging 4128
vic@@ 4127
scu@@ 4127
nicely 4126
fox 4124
8.@@ 4123
questioning 4122
squeeze 4122
strictly 4120
gie 4120
cli@@ 4118
rocket 4118
laboratory 4117
wives 4116
suppliers 4116
chairs 4116
yelling 4115
thumb 4115
wrap 4114
publicly 4114
functional 4114
seventh 4113
devoted 4112
unfair 4110
hers 4107
sends 4106
nicole 4105
twins 4102
slope 4102
issuing 4101
equity 4098
stages 4098
disturbed 4097
glance 4094
94 4093
lau@@ 4092
guessed 4091
pose 4091
long-@@ 4090
discussions 4089
marshall 4088
ved 4087
app@@ 4086
hermione 4085
pending 4084
closure 4082
ung 4082
,000 4081
expertise 4080
questioned 4080
zes 4080
poured 4080
ownership 4080
tattoo 4078
thee 4077
saint 4074
sm@@ 4073
ali 4072
pathetic 4071
native 4071
flood 4069
saddle 4068
psycho@@ 4068
fails 4067
hatch 4066
stark 4064
fans 4063
rows 4062
basket 4060
favourable 4059
multi@@ 4058
packing 4057
testimony 4057
decisive 4057
judging 4055
afterwards 4055
locker 4054
index 4054
prohibition 4053
directory 4052
identical 4051
walker 4050
jersey 4050
flexible 4049
faded 4047
mac 4047
institute 4046
owed 4044
engagement 4043
nationals 4043
ena 4042
disk 4042
dealer 4039
matches 4037
asses 4037
mps 4035
deposit 4035
harmonised 4034
horn 4033
intellectual 4032
agriculture 4031
doll 4031
fen@@ 4030
tyler 4030
piano 4030
quota 4029
fingerprints 4029
dent 4029
fold 4028
thunder 4028
rubber 4028
statue 4027
cheek 4027
founded 4026
envelope 4026
brush 4026
preventing 4025
races 4024
donna 4023
strategies 4020
roughly 4020
7.@@ 4020
ics 4019
cl@@ 4018
caution 4017
adventure 4016
civilization 4014
resulted 4014
spit 4013
deg 4013
bend 4012
83 4010
64 4010
earl 4009
technological 4009
reserved 4009
endless 4006
lifting 4005
footage 4004
alized 4004
nic@@ 4003
purple 4003
examples 4001
four-@@ 4001
lords 4000
ann 3999
ease 3998
canada 3996
selfish 3996
chains 3994
curiosity 3993
lean 3993
explore 3992
bottles 3992
harsh 3992
revised 3990
insult 3990
1997 3988
stro@@ 3987
coin 3987
worries 3987
punish 3986
miami 3985
numerous 3984
f-@@ 3982
cle@@ 3982
wears 3981
mortal 3981
cheated 3981
scientist 3979
traces 3977
supports 3975
j. 3972
irrelevant 3971
manufacturing 3969
mal 3968
leonard 3968
are@@ 3968
clan 3967
pour 3967
packages 3962
bol@@ 3959
ah@@ 3958
tits 3958
unemployment 3957
incorrect 3956
battery 3956
im 3956
achieving 3956
blank 3956
ov 3955
techniques 3953
diseases 3953
worm 3953
ide@@ 3952
detect 3952
forming 3949
signals 3949
ner@@ 3949
jackie 3948
similarly 3948
ld 3947
stab 3947
freely 3946
she'il 3943
daughters 3942
ther 3942
3-@@ 3940
matched 3939
grand@@ 3939
fbl 3938
ghosts 3936
curve 3934
ssed 3934
relaxed 3932
sn@@ 3932
jumping 3932
pad@@ 3931
me-@@ 3930
60@@ 3930
bench 3928
arising 3928
boards 3926
fur 3926
happily 3925
laughs 3925
tine 3924
consult 3924
follow-up 3923
resolved 3922
patch 3921
swimming 3921
lighting 3920
bel 3920
toys 3920
disturb 3919
fisheries 3914
disclosure 3914
karen 3914
completion 3912
ea@@ 3912
provider 3911
bra 3910
avoiding 3909
relied 3907
cloak 3907
restricted 3903
attacking 3903
sions 3903
wind@@ 3902
inspired 3901
freed 3901
spider 3901
chips 3898
ky@@ 3898
certificates 3897
ji 3896
shine 3895
lip 3894
disputes 3893
failing 3891
smo@@ 3891
calculate 3891
non@@ 3890
obstacles 3888
firms 3887
accidentally 3887
convicted 3885
prey 3884
cured 3883
cheeks 3882
killers 3881
investigations 3880
transitional 3880
ceased 3879
providers 3879
sphere 3878
inserted 3877
overwhelmed 3876
negotiate 3876
promises 3875
flashed 3875
fooled 3874
florida 3873
congress 3872
invest 3872
depth 3871
maritime 3868
ads 3867
gh 3866
expired 3866
pper 3866
drives 3866
hunger 3865
retirement 3865
indicating 3864
aims 3863
accent 3863
coma 3863
intact 3863
tering 3862
82 3861
classic 3860
landscape 3860
sh-@@ 3859
ohim 3858
rested 3858
improvements 3858
laura 3857
66 3857
coins 3856
waking 3856
investor 3855
con 3852
inches 3852
overnight 3849
reverend 3849
1,000 3848
vol@@ 3848
decrease 3847
73 3847
snow@@ 3847
dutch 3847
bleed 3846
dor 3846
indi@@ 3845
roo@@ 3845
beef 3845
amanda 3845
ideal 3844
?@@ 3842
mild 3842
bless 3841
psychological 3840
67 3840
indians 3839
grin 3839
tim 3835
motel 3832
carved 3830
contractual 3830
wednesday 3829
approaches 3829
aspect 3829
rounds 3828
instantly 3828
low@@ 3825
utterly 3824
intentions 3824
separately 3823
cart 3822
pound 3822
spi@@ 3821
fog 3820
penalties 3820
gel 3817
pillow 3816
chambers 3816
laser 3815
flies 3815
freezing 3814
cy 3812
holmes 3812
nerves 3810
references 3810
prague 3810
terry 3809
sara 3809
peculiar 3809
worrying 3808
62 3807
messing 3807
believing 3806
proportionality 3806
ladder 3805
marking 3803
coal 3803
metres 3803
remarkable 3803
purchased 3802
ele@@ 3801
fran@@ 3801
goin 3800
nat@@ 3799
jaw 3798
protest 3797
anxious 3797
helpless 3796
bin 3796
traitor 3795
album 3795
lou@@ 3795
cher 3793
inf@@ 3793
double-@@ 3790
reject 3789
drivers 3789
hurried 3787
ore 3785
sweden 3781
oven 3781
ln@@ 3780
cotton 3777
humor 3774
hunted 3772
solely 3772
gon@@ 3772
funded 3772
unpleasant 3771
barrel 3770
agrees 3770
swallow 3770
sucked 3766
waist 3765
rating 3765
nate 3764
ribs 3764
heels 3763
tooth 3762
intensity 3761
dagger 3761
chemicals 3760
cheat 3756
removal 3756
carlos 3756
heating 3755
understands 3755
thro@@ 3755
sweetie 3754
medi@@ 3754
ruins 3752
dal@@ 3751
allies 3750
alley 3750
excess 3749
taylor 3749
any@@ 3747
angels 3747
haunted 3744
hull 3744
din 3744
fights 3743
eternity 3742
judged 3741
shark 3741
dishes 3740
kit 3740
democratic 3738
entrusted 3736
reservation 3733
89 3732
uncertainty 3731
raistlin 3730
arise 3730
grid 3729
filter 3728
experiences 3728
thin@@ 3728
placing 3727
ack@@ 3727
shi 3726
carol 3726
confirmation 3724
twist 3724
vo 3724
bil@@ 3723
inn 3721
insufficient 3721
hint 3721
engage 3720
plan@@ 3720
mixture 3720
nut 3719
immune 3718
appellant 3718
triggered 3718
outstanding 3715
hostile 3714
illness 3713
vault 3713
qualifications 3712
tide 3712
yl 3712
sca@@ 3710
thu@@ 3708
guitar 3708
holders 3708
boot 3708
yourselves 3707
pine 3706
tiger 3706
mighty 3705
amend 3705
taxable 3705
d.@@ 3704
supreme 3704
loading 3702
preparations 3702
collar 3702
resolve 3701
react 3701
ci 3700
asia 3700
ei@@ 3698
jun@@ 3698
duck 3698
ricky 3695
impress 3694
nell 3693
preserve 3692
visits 3692
pat 3692
shaw 3690
claiming 3689
trash 3689
premises 3688
addressing 3686
wagon 3685
bust 3685
bothering 3684
lung 3683
zo 3682
lid 3682
opposed 3681
furious 3681
ites 3680
carriers 3679
contacted 3679
peaceful 3679
ashes 3677
barney 3677
hitler 3676
wandering 3675
scar 3674
pressing 3674
rank 3674
eea 3672
reviewed 3671
brussels 3669
corn 3669
goals 3668
cts 3668
stores 3667
shout 3666
folded 3666
tech 3664
eleven 3664
reads 3664
or-@@ 3661
weed 3660
compete 3659
examining 3659
migration 3658
iling 3657
observation 3656
supplier 3656
mas 3656
h-@@ 3656
betray 3656
roots 3655
borrowed 3655
theft 3655
particles 3655
reception 3654
terrorism 3654
supervisor 3653
58 3653
whit@@ 3652
clu@@ 3651
urban 3651
thieves 3650
advantages 3650
novel 3650
diary 3649
assumption 3646
ya@@ 3645
wider 3645
begged 3643
israel 3643
underlying 3643
albert 3643
dim 3643
lend 3643
nie 3642
evolution 3641
cd 3640
mar 3640
contributed 3640
86 3638
grants 3638
depression 3636
circuit 3635
haven 3635
sman 3635
eli@@ 3634
slowed 3634
doorway 3633
mil@@ 3633
nephew 3632
ig@@ 3631
speaker 3630
dwarves 3630
resting 3629
appendix 3629
satan 3626
comp@@ 3625
inevitable 3625
lucas 3624
ensured 3622
gene 3620
barriers 3620
aids 3619
tho@@ 3619
distinction 3615
fridge 3615
sole 3613
gambling 3612
liberty 3611
kidnapping 3611
autumn 3611
universal 3610
reasoning 3610
iran 3610
blo@@ 3610
refusal 3610
joseph 3610
knights 3609
amused 3608
hooked 3608
ade 3608
swords 3608
i.@@ 3607
choices 3607
fury 3607
bb@@ 3606
proposes 3605
fi 3605
bly 3605
alised 3605
invested 3604
flexibility 3601
signing 3600
slammed 3599
organs 3598
upside 3598
temporarily 3598
creative 3597
cancelled 3597
thread 3596
prayer 3595
channels 3595
5,000 3595
turnover 3594
bid 3594
sle@@ 3594
specifications 3593
lou 3593
motive 3593
molly 3592
ridge 3592
counter@@ 3591
ultimate 3591
missions 3590
neuro@@ 3589
dragons 3588
colony 3588
shareholders 3587
writes 3587
locks 3583
responses 3583
ini@@ 3582
thoroughly 3581
francisco 3581
diamonds 3580
thrust 3579
alpha 3579
lincoln 3576
hun@@ 3576
rushed 3576
freaked 3576
invasion 3574
po 3574
tortured 3573
annoying 3573
derogation 3572
tariff 3572
daylight 3572
essence 3572
mono@@ 3572
britain 3572
lic@@ 3570
shaken 3570
wilson 3570
gging 3570
leto 3568
rocky 3568
conscious 3566
adequately 3565
abilities 3565
fried 3565
bruce 3563
gy@@ 3563
drown 3563
intends 3562
breakdown 3558
bir@@ 3558
liabilities 3558
hugh 3557
prevention 3557
ure 3557
off@@ 3556
retail 3555
key@@ 3555
sse@@ 3554
tag 3554
bears 3552
cohesion 3550
circles 3550
methodology 3548
cheer 3548
genuine 3548
lecture 3548
mexican 3546
fl@@ 3546
despair 3545
luggage 3544
p.m. 3544
acknowledge 3543
dominant 3543
distributed 3542
tightly 3541
programmed 3541
hallway 3541
newly 3538
measurement 3538
euro@@ 3538
troubles 3537
expansion 3537
ple@@ 3536
objection 3535
economies 3535
prosecutor 3532
coffin 3531
coverage 3529
institutional 3528
val 3528
wayne 3527
loses 3526
silently 3526
yell 3526
red-@@ 3525
trucks 3525
voted 3525
inspections 3525
post@@ 3524
mister 3523
convincing 3523
respective 3522
federation 3522
fat@@ 3521
joking 3520
eats 3520
trousers 3519
proves 3518
chart 3518
ira 3517
toxic 3516
check@@ 3515
quote 3515
gallery 3514
shaft 3514
mechanical 3514
spilled 3514
loop 3513
auditors 3512
josh 3511
ene 3511
tap 3511
sighed 3507
fire@@ 3507
dennis 3506
bucket 3506
blast 3505
km 3505
preamble 3504
ritual 3504
bet@@ 3503
ened 3503
diplomatic 3501
eyed 3501
denmark 3501
math 3500
undertaken 3498
alexander 3497
but@@ 3495
delegation 3495
gli@@ 3494
vaccine 3493
69 3493
speci@@ 3492
pro 3492
minus 3492
gin@@ 3492
v. 3491
succeeded 3490
treating 3490
sank 3489
glowing 3489
singer 3488
confirms 3488
mic@@ 3488
acy 3487
lad 3487
acquisition 3486
timing 3485
horizontal 3484
logist 3484
linda 3483
mandate 3482
unlawful 3482
originating 3481
costume 3480
korea 3480
if@@ 3480
mmm 3479
coke 3476
time@@ 3475
lawn 3474
jesse 3474
elf 3474
yer 3472
mul@@ 3472
underneath 3472
serves 3471
sandy 3470
responded 3470
laundry 3469
rat@@ 3468
dial 3468
thorough 3467
protein 3466
thr@@ 3465
expose 3462
harmonisation 3461
ve-@@ 3458
innovative 3458
fax 3458
book@@ 3457
2.1 3456
phrase 3455
transmitted 3455
trailer 3455
politicians 3455
calculations 3454
chy 3453
waved 3451
swee@@ 3451
exceeded 3451
olaf 3451
paradise 3450
eva 3450
slap 3450
exceptions 3449
no-@@ 3449
ultimately 3447
autopsy 3447
indirect 3447
ek 3446
catherine 3445
chu@@ 3444
physics 3444
phenomenon 3439
tors 3439
renal 3439
skill 3439
chloe 3437
charter 3436
duly 3436
sty 3436
availability 3436
sig@@ 3435
gender 3435
sits 3434
enhanced 3434
sustainability 3431
sanctions 3431
laurie 3430
module 3430
terminated 3429
cooper 3429
50@@ 3426
knocking 3426
cape 3425
spray 3424
bee 3423
sensed 3423
gran@@ 3422
bore 3421
anonymous 3421
forgetting 3421
steam 3421
screams 3420
bow@@ 3419
salad 3419
african 3419
leak 3418
belgian 3417
fortunately 3417
care@@ 3417
tablets 3416
fu 3415
anti-dumping 3414
accessible 3413
200@@ 3413
0,@@ 3411
long@@ 3411
scout 3410
collecting 3410
atlantic 3409
sunset 3409
derek 3407
keeper 3407
homeless 3407
stunned 3407
hydrogen 3405
pacific 3405
smoked 3405
cord 3403
plu@@ 3403
achievement 3403
cease 3402
yelled 3402
instincts 3402
demonstration 3402
routes 3399
off-@@ 3399
disturbing 3398
home@@ 3397
teddy 3397
affects 3397
cole 3396
correction 3395
amber 3394
madame 3393
axe 3392
contest 3392
ners 3389
coordinates 3389
creates 3388
shortcomings 3388
actively 3387
jeremy 3386
63 3385
76 3384
6-@@ 3383
compatibility 3382
boarding 3382
av@@ 3380
ess 3380
ero@@ 3380
slu@@ 3379
backward 3377
old-fashioned 3377
gut 3376
ries 3374
delighted 3374
incentives 3373
th-@@ 3372
exceeding 3369
sober 3369
avenue 3368
blu@@ 3368
bert 3368
hunters 3367
shu@@ 3367
struggled 3366
carriage 3366
sli@@ 3366
consumed 3366
apology 3366
indications 3364
charm 3363
potentially 3363
bait 3362
visitor 3362
78 3361
tanis 3360
growled 3359
lightly 3359
smelled 3359
sno@@ 3359
circus 3358
welfare 3358
inflation 3358
initiate 3357
hawk 3357
shiny 3357
feast 3357
rumor 3356
harvest 3356
thor@@ 3356
lovers 3356
aggressive 3355
lease 3355
deserted 3353
accompany 3352
cabinet 3352
allegedly 3350
sec 3349
e. 3349
engineering 3349
sampling 3349
lamps 3349
racing 3348
dge 3347
ire 3346
opera 3346
herd 3346
boom 3345
texts 3344
fortress 3341
shar@@ 3340
600 3338
alongside 3338
definitive 3337
ene@@ 3337
pretended 3336
faithful 3336
membership 3335
afghanistan 3335
integrity 3334
assumptions 3333
fools 3332
shattered 3332
ama@@ 3332
assassin 3332
haplo 3332
bad@@ 3332
tas 3331
sauce 3329
au 3329
notion 3327
defending 3327
tunnels 3327
legislature 3326
monetary 3325
sadness 3323
tossed 3322
pleas 3320
amazed 3319
coordinated 3319
tti 3319
shove 3318
stein 3318
gg@@ 3317
vincent 3317
e.@@ 3317
deer 3317
deals 3316
performing 3314
illusion 3313
trend 3313
chi 3310
plug 3310
shifted 3309
transported 3306
messenger 3305
shapes 3304
slaughter 3302
subway 3302
burton 3302
headache 3302
babe 3301
vertical 3301
coward 3301
regulated 3299
drain 3298
expedition 3298
grayson 3297
mall 3297
bean 3296
impairment 3295
debts 3294
arts 3294
god@@ 3294
survivors 3294
banned 3294
depths 3293
announcement 3293
potatoes 3293
sack 3292
scra@@ 3292
lewis 3291
marcus 3291
pursuit 3291
consultations 3290
decision-making 3287
chill 3287
desired 3287
marines 3287
oned 3287
calmly 3286
traveled 3286
lois 3286
praying 3285
commands 3285
lighter 3285
discipline 3283
bitten 3283
parker 3282
centres 3281
spine 3280
continuous 3280
photographs 3280
anxiety 3279
tter 3278
berry 3278
charlotte 3276
sty@@ 3276
gers 3276
greg 3275
rotten 3275
harold 3275
blessing 3274
steering 3274
lasted 3273
bourne 3273
fierce 3273
accidents 3273
mill 3272
hal 3271
someplace 3271
preserved 3270
pha@@ 3270
hs 3269
fits 3269
priests 3269
incentive 3267
merger 3266
permanently 3266
conversion 3266
exchanged 3265
acknowledged 3265
sacrificed 3264
casino 3264
patterns 3263
spiritual 3263
77 3263
feature 3262
urge 3262
counts 3260
misery 3259
gil@@ 3259
scent 3258
loudly 3257
vis 3257
whistle 3257
beans 3256
ink 3256
ni 3255
refund 3255
jar@@ 3255
instinct 3255
barbara 3253
switzerland 3252
l. 3251
anniversary 3251
industries 3250
scri@@ 3248
decreased 3248
cation 3246
seeds 3246
towers 3245
fantasy 3244
affecting 3244
lazy 3244
alo@@ 3243
hesitated 3243
oc@@ 3243
drama 3243
charging 3242
kidney 3242
custom 3242
traced 3242
mentally 3241
fucker 3241
goat 3241
goo@@ 3240
grain 3240
musical 3239
complained 3239
von 3236
inadmissible 3236
lex 3236
dg 3235
filthy 3235
forum 3234
fluid 3234
slightest 3233
oj 3232
iting 3232
promising 3231
festival 3231
configuration 3231
ini 3231
emphasis 3229
identifying 3228
op 3228
grows 3227
towel 3226
toxicity 3225
barrier 3224
tub 3224
tasted 3222
cocaine 3222
che 3221
01 3220
ori 3220
plague 3220
stern 3219
revision 3219
static 3219
tracked 3218
mari@@ 3218
reckon 3217
accuracy 3217
transfers 3216
vague 3216
trains 3215
blond 3214
attract 3214
chmp 3214
circulation 3213
exclusion 3213
short-term 3213
las 3213
inappropriate 3213
cting 3212
hin@@ 3210
registry 3209
egypt 3209
raid 3209
possessed 3208
ignoring 3208
corporation 3207
obey 3206
wreck 3206
hostages 3206
twenty-@@ 3205
emb@@ 3204
kennedy 3204
dia 3204
variable 3203
chick 3203
candles 3203
reflection 3202
wood@@ 3201
brake 3200
hence 3199
batteries 3199
retreat 3198
nancy 3195
translation 3194
incorporated 3194
eliminated 3194
shorter 3193
concentrations 3193
romania 3192
tonnes 3190
dam 3190
auction 3189
mining 3189
sian 3188
portugal 3187
casey 3186
seeks 3186
fs 3185
spar@@ 3182
mel 3181
ex-wife 3181
pol@@ 3180
cookies 3180
phi@@ 3178
representing 3178
one@@ 3178
tenders 3177
bul@@ 3177
cou@@ 3177
2/@@ 3177
absorbed 3177
norman 3175
riders 3174
poker 3174
considerably 3173
constitution 3171
harvey 3170
flooded 3170
hears 3170
posts 3169
twin 3169
smash 3169
hollow 3167
five-@@ 3167
justification 3167
neutral 3166
pt 3165
the-@@ 3164
dramatic 3163
ln 3163
fitted 3162
seas 3161
doug 3161
consulted 3160
ada 3160
ip@@ 3160
echo 3160
shelf 3160
voting 3159
breeze 3159
eu-@@ 3158
milli@@ 3157
bugs 3156
harbor 3155
pub 3155
tapes 3155
strings 3154
educational 3153
communicated 3152
disguise 3151
g. 3151
forests 3151
ou 3146
proportionate 3146
ically 3145
fascinating 3145
corners 3145
controlling 3144
rubbed 3144
dared 3144
subsidiary 3143
commen@@ 3142
ut@@ 3142
offense 3142
carries 3141
tically 3141
resident 3140
consists 3138
shave 3138
representation 3137
alibi 3137
rider 3137
challenging 3137
blonde 3136
1994 3136
an-@@ 3135
ll-@@ 3135
dimensions 3134
pistol 3133
lowest 3133
reserves 3132
taxi 3129
fathers 3129
virginia 3128
aaron 3128
non 3127
consistency 3127
jew 3127
spear 3125
connecting 3121
wakes 3120
o. 3120
bold 3118
eagle 3117
whi@@ 3117
ske@@ 3117
blows 3116
upward 3116
whale 3116
remembering 3116
od 3115
mou@@ 3115
hur@@ 3115
wy@@ 3113
elections 3113
doyle 3113
termination 3113
wendy 3112
05 3112
intent 3111
maps 3111
tire 3111
fying 3111
probe 3109
crawl 3109
ports 3109
kindly 3108
ise 3108
8/@@ 3108
chuckles 3107
unfortunate 3107
recognise 3107
download 3106
senate 3106
differ 3106
caesar 3105
batch 3105
fe 3104
strangely 3104
candle 3103
indicator 3103
suitcase 3103
tomb 3102
embrace 3102
soci@@ 3100
compromised 3100
victoria 3097
pi 3097
rub 3094
rumors 3094
quest 3094
widow 3092
sighs 3092
secretly 3092
concludes 3092
ative 3092
gan@@ 3092
wishing 3091
neighbour 3091
satisfactory 3089
sit@@ 3088
4-@@ 3088
explosives 3088
knives 3087
pes 3087
tina 3086
tense 3086
tar 3086
attempting 3085
sten 3084
transit 3082
stephen 3081
ce-@@ 3081
ological 3080
ata 3080
brad 3080
tapped 3080
cows 3078
mm@@ 3078
whip 3078
aviation 3077
sucks 3076
suggestion 3076
prevents 3075
suite 3075
setup 3075
annexes 3074
associations 3074
84 3074
quotas 3074
x-@@ 3073
entertainment 3073
dusty 3072
ash@@ 3072
highness 3072
fication 3070
harris 3070
shade 3070
handful 3069
conspiracy 3069
pierce 3069
subtle 3068
olive 3068
m.@@ 3068
confined 3068
squ@@ 3068
oldest 3067
ari 3067
s/@@ 3067
danced 3066
clerk 3065
sidewalk 3065
ellie 3064
sympathy 3064
symbols 3062
julie 3062
sat@@ 3062
sadly 3062
timely 3061
vest 3060
att@@ 3060
expand 3060
declarations 3060
exempt 3058
monica 3058
theme 3057
snap 3056
reasoned 3055
downtown 3055
compromise 3054
sni@@ 3054
shooter 3053
lemon 3053
ts@@ 3053
divine 3052
abused 3052
ace@@ 3052
ced 3051
marrying 3051
admire 3050
drawer 3050
4/@@ 3049
oscar 3049
feds 3048
scar@@ 3048
une@@ 3047
territorial 3047
bilateral 3046
bowed 3046
dome 3044
drained 3043
bushes 3043
straw 3042
accomplished 3041
thanksgiving 3040
1995 3040
cooperating 3038
pier 3037
forgiveness 3037
cin@@ 3035
basketball 3034
pearl 3034
predicted 3033
catholic 3033
distinguish 3033
lousy 3033
parade 3033
papa 3033
printing 3031
whipped 3030
lays 3029
repay 3029
pause 3028
converted 3028
beds 3027
arrives 3027
our@@ 3027
buck 3027
hesitate 3026
pulls 3026
ath 3026
calculating 3025
gged 3023
meals 3023
brutal 3023
reasonably 3022
temper 3022
experiments 3021
deaf 3020
slim 3020
wa 3020
cans 3019
altered 3019
organ 3019
tab@@ 3018
remembers 3018
deciding 3016
correspond 3016
julian 3015
whilst 3014
pitt 3013
healed 3012
stressed 3012
nan@@ 3012
roar 3011
portuguese 3009
was@@ 3009
74 3008
axis 3007
stripped 3006
doin 3005
spots 3005
attended 3005
blocking 3004
dessert 3004
gi 3004
maggie 3004
law@@ 3004
impacts 3003
grasp 3002
submarine 3002
columns 3000
limbs 2999
ambitious 2999
yed 2997
jedi 2996
aloud 2996
wage 2995
melt 2995
dozens 2994
bonus 2994
francis 2993
cock 2993
lessly 2992
habits 2992
congratulations 2991
ano@@ 2991
vegetables 2991
expense 2990
luxembourg 2990
advisory 2990
shrugged 2990
ree@@ 2990
measuring 2990
argues 2988
spin 2987
drill 2987
socks 2986
medal 2985
repeatedly 2985
def@@ 2984
inde@@ 2982
inadequate 2982
kri@@ 2981
enthusiasm 2981
katie 2980
tted 2980
folk 2979
davis 2979
bitches 2979
vy 2979
copper 2979
porn 2978
good@@ 2978
king@@ 2976
envisaged 2976
certification 2976
appetite 2975
canvas 2975
robes 2975
fines 2975
ited 2975
photo@@ 2975
restrictive 2975
para@@ 2974
primitive 2974
separation 2973
vince 2973
bye 2973
sequence 2970
trauma 2969
tubes 2969
witches 2969
pul@@ 2969
roommate 2968
counsel 2968
evaluated 2968
arriving 2967
glimpse 2966
frequent 2965
lings 2965
buyer 2965
acceptance 2964
flown 2964
williams 2964
ransom 2962
enabling 2962
sna@@ 2961
accompanying 2961
skinny 2959
quinn 2957
execute 2957
witnessed 2957
ici@@ 2957
2,@@ 2957
compound 2956
emission 2956
stain 2955
rusty 2955
arrows 2955
ingredients 2953
handing 2953
79 2952
toes 2951
tragic 2951
high@@ 2950
marshal 2950
dow@@ 2950
sche@@ 2950
jam 2949
welcomed 2948
bie 2948
altar 2946
whiskey 2945
porch 2944
1996 2943
sse 2943
rented 2942
hip 2942
trips 2941
ssy 2941
nit@@ 2940
patent 2940
su 2939
winds 2938
domin@@ 2938
productivity 2937
jewelry 2937
nap 2937
tribunal 2937
brow@@ 2936
stan@@ 2936
traders 2936
delays 2936
fragile 2935
manhattan 2933
fac@@ 2933
smarter 2933
extending 2933
comrade 2932
interface 2931
bubble 2930
blamed 2930
yep 2929
full-@@ 2929
venture 2928
pay@@ 2928
gal 2926
individually 2925
locate 2925
frankie 2924
semi-@@ 2924
margaret 2923
foregoing 2922
drow 2922
crop 2922
uncertain 2922
dull 2922
4.4 2922
distress 2920
geo@@ 2920
courses 2919
nigger 2919
occasions 2919
curtain 2919
educated 2919
ch-@@ 2917
footnote 2916
recommends 2916
prosecution 2916
spa 2915
rebecca 2914
lana 2913
cents 2911
ukraine 2911
sums 2910
tips 2910
doomed 2910
pipes 2909
holidays 2909
offset 2909
fond 2909
theatre 2908
foreseen 2908
descended 2906
martha 2905
actress 2903
bald 2901
explaining 2900
lic 2900
deposits 2900
mortgage 2900
audits 2899
sentenced 2899
de-@@ 2898
cowboy 2898
perimeter 2898
realm 2896
initiation 2895
magnetic 2895
breeding 2895
discount 2895
ph 2895
7-@@ 2894
confessed 2894
prick 2893
soaked 2892
risky 2892
nets 2891
specialist 2891
powered 2891
activate 2890
soap 2889
dynamic 2888
goddess 2888
assi@@ 2887
reinforced 2887
tray 2887
corporal 2886
kilometers 2886
ste 2886
6/@@ 2886
monk 2884
heroin 2883
sectoral 2883
guided 2882
stumbled 2882
pol 2881
shops 2881
franklin 2880
requiring 2879
paranoid 2879
anchor 2878
dialog 2877
fascinated 2876
9/@@ 2874
distract 2874
gn@@ 2874
ellen 2873
bab@@ 2873
hard@@ 2872
shields 2871
glu@@ 2871
pad 2871
distinctive 2871
likelihood 2870
jar 2869
formally 2869
portal 2869
clarity 2868
< 2867
lli 2865
pilots 2864
claws 2863
gossip 2863
r. 2862
meth@@ 2862
inventory 2861
asian 2860
owen 2859
valuation 2859
veterinary 2859
destined 2858
tting 2857
shipment 2857
harvard 2857
monsieur 2856
ese 2856
sol 2856
crops 2854
ven 2854
graphic 2854
severed 2854
staggered 2853
here@@ 2853
efficacy 2853
makeup 2853
spinning 2853
ny@@ 2852
continent 2851
sweep 2851
ology 2851
uniforms 2850
strikes 2850
nothin 2849
repaired 2849
hair@@ 2849
corps 2848
luxury 2848
spoil 2848
ever@@ 2847
vas@@ 2846
ami@@ 2846
baker 2846
rescued 2845
simplification 2845
ture 2844
:30 2843
ay@@ 2843
5/@@ 2843
footsteps 2842
dat@@ 2841
cing 2840
drum 2839
shells 2839
>> 2838
bran@@ 2836
sleeve 2836
jor@@ 2836
aging 2835
shrink 2835
mob 2835
damon 2834
bacteria 2834
cks 2834
swamp 2833
tumor 2833
replies 2832
complaining 2832
cannon 2832
relevance 2831
first-@@ 2831
sc 2831
makers 2829
leapt 2829
insert 2829
choosing 2827
ction 2827
imposition 2826
800 2825
gram 2825
bag@@ 2825
rot 2824
ow 2824
tional 2824
civilians 2823
paintings 2823
addresses 2823
fry 2822
independently 2822
investigated 2821
nes 2820
rushing 2820
mon 2820
3/@@ 2819
simultaneously 2814
transformation 2813
machinery 2813
praise 2813
disorder 2813
guardian 2812
backwards 2811
jointly 2811
weighed 2810
christine 2809
whispering 2809
translated 2809
troy 2808
ku 2808
ropes 2808
nt 2808
dancer 2808
graham 2806
day@@ 2804
ita 2804
overhead 2804
klaus 2801
worms 2801
way@@ 2801
alter 2800
lick 2799
squeezed 2799
flip 2799
distortion 2799
supplementary 2798
fies 2798
rash 2797
ee 2796
honeymoon 2795
elderly 2795
hypo@@ 2794
serena 2793
zoo 2792
elbow 2792
rou@@ 2792
poetry 2791
kel 2790
luc@@ 2790
dos 2789
steak 2789
matic 2789
assisted 2788
corpses 2788
happier 2787
countless 2787
abby 2786
tra 2786
mason 2785
corrupt 2785
side@@ 2784
prayers 2784
gratitude 2783
exercised 2783
abandon 2783
undercover 2783
els 2782
skirt 2781
cemetery 2781
pun@@ 2780
lads 2780
renewable 2780
stubborn 2779
bolt 2779
hard-@@ 2777
corridors 2777
lance 2777
dol@@ 2776
dou@@ 2776
sailor 2776
assurance 2775
ep 2774
celebrating 2774
elephant 2773
carrot 2773
subsidy 2773
forgiven 2772
literature 2772
farming 2771
201@@ 2771
somethin' 2770
ala 2770
characteristic 2770
photograph 2769
moist 2768
tennis 2768
rebels 2767
monthly 2767
shipping 2767
georgia 2766
russell 2765
doubted 2764
ller 2764
demanding 2764
adds 2763
evident 2762
talented 2762
bou@@ 2761
slapped 2761
broad@@ 2761
ssing 2760
projected 2758
sky@@ 2757
assholes 2757
jeans 2755
homicide 2755
250 2755
google 2755
journalist 2755
liz 2754
valued 2753
damp 2753
wig 2753
lining 2753
4.2 2752
grams 2751
traded 2751
offend 2750
heir 2750
seize 2749
airports 2749
isolation 2749
kenny 2749
fa 2748
bella 2748
pollution 2748
negotiated 2748
swi@@ 2747
translate 2747
substantially 2747
cups 2746
premium 2744
zoe 2741
vac@@ 2739
navigation 2739
tures 2739
stanley 2739
enti@@ 2738
abruptly 2737
filming 2737
carrie 2736
smoothly 2735
scars 2735
persuaded 2735
curtains 2734
120 2733
warming 2732
cam 2732
elimination 2732
veins 2731
specification 2730
ep@@ 2730
infringed 2729
freaking 2729
mont 2729
austrian 2728
PS@@ 2728
time-@@ 2727
ox@@ 2727
privilege 2726
editor 2725
aye 2725
predict 2723
armies 2722
chen 2722
characterised 2722
placebo 2721
life-@@ 2721
transportation 2721
uri@@ 2718
archer 2718
void 2717
insulin 2717
let@@ 2717
tales 2717
weaknesses 2717
console 2717
moderate 2717
martial 2716
2,000 2715
pounding 2714
tess 2714
bees 2713
immigration 2713
7/@@ 2713
tourists 2713
cross@@ 2712
employers 2712
karl 2712
floors 2711
damages 2711
tactical 2710
ath@@ 2710
associate 2709
mitch 2709
sigh 2709
junk 2709
zones 2708
pouring 2708
shuttle 2708
sustained 2708
dismiss 2707
necessity 2707
kirk 2707
mouths 2707
modest 2706
artists 2706
prayed 2705
marissa 2705
distinguished 2704
intervene 2704
clown 2704
volunteers 2704
clubs 2703
manners 2703
hit@@ 2703
-based 2702
blinded 2702
sliding 2702
outfit 2701
alike 2701
jean 2700
clenched 2699
acquire 2698
sensible 2698
sley 2697
simplified 2697
rhythm 2697
grim 2697
hanged 2697
breathed 2696
keen 2696
assessments 2695
intensive 2695
encouraging 2694
wheelchair 2694
misunderstanding 2692
zi 2692
sou@@ 2691
subsidies 2691
australia 2691
cit@@ 2691
spies 2691
p.@@ 2690
episode 2689
caroline 2689
limitation 2689
disappearance 2689
haired 2689
sci@@ 2687
cafe 2687
ai@@ 2687
alleging 2687
todd 2687
cough 2687
blair 2686
vet 2686
respectively 2686
professionals 2685
puzzled 2685
rain@@ 2685
healing 2684
coherent 2684
infusion 2684
pel@@ 2681
2.2 2681
condemned 2681
ddy 2681
wat@@ 2681
lasting 2680
olivia 2676
1.1 2676
neighbor 2675
six-@@ 2675
punk 2674
ara 2674
23@@ 2673
ined 2673
paralyzed 2673
house@@ 2672
delivering 2672
10-@@ 2671
ankle 2671
oni@@ 2671
forecast 2670
illu@@ 2669
megan 2668
raining 2668
sailed 2668
volumes 2668
wick 2667
obstacle 2667
mee@@ 2667
ruth 2667
torch 2666
t.@@ 2665
hardware 2664
puzzle 2664
betting 2663
alize 2662
wraith 2662
w-@@ 2661
transformed 2661
buttons 2661
ino 2661
ias 2661
discussing 2661
holly 2660
sw@@ 2660
finland 2660
confusing 2659
polly 2659
dering 2659
lene 2659
corrections 2659
vacuum 2658
drowning 2657
turkish 2656
duc@@ 2656
enters 2656
appreciated 2655
hannah 2655
necklace 2655
prophecy 2654
revealing 2654
beats 2653
ani 2653
sively 2653
beasts 2652
equation 2652
refugees 2652
hea@@ 2651
allowances 2650
atomic 2650
gin 2649
2.5 2648
frodo 2648
contra@@ 2648
boy@@ 2647
directors 2647
incomplete 2647
dding 2646
celebration 2646
ranks 2646
strain 2644
strengthened 2644
hear@@ 2644
net@@ 2643
consolidation 2643
pork 2642
sheldon 2642
runway 2642
rela@@ 2642
tourist 2642
summoned 2642
cho 2641
attach 2641
ranch 2641
relieve 2641
definitions 2640
booze 2640
regi@@ 2640
conver@@ 2638
rin 2638
rincewind 2637
skilled 2637
kins 2637
questionnaire 2637
pirates 2635
conflicts 2635
mage 2634
thirty-@@ 2633
alism 2632
pill 2632
innocence 2631
scenes 2630
chickens 2629
vial 2629
elegant 2628
tempted 2627
conservation 2627
urine 2627
scal@@ 2627
explicitly 2626
sensation 2625
zar@@ 2625
anticipated 2625
pil@@ 2625
ades 2623
corrected 2623
anytime 2623
lun@@ 2623
ening 2623
ram@@ 2623
second-@@ 2622
greeted 2621
ao 2621
virtue 2621
stin@@ 2619
ax@@ 2619
focusing 2618
woo@@ 2618
defensive 2618
ditch 2618
uh-huh 2616
froze 2616
conferred 2616
life@@ 2615
pug 2615
remarks 2615
irregularities 2614
ow@@ 2614
graduate 2614
fiance 2614
analysed 2613
erase 2613
bane 2612
tia 2612
1990 2611
liquidity 2611
tastes 2611
exported 2611
dumbledore 2610
surplus 2608
neil 2608
halt 2607
sized 2607
ops 2607
bud 2607
swedish 2607
gab@@ 2607
gum 2606
jerked 2605
apparatus 2605
vel@@ 2604
participated 2604
justin 2602
iso@@ 2602
ska 2602
t-shirt 2601
betty 2601
bi 2601
travelled 2601
metric 2600
bulgaria 2600
shallow 2600
declined 2600
tou@@ 2599
retain 2599
snakes 2599
indicative 2598
disappointment 2598
scotland 2595
disappearing 2595
email 2594
remedy 2593
implications 2593
hissed 2592
aw 2592
dom 2592
flu 2592
repealed 2591
cked 2591
sto 2591
requesting 2591
permits 2590
fan@@ 2589
jon 2588
exam 2588
gloom 2586
altogether 2585
leap 2585
cha 2584
nightmares 2584
freight 2584
nina 2583
consensus 2583
accounted 2582
cookie 2582
layers 2581
custo@@ 2581
undergo 2581
magazines 2580
immense 2579
edit 2579
advocate 2579
retained 2579
moore 2578
benjamin 2577
dragging 2577
swollen 2576
lawsuit 2576
delegated 2576
hungary 2576
refusing 2576
rer 2574
khan 2574
allergic 2573
hardest 2572
melted 2571
sophisticated 2571
circled 2571
soda 2570
distinct 2570
mediterranean 2569
conviction 2568
chop 2568
detention 2568
manifest 2568
rim 2568
unfounded 2567
serum 2567
glove 2566
swiss 2566
grades 2565
show@@ 2565
undertake 2565
jack@@ 2564
tearing 2564
lock@@ 2563
sodium 2563
bble 2563
gripped 2563
framed 2562
crawling 2561
1.2 2561
tomas 2560
zer@@ 2560
respects 2560
rivers 2559
jonathan 2558
involves 2558
rejection 2557
hoo@@ 2557
foam 2556
meta@@ 2556
pony 2556
offensive 2555
audio 2554
oning 2554
tle 2553
gol@@ 2552
swe@@ 2552
prospect 2552
kan@@ 2552
airline 2551
blake 2550
arrogant 2549
ola 2548
jer@@ 2547
tourism 2547
harmless 2547
situated 2546
battles 2545
introducing 2545
met@@ 2545
lamb 2545
that@@ 2544
finest 2543
biting 2542
commonly 2542
rai@@ 2541
lon 2541
mickey 2541
farms 2541
eligibility 2540
there@@ 2540
what@@ 2538
steadily 2538
worldwide 2537
renewed 2536
operative 2536
exclude 2536
manufactured 2536
occasional 2536
disproportionate 2535
burnt 2535
philosophy 2535
steven 2535
newspapers 2535
pitch 2535
potter 2534
epi@@ 2534
dental 2533
mature 2533
balcony 2532
stand@@ 2532
zy 2532
draws 2531
spaces 2531
ego 2531
gains 2530
ggle 2530
travis 2529
intimate 2529
nurses 2528
poem 2528
person@@ 2528
alisation 2528
genes 2528
stock@@ 2527
mble 2527
obtaining 2526
supper 2525
cries 2525
portion 2525
lending 2524
dev@@ 2523
vary 2523
desires 2523
discharge 2523
holdings 2523
oak 2521
couples 2521
factual 2520
significance 2519
polished 2518
probability 2518
rightly 2518
trac@@ 2518
absurd 2517
equality 2515
equ@@ 2514
rated 2514
fraction 2513
mming 2513
accommodation 2513
nas@@ 2512
edges 2512
mates 2512
fade 2512
l'il 2511
dar 2511
ethan 2510
confidentiality 2510
observer 2510
tracy 2510
gener@@ 2509
smallest 2508
generate 2507
complementary 2507
picks 2507
worded 2507
1993 2506
ut 2506
lure 2506
journalists 2505
bump 2504
crawled 2503
offence 2503
shone 2502
finances 2502
roses 2501
attributed 2500
blades 2499
ack 2499
gabriel 2499
wired 2498
west@@ 2498
with@@ 2498
sammy 2497
yield 2497
liber@@ 2496
acti@@ 2496
circular 2496
everyday 2496
maze 2496
boost 2495
wn 2493
humiliated 2492
some@@ 2491
50,000 2491
waitress 2491
pirate 2490
ecr 2490
kindness 2489
dle 2488
dc 2486
hornblower 2486
tractor 2485
deployed 2485
expanded 2484
decree 2484
play@@ 2484
xed 2483
tty 2483
dreadful 2483
acute 2482
spared 2482
blood@@ 2481
ruler 2480
assembled 2480
intervals 2480
establishes 2479
incompatible 2479
ram 2479
heated 2478
corrective 2478
secrecy 2478
allowance 2477
cn 2477
invent 2477
scanned 2477
massage 2477
surviving 2477
sco 2476
jamie 2476
exclaimed 2475
monkeys 2475
fiancee 2475
fewer 2474
theories 2474
diagnosis 2474
communist 2473
ambush 2473
responding 2473
lent 2473
profitability 2473
travelling 2472
mie 2472
wer 2471
inter-@@ 2471
distorted 2471
rita 2471
eyebrows 2471
cultures 2470
envy 2470
preceding 2470
matching 2470
legality 2468
liquor 2468
ssa@@ 2468
importers 2467
detectives 2466
challenged 2464
accelerated 2464
cker 2463
lesbian 2463
ix 2461
belonging 2461
aw@@ 2461
vel 2460
scandal 2460
certified 2459
sweater 2458
evolved 2458
recipient 2458
diversity 2458
brazil 2457
it-@@ 2457
sel 2456
10.@@ 2454
lab@@ 2454
willingly 2454
tu 2454
psychiatrist 2453
kon@@ 2453
portfolio 2453
apo@@ 2452
halloween 2452
fork 2452
organisms 2452
detection 2452
cement 2451
adri@@ 2450
om 2450
raced 2450
8-@@ 2450
rational 2449
gulf 2448
danish 2448
0-@@ 2448
ents 2448
safeguard 2447
organize 2447
hau@@ 2447
orleans 2446
confe@@ 2446
tournament 2446
dian 2446
eco@@ 2445
michelle 2445
swift 2445
rounded 2445
sucking 2444
toby 2444
light@@ 2444
druss 2443
breed 2443
wr@@ 2442
researchers 2442
maintains 2442
organism 2442
balloon 2441
pronounced 2441
amending 2441
amongst 2441
warren 2439
canadian 2438
ham@@ 2437
hooker 2437
overview 2437
dive 2437
profitable 2436
broadcasting 2436
creditors 2435
sire 2435
revenues 2435
human@@ 2435
departments 2433
syndrome 2433
leon 2433
agony 2433
dylan 2432
consist 2432
jin 2431
frog 2431
width 2431
romance 2431
businessman 2431
raymond 2431
free@@ 2430
ere@@ 2430
semester 2430
inherited 2429
shire 2429
marsh 2429
interrogation 2428
bells 2428
sparks 2427
ambition 2427
xes 2427
butcher 2427
sperm 2427
infringements 2426
bin@@ 2426
he/she 2426
explosive 2426
jill 2425
tokyo 2425
sharks 2425
wires 2424
erased 2424
dness 2424
dominated 2424
savage 2424
emi@@ 2423
penetrated 2423
bands 2422
battle@@ 2422
annoyed 2421
sore 2421
zen 2419
undoubtedly 2419
wages 2418
float 2417
take@@ 2416
atory 2415
subjected 2415
super-@@ 2415
pupils 2413
alist 2412
warden 2412
versions 2412
graves 2410
wells 2410
compliment 2410
decorated 2410
adi@@ 2409
billions 2409
proving 2409
pm 2408
inviting 2408
pencil 2407
gos 2407
experimental 2406
matrix 2406
eng@@ 2406
donald 2406
recipe 2405
antly 2405
cope 2404
nato 2403
kov 2403
sp 2403
arena 2402
fitting 2402
compartment 2402
constitutional 2402
influenced 2402
1992 2401
vil@@ 2400
genic 2400
dine 2400
gee 2399
dra 2399
ark 2399
solidarity 2398
handy 2398
deceased 2397
topic 2397
louder 2396
qua@@ 2395
sque@@ 2395
palmer 2394
inclined 2394
sickness 2393
stove 2393
gorgeous 2392
norway 2392
adaptation 2391
foul 2390
ag 2388
caring 2388
ascertain 2387
ed-@@ 2387
reed 2387
him@@ 2387
warmth 2386
inspiration 2386
wade 2385
dru@@ 2385
fer 2385
solo 2384
bes 2384
int 2383
moonlight 2381
petty 2381
blinked 2381
camp@@ 2381
jennifer 2380
brass 2379
tune 2379
lest 2379
reservations 2379
province 2378
marble 2377
ul 2376
hospitals 2376
zen@@ 2376
anderson 2376
heavens 2375
waiter 2375
pam 2375
swelling 2375
rises 2374
delta 2374
convert 2373
managers 2373
interviews 2373
smar@@ 2373
outcomes 2373
compelled 2373
jules 2372
boundaries 2372
watson 2372
cameron 2371
stained 2370
gps 2369
banging 2369
maturity 2369
measurements 2368
allegations 2368
diego 2368
cted 2368
logists 2368
committees 2368
altitude 2367
realizing 2367
sav@@ 2367
break@@ 2367
gas@@ 2367
donor 2367
rewarded 2366
gir@@ 2366
systematic 2364
possess 2364
fetch 2363
fatigue 2363
gar 2363
policeman 2363
tenth 2362
competing 2360
summit 2360
abovementioned 2360
aiming 2359
indirectly 2358
presumption 2358
pond 2357
psychic 2356
followers 2356
simplify 2355
fella 2355
tops 2355
03 2355
kno@@ 2355
mir@@ 2354
evaluate 2354
prc 2354
mafia 2354
goodness 2354
watches 2353
oring 2353
lah 2353
stray 2352
stink 2352
mankind 2352
realizes 2351
exhibition 2351
mole 2351
100,000 2350
sixty 2350
campus 2350
shoots 2349
fists 2349
kur@@ 2349
defended 2349
hr 2348
02 2348
trader 2348
visions 2347
designs 2347
striking 2347
skeleton 2346
healthcare 2345
losers 2345
-to-@@ 2345
malcolm 2345
bron@@ 2345
ordering 2344
trends 2344
judgments 2343
narrowed 2342
laptop 2342
fireworks 2341
sher 2341
cruise 2341
burger 2341
penetrate 2341
tangled 2340
locals 2340
3.2 2339
toe 2339
2nd 2339
mitchell 2338
contends 2338
porter 2337
bass 2337
segment 2337
severely 2336
confuse 2336
drying 2336
disposed 2336
ppy 2335
dough 2334
volunteer 2334
resume 2333
clues 2333
retire 2333
jan 2332
ranger 2332
short-@@ 2332
tendency 2331
04 2331
iness 2331
more@@ 2330
spectrum 2329
weigh 2329
replacing 2329
rays 2328
specially 2328
strongest 2328
bankruptcy 2328
iled 2328
wandered 2327
cm 2327
unchanged 2327
whereby 2326
reinforcements 2326
syringe 2326
ently 2326
wel@@ 2326
lump 2325
mini@@ 2325
graduated 2324
reflects 2323
1.5 2323
collins 2322
temp@@ 2322
gettin 2322
vengeance 2321
eurostat 2321
fame 2321
oun@@ 2320
unstable 2319
drugged 2318
honorable 2318
harmful 2318
24@@ 2318
keith 2318
over-@@ 2318
simpler 2317
flint 2317
needing 2316
farewell 2316
oo@@ 2316
Z@@ 2315
wizards 2315
aching 2315
clung 2315
finn 2315
spells 2314
debris 2314
posed 2314
dis 2314
master@@ 2314
valentine 2313
http 2312
noises 2312
dell 2311
bacon 2310
ith 2310
jac@@ 2310
parted 2309
realistic 2309
ase 2308
joan 2308
mice 2308
courtesy 2308
slaughtered 2308
complexity 2307
likewise 2307
sofa 2307
cer 2306
mad@@ 2306
thorn 2305
minded 2305
pets 2305
bernard 2305
warp 2305
herbert 2304
audrey 2304
?? 2304
theirs 2302
icy 2302
spun 2302
slice 2302
reg@@ 2301
percy 2301
shotgun 2300
fragments 2300
by-@@ 2299
swa@@ 2298
sexually 2298
humble 2297
swinging 2297
printer 2296
entries 2296
morgaine 2295
complied 2295
videos 2294
edps 2294
korean 2292
orb 2292
unsuccessful 2292
motor@@ 2290
qualify 2290
analyse 2289
know@@ 2289
ammunition 2289
spying 2288
starving 2288
v-@@ 2288
pee@@ 2288
lated 2287
scholarship 2287
ppers 2286
ick 2286
ruby 2286
generator 2285
interference 2285
midst 2285
sartan 2285
spark 2284
extract 2284
cruiser 2283
disclosed 2283
dallas 2283
arc 2282
cluster 2282
eighth 2281
neutr@@ 2280
brooklyn 2280
nation@@ 2280
engineers 2280
tucked 2279
deployment 2279
adopting 2279
therapist 2279
expects 2279
rs 2277
kender 2277
lame 2277
blan@@ 2277
intel 2276
ge-@@ 2276
sid 2276
forwarded 2276
06 2275
prote@@ 2274
aahz 2274
!? 2274
straightened 2272
dd 2272
tun@@ 2272
betrayal 2272
upright 2272
tab 2271
rainbow 2270
fir@@ 2270
scouts 2269
tat@@ 2269
voyage 2269
arab 2269
crook 2268
flashing 2268
urgently 2268
sunshine 2266
expelled 2266
cher@@ 2266
tha@@ 2266
dosing 2266
scratched 2265
ora 2265
pod 2265
llers 2264
stance 2264
chapel 2264
caves 2264
merchant 2264
parole 2263
perception 2263
bases 2261
interval 2259
niece 2259
disappoint 2259
insured 2258
emotionally 2258
beneficial 2257
radical 2257
steep 2256
blunt 2256
stir 2255
cracks 2255
leaf 2255
aer@@ 2253
tw@@ 2253
awaiting 2252
deli@@ 2252
systemic 2251
suggestions 2251
microphone 2250
lastly 2249
consulting 2248
hopeless 2248
affection 2248
defines 2247
cottage 2247
seizure 2247
substantive 2247
enhance 2246
rug 2246
criticism 2246
puppy 2245
mallory 2245
infinite 2244
mercedes 2243
hm 2243
blink 2242
bunny 2242
trafficking 2242
cinema 2242
fabric 2241
disputed 2241
author 2241
molecules 2241
alcoholic 2241
spoon 2241
blackmail 2241
dizzy 2240
sells 2240
experiencing 2239
legacy 2239
tier 2239
ino@@ 2239
mirrors 2238
ups 2238
illuminated 2238
lodge 2238
devastated 2238
greenhouse 2237
smen 2236
eib 2236
interaction 2236
chess 2235
dairy 2234
gau@@ 2234
no-one 2234
transplant 2233
graph 2233
galactic 2233
fading 2233
cautious 2232
shh 2232
radius 2232
samurai 2231
uneasy 2231
tively 2231
tribes 2230
bum 2230
gly@@ 2230
ises 2230
constructed 2230
upheld 2229
quin@@ 2229
risked 2229
heel 2229
bles 2228
shepherd 2227
bribe 2226
turner 2225
iso 2225
spoiled 2225
devi@@ 2224
tations 2224
poet 2223
wildly 2223
toss 2221
logan 2221
jess 2220
endure 2220
seth 2220
conventional 2219
presidency 2218
rabbits 2218
fli@@ 2218
read@@ 2218
owes 2218
mber 2217
dee 2217
picnic 2216
regain 2216
wol@@ 2215
kgb 2215
ington 2215
hut 2215
mother@@ 2215
desirable 2215
injected 2215
weakened 2214
switching 2214
mos 2214
weighing 2214
memorial 2213
rebuild 2213
sby 2213
assassination 2212
casting 2212
exhaust 2211
merry 2210
counselor 2210
reactor 2208
importantly 2207
timer 2207
travels 2207
chemistry 2207
embarrassment 2207
concession 2207
fireplace 2207
ric 2207
ona 2206
sson 2206
casual 2206
dispatch 2205
crews 2205
dam@@ 2204
grunted 2204
tical 2203
bred 2202
disable 2201
101 2201
negotiation 2200
vicinity 2200
nickname 2199
foot@@ 2199
mmer 2199
kay 2199
sailing 2199
29@@ 2199
aded 2198
troll 2198
heights 2198
cellar 2198
diameter 2198
ctor 2198
lows 2198
implies 2197
hacked 2197
nah 2197
squared 2196
morgue 2195
baley 2195
partnerships 2195
angrily 2195
tion-@@ 2194
ich 2194
motivated 2194
reporters 2193
wax 2193
amusement 2193
lawrence 2193
resort 2193
sung 2192
containers 2192
grandson 2191
brow 2191
earth@@ 2190
blue@@ 2190
contempt 2189
3.1 2189
dripping 2189
fil@@ 2188
describes 2188
miranda 2188
spice 2188
archi@@ 2187
nia 2187
kel@@ 2187
capabilities 2185
starfleet 2184
sails 2184
strapped 2184
twenty-five 2184
27@@ 2184
vodka 2184
fel@@ 2183
stu 2183
detained 2183
avi@@ 2181
treasury 2181
selective 2181
helm 2181
virtual 2181
rel@@ 2181
cau@@ 2181
seattle 2181
weary 2180
lloyd 2180
stamp 2180
dice 2180
slipping 2179
en-@@ 2179
ets 2179
outs 2178
07 2178
repairs 2178
multiply 2178
flush 2176
foods 2176
obsession 2176
disc@@ 2176
finishing 2175
peri@@ 2174
popped 2173
sleeps 2172
protects 2172
h. 2171
disconnected 2171
masks 2171
backing 2171
tara 2171
brakes 2170
doubled 2169
verse 2168
wicked 2168
presidential 2168
belgarath 2168
ensures 2168
deeds 2167
love@@ 2167
notably 2166
iced 2166
payable 2165
copied 2165
spill 2164
supposedly 2164
dissolved 2164
gur@@ 2164
tism 2164
meaningless 2164
excluding 2163
prof@@ 2163
walt 2163
covenant 2163
ibm 2162
awakened 2162
limiting 2162
limp 2162
locations 2161
humanitarian 2161
langdon 2160
var 2160
europol 2159
buck@@ 2159
mat 2159
scarf 2159
conducting 2159
dled 2158
hop 2158
elite 2158
persuade 2157
quicker 2156
naval 2156
ronnie 2156
gloria 2155
jumps 2155
0,000 2155
consolidated 2154
buys 2154
tires 2154
rebel 2152
bartender 2151
tricked 2150
vag@@ 2150
deprived 2150
tick 2149
worship 2149
secretariat 2149
surprisingly 2148
cleaner 2148
fuels 2147
taller 2147
lounge 2146
cherry 2146
chancellor 2146
anthony 2146
baked 2146
tactics 2146
gues 2146
frowned 2145
neat 2145
sounding 2145
crouched 2145
magician 2144
north@@ 2144
zy@@ 2143
mixing 2143
absorption 2143
sweaty 2141
offences 2141
onic 2141
stall 2141
dges 2141
kidnap 2140
mmy 2140
insects 2140
conceal 2140
strangled 2140
tended 2139
potato 2139
seller 2139
sturm 2138
swiftly 2138
crosses 2137
recruitment 2137
underwater 2137
bark 2137
nikki 2136
tablet 2136
presumably 2135
ored 2135
economically 2135
yu 2135
ato@@ 2134
clutching 2134
wer@@ 2134
updates 2134
forbid 2134
refuge 2133
neal 2133
highlighted 2133
night@@ 2133
ket 2132
harper 2132
bomb@@ 2132
tuna 2132
turtle 2132
irrespective 2131
dealers 2131
villages 2131
shifts 2131
sensor 2131
dope 2131
investigator 2130
dont 2130
angles 2130
tens 2129
disclose 2129
i.d. 2129
accurately 2129
centr@@ 2129
immortal 2128
acquainted 2128
amb@@ 2128
dead@@ 2128
impulse 2127
qualities 2127
discontinued 2127
politely 2126
cour@@ 2126
nelson 2126
nod 2125
refuses 2125
violation 2125
hose 2124
cycles 2124
comrades 2124
treason 2123
pepper 2121
incidence 2121
passionate 2121
magnificent 2121
successor 2120
prospects 2120
sac@@ 2119
hil@@ 2119
sheer 2118
emp@@ 2118
publishing 2118
motorcycle 2118
flashlight 2117
targeting 2117
unlimited 2117
cated 2116
goose 2116
buzz 2116
packs 2116
plains 2116
accepting 2116
baseline 2116
scrambled 2116
merits 2116
seldon 2115
bargain 2114
sailors 2113
ramp 2113
grinned 2113
lethal 2112
katherine 2112
jenna 2112
creepy 2112
oli@@ 2111
flushed 2111
boyd 2111
kee@@ 2111
obama 2110
gent 2110
allah 2109
pierre 2109
regrets 2109
smiles 2108
canyon 2108
single-@@ 2108
warnings 2107
tapping 2107
academic 2106
restaurants 2106
feathers 2106
interoperability 2106
lander 2105
will@@ 2104
pentagon 2104
hart 2104
mping 2104
greedy 2103
credibility 2103
ax 2103
ards 2102
territories 2102
scor@@ 2102
europeans 2101
protocols 2101
gaps 2101
moron 2100
ffe 2100
700 2100
cuba 2100
jewels 2099
swap 2099
os@@ 2099
sd 2099
minimal 2099
choke 2098
sonny 2098
gases 2097
installations 2097
ng 2097
perceived 2097
teenth 2096
colin 2096
kitty 2096
tipped 2096
organizations 2096
courtyard 2096
compassion 2096
comic 2096
beers 2096
authorising 2095
interpret 2095
wen@@ 2095
jazz 2094
atri@@ 2094
corresponds 2094
non-compliance 2094
stically 2094
violet 2094
captive 2093
chers 2093
concepts 2093
recruited 2093
matthew 2092
vicious 2092
sers 2091
ministers 2091
seemingly 2091
natalie 2090
river@@ 2090
bosses 2090
raises 2088
dwell 2088
reductions 2088
tiffany 2087
eth@@ 2086
tioned 2086
throws 2086
dentist 2086
arch@@ 2085
maj@@ 2085
nicky 2085
state@@ 2085
110 2085
radioactive 2084
camps 2084
aisle 2084
sme@@ 2084
documented 2084
short@@ 2084
compensate 2083
til@@ 2083
gandalf 2083
pact 2082
thunder@@ 2082
owing 2082
ort@@ 2082
kent 2082
muffled 2082
stru@@ 2081
luckily 2081
stem 2081
knelt 2080
comparing 2080
receives 2080
phoenix 2080
globe 2079
backpack 2079
vienna 2078
vian 2077
adrian 2077
bothers 2076
grove 2076
logically 2076
transposition 2076
prophet 2076
roles 2075
ura 2074
murphy 2074
mus 2074
bracelet 2074
cheaper 2073
nano@@ 2073
ankles 2072
evidently 2072
911 2071
sten@@ 2071
collateral 2071
contributing 2071
vaguely 2070
consistently 2070
modify 2070
08 2070
sneaking 2069
openly 2069
viability 2069
clone 2068
man-@@ 2067
cunning 2067
overdose 2067
rell 2067
alternatives 2067
sity 2066
minority 2066
battlefield 2066
fellas 2065
sydney 2065
jammed 2065
admired 2064
nationality 2064
yon 2064
glowed 2064
exploit 2063
releasing 2063
exceeds 2063
mona 2063
bonnie 2063
pyramid 2062
eli 2062
burg 2061
glorious 2061
valve 2061
tremendous 2061
tightened 2060
fications 2060
9-@@ 2060
pursuing 2060
repayment 2059
jude 2059
flowed 2059
myth 2058
clin@@ 2057
thirsty 2057
wander 2057
glancing 2057
cp@@ 2057
bulk 2057
hot@@ 2057
weaker 2057
ral 2057
inhabitants 2056
bronze 2056
inland 2056
clarified 2055
haw@@ 2055
list@@ 2055
douglas 2055
stack 2055
shoved 2055
ander 2054
ledge 2054
2.3 2054
cut@@ 2054
ugh 2053
fiction 2053
rumours 2053
nasa 2053
manually 2053
philip 2053
rehab 2051
urged 2051
logo 2051
diana 2051
absorb 2050
conversations 2050
typically 2050
noticing 2050
concealed 2049
undermine 2049
bauer 2049
pakistan 2049
minate 2048
analyses 2048
motionless 2048
rubbing 2046
ache 2046
ashley 2045
ale@@ 2045
infections 2045
unlocked 2043
curled 2043
pierced 2043
third-country 2043
salvation 2042
locking 2042
temperatures 2042
flock 2041
intrigued 2041
snu@@ 2041
28@@ 2041
wand 2040
ae 2040
x-ray 2040
earthquake 2040
step@@ 2039
tari@@ 2039
societies 2039
manufacture 2039
harrington 2039
touches 2039
drunken 2038
jared 2038
operates 2038
solving 2038
doom 2037
counter-@@ 2037
ju 2037
conquered 2037
deed 2037
sensitivity 2036
lowering 2036
exercises 2036
pies 2035
perfume 2035
rex 2035
frustrated 2035
fountain 2034
whores 2034
blankets 2034
specifies 2034
triple 2034
mit 2033
knot 2033
crept 2032
lf 2032
ade@@ 2032
gaining 2031
margins 2031
nish 2030
posing 2030
cane 2029
admission 2029
ud 2029
fair@@ 2029
tered 2029
violently 2029
blah 2029
lauren 2029
nonetheless 2028
worthless 2028
associates 2028
poirot 2028
belle 2027
ironic 2026
rosie 2026
poisoning 2026
shawn 2025
warmed 2025
dixon 2025
bled 2024
ggy 2024
weekly 2023
veil 2023
negotiating 2023
nur@@ 2023
buddies 2022
vein 2022
ctions 2021
grinning 2021
civilized 2021
u-@@ 2021
monks 2021
mainland 2020
recycling 2020
withdrew 2019
ss-@@ 2018
notebook 2018
lesser 2018
mbo 2017
ball@@ 2017
grounded 2017
sub 2017
shorts 2017
rag 2017
systematically 2016
spencer 2016
postponed 2015
zombie 2015
explanatory 2015
scales 2015
leverage 2014
bart 2014
hu 2013
sele@@ 2013
risking 2013
ange@@ 2012
lena 2012
lations 2012
hand-@@ 2012
aver@@ 2011
reimbursement 2011
embarrass 2011
risen 2010
nazi 2009
neglected 2009
heritage 2009
shane 2009
absent 2008
cheerful 2008
volunteered 2008
ifyou 2007
cocktail 2007
spends 2007
wormhole 2005
stretching 2004
diner 2003
coordinate 2003
kansas 2003
pillar 2002
piled 2002
starve 2001
attribute 2001
wheat 2001
convergence 2000
oro@@ 2000
gardens 1999
tel 1999
cult 1999
wit 1999
prescription 1999
guild 1998
hunch 1998
darcy 1998
syn@@ 1998
pinned 1997
ately 1997
parti@@ 1996
settling 1996
nazis 1996
f. 1995
ank 1995
specialised 1995
cyber@@ 1995
eno@@ 1995
youngest 1994
esc@@ 1994
stadium 1994
icon 1993
triumph 1993
blue-@@ 1992
dot 1992
bind 1992
riley 1992
willie 1992
u.@@ 1992
contractor 1991
trevor 1991
needles 1990
alise 1990
briefcase 1990
goa'uld 1990
naive 1990
disgrace 1989
overwhelming 1989
armored 1989
juan 1989
deduction 1989
regiment 1989
observers 1988
reader 1988
haul 1988
convenient 1987
compulsory 1987
lem 1987
degc 1987
macroeconomic 1987
abo@@ 1986
assign 1986
berries 1986
tta 1986
christopher 1986
frost 1986
reset 1985
protector 1985
entitlements 1985
stor@@ 1985
tarzan 1984
vir@@ 1984
cutter 1984
maniac 1983
loads 1983
overlooked 1983
antibodies 1983
colours 1982
ached 1981
duel 1981
shaved 1981
grabbing 1981
zzi 1981
retro@@ 1980
terminate 1980
ann@@ 1980
cigar 1980
ml@@ 1980
butler 1979
ue 1979
admissible 1979
hay@@ 1977
choked 1977
arutha 1977
fulfill 1977
zers 1976
laden 1976
oner 1976
triangle 1975
beams 1975
elaborate 1974
unclear 1974
orientation 1974
configure 1974
log@@ 1974
insolvency 1973
combine 1973
lag 1973
limitations 1972
sos 1972
disc 1972
not@@ 1972
colon 1971
at-@@ 1971
vich 1971
archives 1970
cautiously 1970
productive 1969
cyprus 1969
remainder 1969
briefing 1968
unexpectedly 1968
coherence 1967
womb 1967
allen 1967
merge 1967
sessions 1967
spin@@ 1966
ite@@ 1966
dal 1966
disagree 1965
rolls 1965
strap 1965
phillip 1965
ria 1965
oured 1965
ful@@ 1964
exotic 1964
flared 1964
cooperative 1963
electro@@ 1963
supernatural 1963
courier 1962
sovereign 1962
mri 1962
repeating 1962
fertility 1962
cally 1962
lookin 1961
apples 1961
grimly 1961
battered 1961
wit@@ 1960
sarge 1959
astonishment 1959
wto 1959
entitlement 1958
boun@@ 1958
oz 1958
alicia 1958
displays 1957
swam 1956
pricing 1956
mide 1956
connor 1955
convoy 1955
bizarre 1955
reminding 1954
defining 1954
janet 1954
straighten 1953
embedded 1953
lust 1953
tolerance 1953
ris 1953
welcomes 1952
reminder 1952
deterioration 1951
tones 1951
sponsor 1950
vagina 1950
abra@@ 1950
poles 1950
coo@@ 1949
moisture 1949
tel@@ 1949
tle@@ 1949
bubbles 1948
usa 1948
velvet 1948
shirts 1947
sweating 1947
nervously 1947
clarification 1946
bbed 1946
ral@@ 1946
pairs 1945
vaccination 1945
rival 1945
heap 1945
mina 1945
mute 1943
suspicions 1943
wagons 1943
gg 1943
pledge 1943
cas 1943
surprises 1943
ffle 1942
gibbs 1941
inevitably 1941
quarantine 1941
practi@@ 1941
wre@@ 1941
bloo@@ 1941
kle@@ 1940
hiring 1940
spock 1940
contaminated 1940
satellites 1940
audition 1940
lay@@ 1939
viable 1939
gwen 1939
capacities 1939
bombing 1938
kre@@ 1938
clean@@ 1938
crowds 1937
irony 1937
noah 1937
burke 1936
smuggling 1936
agnes 1936
publicity 1936
abducted 1934
crippled 1934
commanding 1933
n't@@ 1932
lian 1932
sunny 1931
buffalo 1931
shifting 1931
brooke 1931
mentor 1931
rogue 1931
om@@ 1931
labels 1931
suspend 1931
surgical 1930
figuring 1930
leslie 1930
freddy 1929
tucker 1929
conten@@ 1929
hesitation 1929
gardener 1929
trophy 1929
ship@@ 1928
croatia 1928
paces 1927
winding 1927
casually 1926
gasped 1926
coastal 1926
stuart 1926
5.1 1926
elder 1925
lacking 1925
antonio 1925
tory 1924
ot@@ 1924
poses 1924
anim@@ 1924
fit@@ 1923
b.@@ 1923
brandy 1923
platoon 1923
vul@@ 1923
optional 1922
robbing 1922
rack 1922
legends 1922
confronted 1922
arnie 1922
3,000 1921
imf 1921
genetically 1921
towns 1921
staircase 1921
tile 1920
reliability 1920
produces 1920
unions 1920
compass 1919
expanding 1919
lot@@ 1919
array 1919
eighteen 1918
portrait 1918
orphan 1917
championship 1917
resistant 1916
lee@@ 1916
lyn@@ 1916
vector 1916
hats 1916
drake 1916
circling 1916
toranaga 1915
vomiting 1915
mark@@ 1915
canal 1914
willingness 1914
irregular 1914
beautifully 1914
dest 1914
school@@ 1913
superiors 1913
urgency 1913
efta 1913
gue 1912
k. 1912
1000 1912
09 1912
atlantis 1911
screens 1911
addicted 1911
depart 1910
dit@@ 1909
credits 1909
too@@ 1909
bby 1909
apartments 1908
explicit 1908
tackle 1908
malfunction 1908
sandwiches 1908
heart@@ 1907
caps 1906
marketed 1906
stakes 1906
www.@@ 1906
controller 1905
hockey 1905
awfully 1904
credible 1904
determines 1903
delight 1903
sanctuary 1903
graduation 1903
wallace 1903
vis-a-vis 1902
appoint 1901
surveys 1901
repe@@ 1901
rotting 1901
teenager 1900
talents 1900
mick 1900
clicking 1900
celebrated 1899
appellants 1899
0/@@ 1899
sideways 1899
ten-@@ 1899
thirteen 1897
circuits 1897
equals 1897
bruises 1897
varieties 1897
consisting 1897
revolutionary 1897
greet 1896
exemptions 1896
tsi 1895
lottery 1895
becky 1895
ruining 1895
hack 1895
fulfilling 1894
imper@@ 1894
writers 1894
visibility 1893
mattress 1893
ler@@ 1893
reflecting 1893
lens 1893
ignorant 1892
spike 1892
unemployed 1892
contamination 1891
hotels 1891
accuse 1891
diane 1891
boiling 1891
elders 1890
floated 1890
rever@@ 1890
rob@@ 1890
donkey 1890
e-mails 1890
panties 1890
enlargement 1890
screwing 1890
smi@@ 1889
muslim 1889
talkin 1889
sinking 1888
outlined 1888
cali@@ 1888
exporters 1888
honesty 1887
purchases 1887
lester 1887
ion 1887
alists 1886
foundations 1886
addict 1885
ice-@@ 1885
slower 1885
participant 1884
tolerate 1884
shelves 1884
viewed 1884
continuation 1884
blouse 1883
colon@@ 1883
awe 1883
tch 1882
hairy 1882
ela 1882
power@@ 1882
-and-@@ 1881
schi@@ 1881
arises 1881
hagrid 1881
ama 1880
olympic 1880
treats 1880
authorisations 1880
sl@@ 1879
inject 1879
nailed 1879
kung 1879
roman@@ 1879
lions 1879
merged 1878
hepatic 1878
benny 1878
raft 1877
thered 1876
restrict 1876
kosovo 1876
26@@ 1875
descent 1875
ratings 1874
persistent 1874
scha@@ 1873
stating 1873
sour 1873
lone 1872
deepest 1871
behaving 1871
parks 1871
after@@ 1871
melting 1870
flattered 1870
explanations 1870
levy 1870
albeit 1870
conquer 1869
wiping 1869
overseas 1868
violated 1868
resi@@ 1868
suppressed 1868
broader 1867
rho@@ 1867
giants 1867
meaningful 1867
full-time 1867
precision 1866
o.@@ 1866
sher@@ 1866
closes 1866
ginger 1865
humiliation 1865
joel 1865
d.c. 1864
squadron 1864
floyd 1864
bending 1864
morris 1864
lever 1863
wrists 1863
ffs 1863
stella 1862
incoming 1862
fries 1862
fol@@ 1861
anda 1861
rum@@ 1861
stamped 1861
villa 1861
barnes 1861
cylinder 1860
romans 1860
drift 1860
crab 1860
concomitant 1860
kir@@ 1859
oriented 1859
scans 1858
black-@@ 1858
architecture 1858
satisfying 1857
12.@@ 1857
supportive 1857
fuhrer 1857
astonished 1857
sentences 1857
reli@@ 1856
deliberate 1856
1.3 1856
historic 1855
yacht 1855
lyn 1855
eye@@ 1855
pig@@ 1854
interviewed 1854
shipped 1854
reproduction 1854
lacked 1854
widespread 1854
pops 1854
congratulate 1853
perfection 1853
felix 1853
subject-matter 1853
cleveland 1853
door@@ 1853
induced 1853
brit@@ 1852
subconscious 1852
claw 1852
rockets 1852
daisy 1852
ignorance 1852
chew 1851
geno@@ 1851
beck 1850
trusting 1850
databases 1850
4.3 1850
ras 1850
fishermen 1849
courtroom 1849
diving 1848
viewers 1848
ouring 1848
resigned 1848
hector 1848
invention 1847
frightening 1847
occupation 1846
dangers 1846
vera 1846
cripple 1846
shannow 1845
S@@ 1845
glittering 1844
homer 1844
households 1843
acceleration 1843
tow 1843
supplemented 1843
astro@@ 1843
bridges 1843
springs 1842
subsidiaries 1842
zel 1841
cfsp 1840
of-@@ 1840
citizenship 1840
vegetable 1840
old-@@ 1840
inquiry 1839
calmed 1839
fastest 1839
conceived 1838
infer@@ 1838
oni 1837
deadlines 1837
cube 1837
crude 1837
hugged 1837
ballet 1836
presently 1836
complement 1836
thy@@ 1836
!@@ 1835
longest 1835
fortunate 1835
2004/@@ 1834
ania 1834
1991 1834
escal@@ 1834
ar-@@ 1834
cers 1834
twi@@ 1834
4.8 1834
chan 1833
stirred 1833
ter-@@ 1833
exchanges 1833
thar@@ 1833
bull@@ 1833
mah@@ 1833
co2 1832
painter 1832
clearer 1832
gui@@ 1832
witz 1831
thirst 1831
driveway 1831
salmon 1831
discarded 1831
cooling 1830
prostitute 1830
dden 1829
thigh 1829
grandchildren 1829
artery 1829
denver 1828
bake 1828
leaflet 1828
panels 1827
plunged 1827
11@@ 1827
panicked 1826
nou@@ 1826
ases 1826
marijuana 1826
elliot 1826
villagers 1825
wonders 1825
chopper 1825
hanna 1825
ities 1825
reluctant 1825
poultry 1825
behaved 1825
fusion 1825
foreman 1824
hurricane 1823
aci@@ 1823
gradual 1823
shocking 1822
razor 1822
snatched 1822
misses 1822
107 1822
comedy 1821
seldom 1821
heh 1821
temptation 1821
dexter 1820
marco 1820
policemen 1820
allison 1820
racist 1819
gina 1819
aback 1819
materi@@ 1819
band@@ 1818
costly 1818
clip 1818
harrison 1818
miracles 1818
mercury 1818
wash@@ 1817
unto 1817
emerge 1816
occupy 1816
optimal 1816
mans 1816
husbands 1816
donors 1816
parameter 1815
nitrogen 1815
fellows 1815
angelo 1815
designate 1814
reali@@ 1814
brody 1813
conservative 1813
legged 1813
elven 1813
gul@@ 1813
pumped 1813
insulted 1812
D@@ 1811
heroic 1811
prominent 1811
chewing 1811
madman 1811
5.2 1811
solitary 1810
capsule 1810
stag@@ 1809
year@@ 1809
ante 1809
forge 1809
cultivation 1809
outlook 1808
hungarian 1808
cunt 1808
traditions 1807
cousins 1807
torment 1806
susannah 1806
interrupting 1806
verdict 1806
exporter 1805
louise 1805
synthetic 1805
morality 1804
dus 1804
veri@@ 1804
timetable 1803
downward 1803
continuously 1803
jam@@ 1802
logs 1801
fron@@ 1801
interruption 1800
tribal 1800
poli@@ 1800
revelation 1799
norwegian 1799
csa 1799
fart 1798
bodyguard 1798
detroit 1798
ret 1798
gic 1798
tness 1797
fix@@ 1797
enables 1797
jud@@ 1797
sible 1796
rains 1796
ising 1796
ida 1796
andre 1796
j.@@ 1795
descending 1795
shrimp 1795
repu@@ 1795
coroner 1795
holl@@ 1794
distraction 1794
mattered 1794
sorting 1794
disappears 1793
trick@@ 1793
dex 1792
mineral 1792
uring 1792
pharmacist 1792
conjunction 1792
turing 1792
mau@@ 1791
pensions 1791
alities 1791
reversed 1791
bounce 1790
thoughtful 1790
departed 1790
itated 1790
cc@@ 1789
cs@@ 1789
harmony 1789
tto 1789
beta 1788
ee@@ 1788
cel@@ 1788
set@@ 1788
fertili@@ 1788
exhaustion 1787
scratching 1787
integral 1786
sharon 1786
manny 1786
accepts 1786
barking 1786
ferry 1786
rio 1786
104 1784
threatens 1784
six@@ 1784
circumstance 1784
quantitative 1783
gestured 1782
fleeing 1782
dresses 1782
south@@ 1782
permissible 1782
werewolf 1782
pac@@ 1781
dispose 1781
attic 1780
crushing 1780
goats 1780
row@@ 1779
traps 1779
devastating 1779
ree 1778
precinct 1778
3,@@ 1778
spinal 1778
residual 1777
confront 1777
melanie 1777
ous@@ 1777
fletcher 1775
jaws 1775
density 1775
chooses 1775
reacted 1775
poorly 1775
slot 1775
quar@@ 1775
co-operation 1774
reacher 1774
riot 1774
moon@@ 1774
transmitter 1773
r.@@ 1772
span@@ 1772
mills 1772
apologies 1772
vanessa 1772
zel@@ 1771
mped 1771
cheering 1771
auxiliary 1771
reckless 1771
inhabited 1770
brushed 1770
ica 1770
white-@@ 1770
hammond 1769
sum@@ 1769
comparative 1769
isa 1769
wag@@ 1769
explorer 1769
assa@@ 1769
unsub 1769
flung 1768
aria 1768
drifting 1768
graphy 1768
publisher 1768
committing 1767
attraction 1767
ev 1767
ict 1767
quantum 1767
bypass 1766
retarded 1766
precautions 1766
hips 1766
comin 1766
accomplish 1765
veronica 1764
sincere 1764
patiently 1764
liam 1764
n. 1764
initi@@ 1764
optimi@@ 1763
proposing 1763
lessness 1763
forged 1763
4.5 1763
derogations 1762
preclude 1762
dissemination 1762
leve@@ 1762
discharged 1762
kane 1762
draw@@ 1761
noting 1761
landlord 1761
scores 1761
facebook 1761
scotch 1760
expressions 1760
sebastian 1760
theoretical 1760
denying 1760
heather 1760
filing 1760
wholly 1759
stefan 1759
d-up 1758
isaac 1758
resignation 1758
supplement 1758
thanked 1758
preceded 1758
nutrition 1758
have@@ 1757
kan 1757
mb 1757
summon 1756
encrypted 1756
ank@@ 1756
bailey 1756
preparatory 1755
beau@@ 1755
mummy 1755
brandon 1754
sof@@ 1754
budgets 1754
craig 1754
perceive 1754
sniper 1753
wri@@ 1752
downloaded 1752
contracted 1752
debbie 1751
disguised 1751
drifted 1751
manipulate 1750
buyers 1750
lur@@ 1749
good-@@ 1749
ono@@ 1749
bounced 1749
iser 1749
4.1 1749
seizures 1748
clara 1748
halls 1748
embo@@ 1748
bb 1748
substitute 1748
banana 1748
saves 1748
gasoline 1748
reunion 1747
hastily 1747
petro@@ 1747
bay@@ 1747
railroad 1747
ency 1746
easter 1746
survivor 1746
rum 1746
1st 1746
imposing 1746
handcuffs 1745
curtis 1745
barracks 1745
armour 1745
universities 1745
starling 1744
massacre 1744
transmit 1744
tricky 1743
shutting 1743
tious 1743
kaspar 1742
crate 1742
advances 1742
pro-@@ 1742
exile 1742
leton 1742
kit@@ 1742
adrenaline 1741
trolls 1741
alex. 1741
tobin 1741
swell 1741
anks 1741
neighbourhood 1740
ances 1740
outset 1740
blood-@@ 1740
continuity 1740
sausage 1739
breached 1739
sixteen 1738
rental 1738
sings 1738
norton 1738
eness 1738
ists 1738
whales 1737
ado@@ 1737
nedra 1736
hides 1736
ray@@ 1736
municipality 1736
samantha 1736
adventures 1735
pd 1735
creek 1735
boxing 1735
stationed 1735
alerted 1735
coup 1735
hiv 1735
alization 1734
diabetes 1734
debtor 1734
braking 1734
audited 1734
throats 1734
ashore 1734
pie@@ 1734
ripe 1733
itch 1733
ab 1733
coldly 1732
murderers 1732
storms 1732
incidents 1732
tus 1732
clad 1732
groom 1732
emergence 1731
.a. 1731
imperative 1731
acquis 1731
twenty-four 1730
tex@@ 1730
how@@ 1730
submissions 1730
gifted 1730
thompson 1729
ender 1728
notwithstanding 1728
nominal 1728
ninth 1728
yan 1728
raging 1728
stal@@ 1728
jen@@ 1727
spiral 1727
fruits 1727
2001/@@ 1727
monastery 1727
nausea 1726
winston 1726
bau@@ 1726
cavalry 1726
dog@@ 1726
thereafter 1725
fills 1725
jewel 1725
legendary 1725
thoughtfully 1725
dense 1725
chronic 1725
bli@@ 1724
reviews 1724
invaded 1723
imaginary 1722
pervert 1722
kurt 1721
traditionally 1721
pp 1721
vii 1721
curved 1721
safeguards 1720
registers 1720
kick@@ 1719
faggot 1718
practicing 1718
politically 1717
liberal 1717
renewal 1717
like@@ 1717
mation 1717
pillars 1716
keyboard 1716
shack 1716
biodiversity 1716
easiest 1715
tum 1715
drums 1715
pharmaceutical 1715
beacon 1715
gravel 1715
modes 1715
beat@@ 1715
eries 1715
^ 1714
amateur 1714
stimulate 1714
purity 1714
memorandum 1714
understandable 1714
infant 1714
fourteen 1713
outnumbered 1713
attacker 1712
greed 1712
regre@@ 1712
cke@@ 1711
platforms 1711
nursing 1710
luci@@ 1710
authentic 1710
planetary 1710
deposited 1710
wheel@@ 1709
underway 1709
coughing 1709
ration 1708
blurred 1708
mansion 1708
cables 1708
resumed 1707
urs 1707
dir@@ 1707
exaggerated 1707
ea 1706
bility 1706
marched 1705
clarke 1705
sus 1705
admissibility 1705
vile 1705
proteins 1705
undergone 1704
thri@@ 1704
bender 1704
kai 1704
vorkosigan 1703
linking 1703
white@@ 1703
smelling 1702
protested 1702
sleepy 1702
kha@@ 1702
structured 1702
gger 1701
presumed 1701
bumped 1701
restart 1701
alternate 1701
viral 1701
tioning 1700
dless 1700
retrieve 1699
diver@@ 1699
bell@@ 1699
slowing 1699
cking 1698
sea@@ 1698
cas@@ 1698
twilight 1698
sabotage 1698
withstand 1698
kru@@ 1698
20,000 1698
treaties 1698
hazard 1698
therapeutic 1697
foreigners 1697
lace 1697
fare 1696
exp@@ 1696
tails 1696
bounty 1696
nicholas 1696
dging 1696
remarked 1695
egyptian 1695
mast 1695
plo@@ 1694
snack 1694
relies 1694
slan@@ 1694
hedge 1694
cruci@@ 1694
pipeline 1693
battalion 1693
comb 1693
biology 1692
extraction 1692
ethical 1692
coats 1692
psycho 1692
junkie 1692
agu@@ 1692
queue 1691
documentary 1691
cooled 1691
rap@@ 1691
query 1691
colorado 1691
bicycle 1691
sie 1691
ageing 1691
tives 1691
limb 1691
hn 1690
speculation 1690
foo@@ 1690
diminished 1689
behold 1688
queens 1688
hell@@ 1688
your@@ 1688
disability 1687
raven 1687
insignificant 1687
hound 1687
diagnosed 1686
superman 1686
imprisoned 1686
statutory 1686
sau@@ 1686
squir@@ 1686
sunrise 1686
jessie 1686
mug 1685
intervener 1685
ty-@@ 1685
prosperity 1685
hawaii 1684
peaks 1684
complications 1684
nicer 1683
casualties 1683
gericht 1683
sleeves 1683
end@@ 1682
asse@@ 1682
gmbh 1682
aga@@ 1681
toilets 1681
nee@@ 1681
surge 1681
iri@@ 1680
ft@@ 1680
masked 1679
ragged 1679
testified 1679
moni@@ 1679
dvd 1678
say@@ 1678
announcer 1678
mg/@@ 1677
bites 1677
listing 1676
lenny 1675
conditional 1675
phen@@ 1675
residue 1674
efficiently 1674
maya 1674
crashing 1674
dable 1674
crane 1674
distortions 1673
weekends 1673
evacuate 1673
websites 1672
chicks 1672
mushrooms 1672
template 1672
schengen 1672
favors 1672
horns 1671
widened 1671
light-@@ 1671
benefited 1671
genuinely 1671
d.a. 1671
violate 1671
gig 1671
bc 1670
echoed 1670
2003/@@ 1670
insight 1669
annulled 1669
roared 1669
financially 1669
numb 1669
w. 1669
infirmary 1669
chin@@ 1668
dipped 1668
tex 1668
gasping 1668
unaware 1668
bac@@ 1668
sofia 1667
gamble 1667
disrupt 1667
crust 1667
weaken 1667
deca@@ 1667
clumsy 1667
go-@@ 1666
neighbours 1666
hobby 1666
haircut 1666
outline 1666
stoned 1666
ethics 1666
submitting 1666
toll 1666
pc 1666
houston 1665
bbled 1665
monroe 1665
profound 1665
iceland 1665
bricks 1665
mule 1664
cp 1664
slovakia 1664
napoleon 1664
darker 1664
clyde 1664
bowling 1663
atro@@ 1663
undergoing 1663
disasters 1662
woken 1662
appearing 1662
finals 1661
practiced 1661
musicians 1660
bows 1660
conce@@ 1659
gauge 1659
electromagnetic 1659
servers 1659
fin 1658
thailand 1658
activation 1658
epidemic 1658
portable 1658
resign 1658
guarding 1657
endured 1657
willow 1657
proudly 1657
sever@@ 1657
ei 1656
slavery 1656
das 1656
poisonous 1656
darkened 1656
deci@@ 1655
impaired 1655
respectable 1655
pinch 1655
suppress 1655
flee 1655
tremble 1654
remotely 1654
sorrow 1654
alter@@ 1654
seals 1654
carson 1654
llin 1654
countess 1654
admiration 1654
teresa 1653
informal 1653
glue 1653
disciplinary 1653
vor 1652
electrons 1652
amsterdam 1652
teenage 1651
randall 1651
winters 1650
cir@@ 1650
g.@@ 1650
tac 1650
batman 1649
ridden 1649
necks 1649
rebellion 1649
ribbon 1649
fuss 1648
ille 1648
madison 1648
bunk 1648
rico 1647
barrels 1647
harmed 1647
voters 1647
rendezvous 1647
postal 1646
flat@@ 1646
supervised 1646
monopoly 1645
antibiotics 1645
hospitality 1645
investing 1644
jur@@ 1644
modification 1644
sunk 1644
firstly 1644
tman 1643
bates 1643
amusing 1643
constituted 1643
chester 1643
failures 1643
workshop 1642
lured 1642
<< 1642
bene 1641
moses 1641
sued 1641
nursery 1640
ov@@ 1640
l.@@ 1640
gle@@ 1640
180 1640
atten@@ 1639
jon@@ 1639
broom 1638
hang@@ 1638
narcotics 1638
postpone 1638
wic@@ 1637
edi@@ 1637
yar@@ 1637
tate 1637
right-@@ 1637
physician 1637
deb 1637
addiction 1637
comfortably 1637
appropriately 1637
terrifying 1637
nostrils 1636
conditioning 1636
skipped 1636
aks 1636
versus 1636
lasts 1636
arizona 1636
ms@@ 1635
kisses 1635
harassment 1635
commissioned 1635
hangs 1635
ading 1634
laboratories 1634
immigrants 1634
marching 1634
atlanta 1634
bananas 1634
explored 1634
prob@@ 1634
rie 1634
crooked 1633
wrongly 1633
passive 1633
minimise 1633
good-looking 1633
classi@@ 1633
pouch 1633
excuses 1632
ambushed 1632
dg@@ 1632
naughty 1632
whe@@ 1632
sensi@@ 1631
nik 1631
scarcely 1630
dominic 1630
pick@@ 1630
est@@ 1629
impe@@ 1629
browser 1629
roast 1629
gia 1629
sing@@ 1628
defe@@ 1628
vatican 1628
stool 1628
dossier 1628
#@@ 1628
miguel 1628
kle 1628
cardiac 1628
accumulated 1628
fts 1628
newton 1627
alec 1627
wrath 1627
alizing 1627
denise 1627
avenge 1626
tunic 1626
coefficient 1626
carmen 1626
intercepted 1626
telecommunications 1625
borg 1625
notices 1625
scored 1625
neatly 1624
morrison 1624
grail 1624
mortality 1623
exempted 1623
meredith 1623
proceeding 1623
moder@@ 1623
scroll 1623
abortion 1622
aling 1622
lunatic 1622
oversight 1621
brett 1621
sticky 1621
hardened 1621
sex@@ 1621
dling 1620
disadvantage 1620
cell@@ 1620
ain 1620
hurled 1620
upgrade 1620
screening 1620
goblins 1619
nsa 1619
wool 1619
accelerate 1618
focuses 1618
beckett 1618
daneel 1618
tom@@ 1618
viewing 1618
nal 1618
deser@@ 1617
you-@@ 1617
choking 1617
feedback 1617
ured 1617
wealthy 1616
edition 1616
infe@@ 1616
hum 1615
ffy 1615
resisted 1614
varies 1614
blur 1614
aft 1614
regulate 1613
parliamentary 1613
flynn 1612
30-@@ 1612
rig@@ 1612
lipstick 1611
gregor 1611
refugee 1611
crossbow 1611
therein 1611
judy 1611
acknowledges 1611
shrine 1611
holland 1610
photographer 1610
caravan 1610
mr@@ 1610
spiders 1609
ramsay 1609
phoebe 1609
vir 1609
euros 1608
arian 1608
rotation 1608
excellency 1608
ess@@ 1607
cooler 1607
describing 1607
readily 1607
zach 1607
terrific 1607
ingredient 1607
fiona 1607
fugitive 1606
3rd 1606
rock@@ 1606
subheading 1605
frequencies 1605
irritated 1605
kh@@ 1605
eleanor 1605
lina 1604
kidneys 1604
tripped 1604
drawings 1604
chang 1604
unused 1604
jealousy 1603
politician 1603
tropical 1603
hen 1603
treatments 1603
dynamite 1603
mint 1603
gideon 1603
umbrella 1603
bursting 1602
wedge 1602
confirming 1602
fic@@ 1602
wong 1602
than@@ 1602
perry 1602
dity 1601
graph@@ 1601
eurozone 1601
aff@@ 1601
claudia 1601
accountant 1600
nope 1600
meteor 1600
noses 1600
tc 1600
delegations 1599
surf 1599
J@@ 1599
sweeping 1599
conrad 1599
insect 1599
brennan 1598
contributes 1598
sar 1598
neighbouring 1598
rap 1598
remark 1597
safe@@ 1597
alarmed 1597
filmed 1597
underlined 1596
kni@@ 1596
stered 1596
apologized 1595
ind 1595
posi@@ 1595
populations 1594
physi@@ 1594
neu@@ 1594
modules 1594
vice-president 1594
elle 1593
males 1593
waits 1593
commerce 1593
preservation 1592
searches 1592
administrations 1592
downstream 1592
ranging 1592
shovel 1592
anita 1591
cc 1591
exceptionally 1591
applause 1591
38@@ 1591
whatsoever 1590
bats 1590
sizes 1590
humiliating 1590
spacecraft 1590
surroundings 1590
unity 1590
dodge 1590
stunning 1589
unacceptable 1589
militia 1589
fif@@ 1588
H@@ 1588
furiously 1588
chal@@ 1588
frontier 1588
unusually 1588
marina 1588
messy 1588
profiles 1588
peer 1587
kol@@ 1587
steroids 1587
selecting 1587
campaigns 1587
bully 1587
telegram 1586
polar 1586
coral 1586
monitors 1585
preacher 1585
daring 1585
siege 1585
investigators 1585
hooks 1585
baggage 1584
imply 1584
norma 1584
ware 1584
n.@@ 1584
antidote 1583
proceeds 1583
druid 1583
fremen 1583
lydia 1583
potion 1583
preference 1582
enforce 1582
conne@@ 1582
utter 1582
beverly 1582
ttered 1582
loosen 1582
moss 1582
unite 1582
illegally 1582
pointless 1581
exposures 1581
nn 1581
stranded 1581
hysterical 1581
rough@@ 1580
vocational 1580
lifelong 1579
info 1579
seminar 1579
hughes 1579
licensing 1579
recovering 1578
stupidity 1578
brands 1578
accommodate 1578
vocal 1578
pounded 1578
sniffed 1577
redemption 1577
wu 1577
huddled 1577
tail@@ 1577
motives 1576
vacant 1576
pens 1576
ming@@ 1576
projections 1576
type-approval 1576
lier 1576
creep 1575
aqu@@ 1575
collabor@@ 1575
undo 1575
borrowing 1575
privileges 1575
web@@ 1574
gl@@ 1574
auto 1574
bitterly 1574
streams 1574
deceive 1574
vowed 1574
reduces 1574
jen 1573
aligned 1573
flour 1573
planting 1572
sab@@ 1572
naomi 1571
roma 1571
breakthrough 1570
mut@@ 1570
blend 1570
rey 1570
millennium 1570
jab@@ 1570
horse@@ 1569
descendants 1569
mics 1569
itation 1569
benedict 1568
ppe 1568
len 1568
seventeen 1568
blinking 1568
tali@@ 1568
wl 1568
homeland 1567
abraham 1567
saints 1567
skins 1566
admitting 1566
analytical 1566
hauled 1566
ity-@@ 1566
even@@ 1565
recruit 1565
cathy 1565
restraint 1565
factories 1565
electronics 1565
engulfed 1565
bal 1565
nel 1564
ish 1564
adjacent 1564
starters 1564
telescope 1563
pho@@ 1563
fas@@ 1563
self-defense 1563
facial 1562
morphine 1562
prevail 1562
dea 1562
mobili@@ 1562
balancing 1562
earliest 1562
gang@@ 1561
kas 1561
lars 1561
blazing 1560
leu@@ 1560
bets 1560
dder 1559
rodney 1559
cti@@ 1559
sion@@ 1559
andrea 1558
first-class 1558
costumes 1558
barred 1557
inger 1557
hybrid 1557
mato@@ 1557
liner 1557
calcium 1557
miss@@ 1557
joshua 1556
fisher 1556
inspire 1556
chil@@ 1556
tori@@ 1555
cian 1555
disgusted 1554
scaring 1554
sali@@ 1554
thighs 1554
viruses 1554
disa@@ 1554
scissors 1554
ofthe 1553
intermediate 1553
skies 1553
20-@@ 1553
securing 1553
complies 1553
zack 1553
buffer 1552
20th 1552
gation 1552
wholesale 1552
banished 1552
towels 1552
beliefs 1552
jonesy 1552
unarmed 1552
solvent 1552
logged 1552
importer 1552
span 1551
bloom 1551
micro-@@ 1551
broadway 1551
tow@@ 1551
exploring 1551
completing 1551
meadow 1550
edgar 1550
teaches 1550
slopes 1550
sv@@ 1550
occurrence 1550
helicopters 1550
asteroid 1549
wee 1549
bruenor 1549
mailbox 1549
horny 1549
regretted 1549
avatar 1549
nodding 1548
launching 1548
bouncing 1548
frustration 1548
cordelia 1547
co-financing 1547
kara 1547
hh 1547
hath 1547
chet 1547
oper@@ 1547
philadelphia 1547
get@@ 1547
tang@@ 1546
phantom 1545
evan 1545
whereabouts 1545
meg 1545
gown 1544
ella 1544
countryside 1544
harvested 1544
bunker 1544
copyright 1544
haze 1544
distribute 1544
exhaustive 1544
imagining 1544
prolonged 1544
finch 1543
wee@@ 1543
shor@@ 1543
abyss 1543
blow@@ 1543
females 1542
mused 1542
maine 1542
tos 1542
une 1542
space@@ 1541
narrator 1541
crawford 1541
lex@@ 1541
bathed 1541
manifestly 1541
inherit 1540
strom 1540
pancakes 1540
chorus 1539
adams 1539
hilt 1539
peasants 1539
consultant 1539
rene 1539
manipulated 1539
broadly 1539
sane 1538
bot@@ 1538
freezer 1538
coded 1538
provoke 1537
purchasing 1537
employ 1536
unpredictable 1536
gold@@ 1536
112 1536
einstein 1535
constraints 1535
almighty 1535
ill@@ 1535
madrid 1535
karma 1535
mathematical 1534
endangered 1534
kira 1534
sie@@ 1534
christ@@ 1534
limo 1534
christians 1533
entirety 1533
momentum 1533
momentarily 1533
fresh@@ 1533
progressive 1533
iler 1533
cosmic 1532
vie@@ 1532
come@@ 1532
interventions 1532
900 1532
filters 1532
cakes 1532
yang 1532
milit@@ 1531
camping 1531
boulder 1531
speeding 1531
scrap 1530
garlic 1530
zane 1530
lles 1529
spectacular 1529
eria 1529
mitigate 1529
ane@@ 1529
puppet 1529
aggre@@ 1528
bathing 1528
199@@ 1528
commented 1527
collision 1526
tol@@ 1526
anticipate 1526
7th 1526
lim@@ 1526
entertain 1525
Shi 1525
rubble 1525
consume 1525
mustache 1524
evaluations 1524
insists 1524
sacrifices 1524
enhancing 1523
hairs 1523
stra 1523
nightfall 1523
emptied 1523
dele@@ 1523
rides 1523
fulness 1523
intersection 1522
adjusting 1522
rek 1522
chimney 1522
ati@@ 1522
scrub 1522
yel@@ 1522
mentation 1521
ps@@ 1521
disgust 1521
alignment 1521
playground 1521
organisational 1520
cognos 1520
hl 1519
extre@@ 1519
105 1519
molecular 1519
dered 1518
reconsider 1518
ili@@ 1518
butterfly 1518
bliss 1517
readers 1517
await 1517
greasy 1517
hangar 1517
2.4 1517
dley 1517
burdens 1517
disruption 1516
deficiencies 1516
stewart 1516
eff@@ 1516
rendered 1516
gibson 1516
cumulative 1515
glucose 1515
clinically 1515
holo@@ 1514
jupiter 1514
dolphin 1514
ill-@@ 1514
inconvenience 1514
hygiene 1514
enthusiastic 1514
transferring 1514
chur@@ 1514
commun@@ 1514
calf 1514
monstrous 1513
tax@@ 1513
mented 1513
observes 1513
proximity 1513
rig 1513
slut 1513
avalon 1512
motivation 1512
congressman 1512
thresholds 1512
privately 1512
griffin 1512
dolphins 1512
3.3 1512
speeches 1512
plaza 1511
invoice 1511
shri@@ 1511
.s. 1511
tribute 1511
render 1510
baltimore 1510
chopped 1510
painfully 1510
intruder 1510
leniency 1510
guinea 1509
frames 1509
liquidation 1509
motherfuckers 1508
ivy 1508
poster 1508
incapable 1508
samuel 1508
sullivan 1508
cue 1507
oppose 1507
silver@@ 1506
feather 1506
mathematics 1506
scenarios 1506
claude 1506
kets 1506
fru@@ 1506
atreides 1505
motioned 1505
tangle 1505
hay 1504
seriousness 1504
strained 1504
rifles 1504
modifications 1504
hypothetical 1503
runner 1503
fabulous 1503
mock 1503
capitali@@ 1503
choir 1503
feasible 1503
uncovered 1502
torches 1502
corporations 1502
hideous 1502
diverse 1501
sights 1501
florence 1501
medium-sized 1501
sucker 1501
liness 1501
slit 1501
assumes 1501
coll@@ 1501
implied 1500
edf 1500
grapes 1500
esa 1499
gosh 1499
awoke 1499
overlap 1499
spectacle 1499
flags 1499
url 1498
ption 1498
elvis 1498
oping 1498
blaming 1497
snape 1497
jax 1497
shoul@@ 1497
trembled 1497
duplicate 1497
inspectors 1497
har 1496
2006/@@ 1496
cardinal 1496
reins 1496
gou@@ 1496
cad@@ 1496
bic 1496
joints 1496
foil 1495
halted 1495
quick@@ 1494
cow@@ 1494
turn@@ 1494
tents 1494
negligible 1494
reconstruction 1494
shin@@ 1493
less@@ 1493
mutually 1493
generating 1493
mah 1493
anti-competitive 1493
extinguished 1492
overtime 1492
mond 1492
uttered 1492
celebrity 1492
lip@@ 1492
4th 1492
regina 1491
basin 1491
expressing 1491
taxpayers 1491
paige 1490
venice 1490
waylander 1490
autonomous 1490
2007-2013 1490
entrepreneurs 1490
hans 1489
!! 1489
consul 1489
12-@@ 1488
pimp 1488
denial 1488
Wo 1488
cod 1488
destructive 1488
sewer 1488
seduced 1488
deri@@ 1488
dyna@@ 1488
classroom 1488
armstrong 1487
bachelor 1487
accusing 1487
aces 1487
mani@@ 1487
soli@@ 1487
cular 1486
flavor 1486
classical 1486
freaks 1486
knots 1486
bing 1486
gio 1486
whispers 1486
howling 1486
attackers 1486
underworld 1486
grill 1485
wrecked 1485
stripper 1485
grenade 1485
thers 1485
impatient 1485
leaked 1485
presume 1485
wardrobe 1485
fibres 1485
lair 1484
transporter 1483
otto 1483
facilitating 1483
arm@@ 1483
helium 1483
acquaintance 1483
mix@@ 1482
additives 1482
tis@@ 1481
nora 1481
sylvia 1481
sentimental 1481
fanta@@ 1481
invoked 1481
dash 1481
anticipation 1480
acs 1480
substantiated 1480
aly@@ 1480
eased 1480
particle 1480
lish 1479
sock 1479
mpy 1479
fluids 1479
ffed 1479
lifestyle 1478
22@@ 1478
formalities 1478
injections 1478
gateway 1478
birth@@ 1478
part@@ 1478
expectation 1478
starved 1478
thed 1477
passports 1477
folding 1477
hoc 1477
flav@@ 1477
evans 1477
objected 1476
threads 1476
drone 1476
humour 1476
optimistic 1475
hamilton 1475
scum 1474
nixon 1474
prin@@ 1474
detector 1474
yman 1474
dolls 1473
psychiatric 1473
i-i-i 1473
syria 1473
appeals 1473
comet 1472
radio@@ 1472
anton 1472
gangs 1472
unlock 1472
bellowed 1472
rigged 1471
hei@@ 1471
murray 1471
derivatives 1471
dungeon 1470
shakespeare 1470
bout 1470
constable 1470
beck@@ 1470
dex@@ 1470
tary 1470
gle 1470
revol@@ 1469
brighter 1469
malice 1469
barked 1469
dag@@ 1468
serv@@ 1468
breakup 1468
contingent 1467
catti-brie 1467
electron 1467
sprayed 1467
stabbing 1467
organise 1467
communicating 1466
unrelated 1466
cyrus 1466
grains 1466
crystals 1466
masses 1466
wes 1465
thermo@@ 1465
coloured 1465
conventions 1465
drin@@ 1465
ib@@ 1465
dioxide 1465
wrinkled 1464
aero@@ 1464
bed@@ 1464
shareholder 1464
stile 1463
hydr@@ 1463
hail 1463
gigantic 1463
fast-@@ 1463
sch 1462
jerusalem 1462
jonas 1462
banged 1462
abnormal 1462
accomplice 1462
stripes 1462
nad@@ 1461
pronounce 1461
mol@@ 1461
sick@@ 1461
defects 1461
roberts 1461
use@@ 1461
receiver 1461
aber@@ 1460
livestock 1460
workplace 1460
greeting 1460
kam@@ 1459
maurice 1459
d'you 1459
enzyme 1459
cele@@ 1459
diesel 1459
angie 1459
brother-in-law 1459
ranking 1459
shortage 1458
harness 1458
clutched 1458
roosevelt 1458
pressures 1458
aroused 1458
defect 1458
apollo 1458
establishments 1458
chap 1457
yor@@ 1457
caleb 1457
slee@@ 1456
signatures 1456
headings 1456
indent 1456
cry@@ 1455
backyard 1455
shel@@ 1455
tian 1455
hudson 1455
transform 1455
psychology 1455
36@@ 1455
1.4 1455
pir@@ 1454
drenched 1454
republican 1454
pharmacy 1454
py 1454
rocking 1454
creator 1454
other@@ 1453
tuc@@ 1453
voluntarily 1453
terrain 1453
convict 1453
restless 1452
dazzling 1452
ining 1452
unt 1452
dividends 1452
sic 1452
electri@@ 1452
vent 1452
bree 1451
hr@@ 1451
lunged 1451
gangster 1451
dispatched 1450
iter 1450
fulfilment 1450
presidents 1450
awhile 1449
devote 1449
mysteries 1449
toppled 1449
friend@@ 1449
repaid 1449
ssions 1448
docks 1448
commanders 1448
melissa 1448
thur@@ 1448
subscri@@ 1447
mies 1447
mir 1447
unseen 1447
similarity 1447
pic 1447
tryin 1446
je 1446
molecule 1446
banner 1446
alvin 1446
form@@ 1446
mati@@ 1446
bio-@@ 1446
municipal 1445
alison 1445
posters 1445
centi@@ 1445
rory 1445
seduce 1445
flashes 1445
dancers 1445
drawers 1445
incompetent 1444
winners 1444
brightly 1444
chained 1444
airplane 1444
brotherhood 1443
austin 1443
plugged 1443
migrants 1443
oracle 1443
presents 1443
ohio 1442
gens 1442
designer 1442
shir@@ 1442
hari 1441
preventive 1440
zoo@@ 1440
out-of-@@ 1440
ero 1439
heck 1439
fifty-@@ 1439
campbell 1439
abbot 1439
utili@@ 1439
intravenous 1439
cle 1439
big-@@ 1439
haunt 1438
prompted 1438
thing@@ 1438
embraced 1438
entail 1438
cracking 1437
yi@@ 1437
stitches 1437
forty-@@ 1436
didnt 1436
moderni@@ 1436
escaping 1436
haley 1436
preferential 1436
zz 1436
rations 1436
cuff 1436
direc@@ 1436
seasons 1436
faking 1435
disorders 1435
syl@@ 1435
arose 1435
amounted 1435
gnome 1435
habitats 1435
tomy 1434
freedoms 1434
variations 1434
weighted 1434
reveals 1434
evacuation 1434
variation 1434
bennett 1433
broker 1433
compounds 1433
licking 1433
architect 1433
stamps 1433
forensic 1433
variables 1433
interfering 1432
demonstrating 1432
homo@@ 1432
peg 1432
spir@@ 1432
goodwill 1432
stresses 1431
line@@ 1431
teal 1431
ae@@ 1431
bulb 1431
abstract 1431
workforce 1430
intently 1430
wrestling 1430
tying 1430
ala@@ 1430
ssive 1430
mba 1429
palms 1429
thermal 1429
risk-@@ 1429
gall@@ 1429
splitting 1429
peanut 1429
awaits 1429
sustain 1429
awards 1428
discreet 1428
rigid 1428
3.5 1428
resembled 1428
meat@@ 1428
dove 1428
ghts 1428
paul@@ 1427
juliet 1427
appealed 1427
bea@@ 1427
dto 1427
mous 1427
hou@@ 1427
sz@@ 1427
unbelievable 1426
sirius 1426
strang@@ 1426
scho@@ 1425
venus 1425
erm 1424
claus 1424
io@@ 1423
bic@@ 1423
una 1423
bree@@ 1423
duane 1423
instructor 1422
concessions 1422
generals 1422
dearly 1421
reese 1421
spat 1421
sg@@ 1421
think@@ 1421
recorder 1421
streaming 1421
weights 1421
cid 1421
mourning 1421
muscular 1421
obeyed 1421
timber 1420
equi@@ 1420
dread 1420
mis 1420
metabolism 1420
piles 1420
adap@@ 1419
cooks 1418
lu 1418
offspring 1418
nowadays 1418
arbitration 1418
tattooed 1418
heavier 1418
cop@@ 1418
numer@@ 1418
atu@@ 1418
boarded 1417
crest 1417
spontaneous 1417
sable 1417
optical 1417
xie 1417
vid 1417
rapporteur 1416
rine 1416
marvin 1416
ght@@ 1416
reno@@ 1416
bundle 1416
trench 1416
jade 1416
cruelty 1415
medium-term 1415
pictured 1414
mea 1414
praised 1414
rails 1414
well@@ 1414
antenna 1413
cleaners 1413
moody 1413
dic 1413
crates 1412
sephrenia 1412
correspondence 1412
demo@@ 1412
pe-@@ 1412
clinton 1412
2016 1412
xi 1412
stine 1412
wines 1412
onian 1412
stir@@ 1411
bling 1411
tee@@ 1411
crises 1411
bandage 1411
grey@@ 1410
scanning 1410
luna 1410
lantern 1410
minimi@@ 1410
wei@@ 1410
elijah 1409
merit 1409
corn@@ 1409
arteries 1409
dana 1409
ova 1408
handkerchief 1408
ridcully 1408
foun@@ 1408
dt 1408
oxford 1408
valen@@ 1408
gesserit 1408
rama 1408
archie 1408
learns 1408
subsidiarity 1407
side-@@ 1407
roaring 1407
stevens 1407
mbo@@ 1407
poo@@ 1407
justi@@ 1407
hovering 1407
hugo 1406
unfamiliar 1406
sanders 1406
vomit 1406
lore 1406
kneel 1406
doo@@ 1406
compressed 1405
accountable 1405
well-known 1405
lators 1405
topics 1405
prudent 1405
us@@ 1404
sketch 1404
dummy 1404
apprentice 1404
mini 1404
barbecue 1404
1989 1403
informant 1403
publi@@ 1403
judgement 1403
divisions 1403
configured 1403
rangers 1402
herbs 1402
buster 1402
chemotherapy 1402
licensed 1402
bidding 1402
inspected 1402
erasmus 1402
amazingly 1402
sided 1401
pupil 1401
economics 1401
extinct 1401
nam 1401
clou@@ 1401
multiplied 1401
trin@@ 1400
max@@ 1400
rit@@ 1400
deep-@@ 1400
pudding 1400
eighty 1399
appreciation 1399
ast@@ 1399
sip 1399
marrow 1398
goblin 1398
euratom 1398
dinosaurs 1397
recipients 1397
presenting 1397
weighs 1397
ape 1397
annexed 1397
atoms 1397
for-@@ 1397
infantry 1397
gly 1397
burial 1396
c'mon 1396
130 1396
slovenia 1396
voltage 1396
industri@@ 1395
naming 1395
chewed 1395
capsules 1395
allied 1395
kr@@ 1394
jean-@@ 1394
lava 1394
still@@ 1394
stems 1394
46@@ 1394
wea@@ 1394
ripping 1394
inheritance 1394
anyhow 1394
hormones 1393
romeo 1393
omar 1393
empowered 1393
mercenary 1393
donovan 1392
port@@ 1392
lism 1392
sim@@ 1392
chandler 1392
migr@@ 1392
shaving 1392
oh@@ 1392
asa 1391
rabbi 1391
ley@@ 1390
top@@ 1390
poke 1390
quoted 1390
alaska 1390
ceo 1389
anic 1389
glen 1389
kicks 1389
roaming 1389
tomato 1389
bruised 1389
shea 1389
judith 1388
big@@ 1388
grease 1388
sympathetic 1388
gol 1388
org@@ 1388
asi@@ 1387
accidental 1387
gregory 1387
restoring 1386
mone@@ 1386
colonies 1386
metal@@ 1386
oceans 1386
multilateral 1386
creditor 1386
synergies 1386
ough 1386
noisy 1385
temples 1385
peed 1384
dearest 1384
yon@@ 1383
nab@@ 1383
intra@@ 1383
part-time 1382
instinctively 1382
mercenaries 1382
eh@@ 1382
statute 1382
sayin 1382
kil@@ 1381
reggie 1381
stringent 1381
pot@@ 1381
hunched 1381
prohibit 1381
annually 1380
ventilation 1380
predictable 1380
thankfully 1380
rubbish 1380
ences 1380
garcia 1380
ough@@ 1380
pollu@@ 1380
trevize 1380
sliced 1379
crimson 1379
mildly 1379
sor 1379
frenzy 1379
legion 1379
diversion 1379
probation 1379
positively 1378
ravine 1378
lurking 1378
ssion 1378
owl 1378
warmer 1378
chunk 1377
oval 1377
provoked 1377
ug@@ 1377
presi@@ 1377
desi@@ 1377
gunshot 1376
technicians 1376
hearted 1376
confrontation 1376
cubs 1376
obscure 1376
1980 1376
galileo 1376
bravery 1376
astronaut 1376
comple@@ 1375
defenses 1375
richie 1375
milan 1375
hart@@ 1375
comforting 1375
disturbance 1375
appe@@ 1374
tyre 1374
yers 1374
idaho 1374
viii 1374
riddle 1374
tled 1373
bot 1373
strips 1373
P 1373
prefers 1373
supp@@ 1373
matron 1373
5th 1373
fainted 1373
repeal 1372
stung 1372
unfinished 1372
rally 1372
grin@@ 1372
predator 1372
skirts 1372
patty 1372
descend 1372
hazardous 1372
die@@ 1372
antique 1372
circu@@ 1371
dime 1371
liking 1371
vows 1371
peering 1371
wary 1371
shit@@ 1371
metals 1371
arch 1370
spikes 1370
X@@ 1370
klingon 1370
ice@@ 1370
validation 1370
discern 1370
jeep 1370
deduct 1370
investigative 1369
artillery 1369
freshman 1369
devotion 1369
verge 1369
ever-@@ 1369
linear 1369
neural 1368
piercing 1368
exploitation 1368
high-quality 1368
chant 1368
oce@@ 1368
spears 1368
bandits 1367
attendance 1367
uri 1367
alistic 1367
tends 1367
childish 1367
unprecedented 1367
egf 1367
saudi 1366
l'@@ 1366
leaped 1366
isolate 1366
recession 1365
tit@@ 1365
exams 1365
particulars 1365
manuscript 1365
parental 1365
nun 1365
attending 1365
mare 1365
bearded 1364
consisted 1364
uck@@ 1364
speakers 1364
mid 1364
reviewing 1364
comforted 1364
dem 1363
premature 1363
langley 1363
tai@@ 1363
chapters 1362
adversely 1362
king-@@ 1362
kies 1362
obsolete 1362
reluctantly 1362
scru@@ 1361
geneva 1361
tribu@@ 1361
belts 1361
arnold 1360
pickup 1360
cynthia 1360
boil 1360
stables 1360
flirting 1360
sely 1359
respondents 1359
capability 1359
holster 1359
tangible 1359
sighted 1359
scripts 1358
northeast 1358
varied 1358
remedies 1358
supporters 1358
apes 1358
pain@@ 1358
dens 1358
millionaire 1357
soccer 1357
evenly 1357
ggling 1357
sam@@ 1357
common@@ 1357
stargate 1357
depended 1357
phy@@ 1356
adviser 1356
boo 1356
strode 1356
clinging 1356
poems 1356
consu@@ 1356
fiery 1356
notorious 1356
instances 1356
dum 1355
flawed 1355
undue 1355
bbs 1355
sensing 1355
chad 1354
potassium 1354
customary 1354
heartbeat 1354
popu@@ 1354
syrup 1354
spatial 1353
dig@@ 1353
shan 1353
free-@@ 1353
modi@@ 1353
discontinuation 1353
tanner 1353
tually 1353
reynolds 1353
cky 1353
cf@@ 1353
horrors 1352
feeds 1352
numbered 1352
dip 1352
pharmac@@ 1352
stering 1352
earnings 1351
foreseeable 1351
achievements 1351
cowboys 1351
ava 1351
depressing 1351
108 1351
excellence 1351
dant 1351
effected 1350
invoices 1350
avery 1350
distances 1350
volcano 1350
lara 1350
labelled 1350
styles 1350
cone 1349
northwest 1349
pumps 1349
aggregate 1349
argentina 1349
twin@@ 1349
liaison 1349
donate 1349
scrutiny 1348
layout 1348
comman@@ 1348
un-@@ 1347
persist 1347
chri@@ 1347
ounce 1347
analyze 1347
cock@@ 1347
mma 1347
shortcut 1346
rattled 1346
baltic 1346
exhibit 1346
oecd 1346
wiser 1346
southeast 1346
tionary 1346
burt 1345
este@@ 1345
cliffs 1345
disconnect 1344
acp 1344
pastor 1344
cody 1344
protests 1344
echoing 1344
lobster 1344
thor 1344
rosa 1344
sampled 1344
outbreak 1343
sprang 1343
lecter 1343
slender 1343
beg@@ 1342
damaging 1342
*** 1342
alu@@ 1342
woody 1341
sprin@@ 1341
fibre 1341
extends 1341
salesman 1341
ile 1341
sasha 1340
automated 1340
heim 1340
soo@@ 1340
petrol 1340
clowns 1340
kneeling 1340
salute 1339
stacked 1339
exposing 1338
ried 1338
geographic 1338
dusk 1338
advancing 1338
insanity 1338
garrett 1338
populated 1338
orian 1338
sandra 1338
wards 1337
harbour 1337
ke-@@ 1337
ely 1337
occurring 1337
bilbo 1337
recognizing 1336
forecasts 1336
fearful 1336
lizard 1336
terrace 1336
x. 1336
dreamt 1336
bosch 1336
windshield 1335
excise 1335
glee 1335
deceived 1335
thas 1335
sym@@ 1334
tron 1334
19th 1334
sham 1334
facto 1334
plaster 1334
tiles 1334
thematic 1334
ctu 1334
ginny 1334
orphanage 1334
yale 1334
deception 1333
tuned 1333
powell 1333
loneliness 1333
seven@@ 1333
residential 1333
bankrupt 1333
reliance 1333
decency 1333
magrat 1333
fang 1333
rhyme 1333
proxy 1333
complying 1333
coalition 1333
refrigerator 1333
rebe@@ 1332
beijing 1332
kling 1332
ruthless 1331
tissues 1331
intercourse 1330
tionally 1330
captains 1330
torso 1330
centimeters 1330
-san 1330
spaghetti 1330
gunmen 1330
accusations 1330
grinding 1329
mentions 1329
nies 1329
israeli 1329
broadband 1329
ame@@ 1329
great-@@ 1329
rocked 1329
125 1328
bladder 1328
cohen 1328
leigh 1328
wra@@ 1328
evaluating 1328
avir 1327
creeping 1327
veterans 1327
boobs 1327
churchill 1327
hill@@ 1327
tured 1327
bradley 1327
perpetrator 1326
minu@@ 1326
impre@@ 1326
muddy 1326
rd 1326
nipples 1326
fai@@ 1325
hissing 1325
spaceship 1325
m2 1325
unk 1325
evolve 1325
drafted 1324
vulcan 1324
groaned 1324
detached 1324
relying 1324
appreci@@ 1323
gamb@@ 1323
assassins 1323
brand@@ 1323
dispen@@ 1323
suspen@@ 1323
richards 1323
scares 1323
underestimated 1323
cr 1322
phoned 1322
generic 1322
competitor 1322
ground@@ 1322
ros 1321
fossil 1321
secre@@ 1321
latch 1321
shivered 1321
psychologist 1321
periodic 1320
harlan 1320
smartest 1320
opponents 1320
govern 1320
temporal 1319
memo 1319
n'@@ 1319
senor 1319
atom 1319
smoo@@ 1319
sign@@ 1318
air-@@ 1318
teenagers 1318
is-@@ 1318
stains 1318
whining 1318
town@@ 1317
ught 1317
willy 1317
on-the-spot 1317
exits 1317
guil@@ 1316
usable 1316
marginal 1316
standardisation 1316
rituals 1316
brink 1316
kaye 1316
precip@@ 1316
lithuania 1315
rehearsal 1315
eagerly 1315
recognises 1315
importing 1315
them@@ 1315
ril 1315
directorate-general 1314
treacherous 1314
road@@ 1314
distort 1314
humiliate 1314
coated 1314
erik 1314
intimidated 1314
lio 1313
pinched 1313
volu@@ 1313
pou@@ 1313
qualification 1313
intake 1312
minated 1312
itor 1312
buses 1312
ams 1311
anie 1311
confiscated 1311
defendants 1311
poked 1311
arctic 1310
buddha 1310
skipper 1310
sps 1310
r-@@ 1310
invites 1310
retreated 1310
deb@@ 1310
madeline 1309
patricia 1309
strangle 1309
herb 1309
pumpkin 1308
fooling 1308
frown 1308
specimen 1308
woven 1308
currents 1308
160 1308
devils 1308
vens 1308
objectively 1307
wreckage 1307
vitamin 1307
body@@ 1307
ddling 1307
matthews 1307
infor@@ 1307
-off 1306
tame 1306
oes 1306
desktop 1306
par 1306
duchess 1306
aga 1306
21st 1305
39@@ 1305
paw 1305
warfare 1305
jean-claude 1305
jasper 1305
slick 1305
murdering 1304
hat@@ 1304
simulation 1304
remarkably 1304
idle 1303
poop 1303
boris 1303
horrified 1303
alarms 1303
technician 1303
jelly 1303
colt 1302
trance 1302
4,@@ 1302
forestry 1302
elbows 1302
acies 1301
announcing 1301
g/@@ 1301
connie 1301
savior 1301
dots 1301
bony 1301
granddaughter 1301
ducks 1301
derivative 1300
velocity 1300
ceilings 1300
provisionally 1300
accountability 1300
peered 1300
behavi@@ 1300
bloodshed 1300
nimitz 1300
maneuver 1300
chrome 1299
struan 1299
licked 1299
breast-feeding 1298
stew 1298
manipulation 1298
amazement 1298
8:00 1298
ert 1297
vings 1297
gies 1297
spilling 1297
jin@@ 1297
herr 1297
reborn 1296
html 1296
gazed 1296
magne@@ 1296
richer 1296
picard 1295
reportedly 1295
testi@@ 1295
smiley 1294
problematic 1294
rus 1294
dorothy 1294
quanti@@ 1294
story@@ 1294
flank 1294
nis 1294
cages 1293
wilderness 1293
chavez 1293
folds 1293
homosexual 1293
awa 1293
preoccupied 1293
audible 1293
declining 1293
starboard 1292
dawson 1292
jefferson 1292
righteous 1292
martian 1292
nan 1292
callahan 1291
founder 1291
brad@@ 1291
bovine 1291
pane 1291
founding 1291
extracted 1291
exercising 1291
misunderstood 1291
malta 1291
father@@ 1291
squat 1290
steer 1290
freddie 1290
earmarked 1290
rudy 1290
observ@@ 1289
insi@@ 1289
ctors 1289
oils 1289
ryanair 1289
questionable 1289
twisting 1288
crow 1288
kat 1288
firearms 1288
arse 1288
bor 1287
curb 1287
pel 1287
weasley 1287
orchestra 1287
dangling 1287
kalten 1287
pumping 1287
cor 1287
imbalances 1286
patches 1286
tad 1286
cain 1286
privileged 1286
ctive 1285
ssie 1285
revoked 1285
petition 1285
lec@@ 1285
segments 1285
contractors 1284
neville 1284
lum 1284
adver@@ 1284
1988 1284
so-@@ 1284
murderous 1284
baking 1284
cost-@@ 1284
ila 1284
ppa 1283
ap 1283
they@@ 1283
labs 1283
soviets 1283
thrill 1283
informing 1283
fuse 1282
frowning 1282
reagan 1282
aah 1282
finnish 1282
mean@@ 1282
achilles 1282
flipped 1281
pissing 1281
harriet 1281
flavour 1281
sms 1281
veteran 1281
villain 1281
authors 1281
rodgers 1281
102 1281
leon@@ 1281
reared 1281
orcs 1281
alli@@ 1280
shly 1280
reassured 1280
lis 1280
raj 1280
litter 1280
dream@@ 1279
renew 1279
orgasm 1279
9:00 1279
ential 1279
savages 1279
wireless 1279
roll@@ 1278
diagnostic 1278
loy@@ 1278
fr 1278
parchment 1278
ffer 1278
reconciliation 1278
yl@@ 1277
saul 1277
chuckled 1277
reassure 1277
aa 1277
blackened 1277
cate 1276
bitterness 1276
bathe 1276
lodging 1276
notifications 1276
wu@@ 1276
keller 1276
surround 1275
ction@@ 1275
reunited 1275
ust 1275
emia 1275
patron 1275
ponder 1275
sniff 1274
survives 1274
flooding 1274
5.3 1274
squeezing 1274
pilgrims 1273
chilled 1273
tempting 1273
viktor 1273
propaganda 1273
revive 1273
preview 1273
seeker 1273
composite 1273
mentioning 1273
remnants 1272
autonomy 1272
turk 1272
pau@@ 1272
nobles 1272
fier 1272
vow 1271
dissolve 1271
vali@@ 1271
combating 1271
align 1271
invade 1271
dryly 1271
processors 1271
decipher 1271
encryption 1271
cambridge 1271
11.@@ 1270
xy 1270
auditor 1270
pack@@ 1270
enzymes 1269
jr. 1269
ineffective 1269
chman 1269
craw@@ 1269
ggin 1269
jeopardi@@ 1269
muslims 1269
decks 1269
hive 1269
self-employed 1269
spices 1269
balloons 1268
140 1268
flick 1268
teri@@ 1268
half@@ 1268
bluff 1268
orderly 1267
consignment 1267
jacques 1266
reproductive 1266
gad@@ 1266
ddle 1266
mc 1266
num 1266
rapi@@ 1266
refrain 1266
faked 1266
merciful 1266
chiefs 1265
disagreement 1265
concussion 1265
citadel 1264
sures 1264
granite 1264
hypothesis 1264
plat@@ 1264
30,000 1264
compelling 1264
specifying 1264
bis 1264
disp@@ 1264
menacing 1263
chron@@ 1263
outward 1263
evolving 1263
inherent 1263
rant 1263
ald 1263
pedi@@ 1263
retailers 1263
large-scale 1262
flattery 1262
latvia 1262
lim 1262
alle@@ 1262
tolerated 1262
co-ordin@@ 1262
unicorn 1261
harding 1261
vegetation 1261
fishery 1261
ensign 1261
suicidal 1261
marker 1261
asser@@ 1260
stephanie 1260
mmed 1260
unreasonable 1260
identifies 1260
stin 1260
trails 1259
soothing 1259
mper 1259
psychotic 1259
pains 1259
regulators 1259
aroma 1259
probable 1259
manu@@ 1259
apron 1258
substitution 1258
microwave 1258
daniels 1258
torpedo 1258
acks 1258
decre@@ 1258
phenomena 1258
calvin 1258
adju@@ 1258
vines 1258
bombed 1258
nineteen 1258
bber@@ 1257
shin 1257
sies 1257
garrison 1257
exploration 1257
jose 1256
sawyer 1256
eco-@@ 1256
fangs 1256
reinforce 1256
oney 1256
elo@@ 1255
v.@@ 1255
infrared 1255
copying 1255
never@@ 1255
dizziness 1255
loaf 1255
taped 1255
robbie 1255
oddly 1255
18th 1254
explosions 1254
elephants 1254
paste 1254
not-@@ 1254
ich@@ 1254
slain 1254
nickel 1254
middle-aged 1254
landers 1253
succession 1253
fantasies 1253
generators 1253
tedly 1253
zip 1253
overly 1253
restraining 1253
quir@@ 1252
ate-@@ 1252
artie 1252
reich 1252
eur@@ 1252
attributable 1252
eight-@@ 1252
wanda 1252
lica 1251
aluminium 1251
brady 1251
oon 1251
roy@@ 1251
wright 1250
lacks 1250
pawn 1250
brand-new 1250
chelsea 1250
priori@@ 1250
plac@@ 1250
scanner 1250
sti 1250
steals 1249
dirk 1249
cheerfully 1249
merchandise 1249
amazon 1249
upgraded 1249
credentials 1248
stalking 1248
trusts 1248
ord 1248
flan@@ 1248
kman 1247
invo@@ 1247
juvenile 1247
theo 1247
curiously 1247
graceful 1247
connects 1247
observing 1247
boiled 1246
yoga 1246
diapers 1246
swan 1246
loomed 1246
paper@@ 1246
tract 1246
intercept 1246
highlight 1246
mu 1245
mack 1245
fren@@ 1245
ssen 1245
ole 1245
tals 1245
vanion 1245
rhyth@@ 1245
paediatric 1245
obli@@ 1244
cheque 1244
joker 1244
elbryan 1244
ddled 1244
east@@ 1244
expire 1244
predators 1243
ffing 1243
u. 1243
ignition 1243
aerial 1243
nobel 1243
fearless 1243
gari@@ 1242
jeffrey 1242
paren@@ 1242
semen 1242
raw@@ 1242
derman 1241
packaged 1241
oy 1241
aggression 1241
gil 1241
sne@@ 1241
tsurani 1240
clears 1240
holiness 1240
consortium 1240
frigate 1240
fisherman 1239
anne@@ 1239
ome@@ 1239
irritation 1239
stallion 1239
lam 1239
essay 1238
glared 1238
authentication 1238
christina 1238
dion 1238
blon@@ 1238
tment 1238
buckle 1238
portland 1237
showers 1237
tz@@ 1237
hex@@ 1237
92/@@ 1237
posting 1237
escorted 1237
reasse@@ 1237
plausible 1237
happiest 1237
aux 1236
evi@@ 1236
slides 1236
longed 1236
tless 1235
reign 1235
pigeon 1235
hem 1235
jagged 1235
f.@@ 1235
total@@ 1235
socially 1234
coupling 1234
yne 1234
try@@ 1234
cornered 1234
metaphor 1234
ethnic 1234
ampli@@ 1234
vivid 1234
frighten 1234
chili 1233
depreciation 1233
scam 1233
shitty 1233
cin 1233
gren@@ 1233
sipping 1233
rad@@ 1232
smuggled 1232
unwilling 1232
assistants 1232
guer@@ 1232
virginity 1232
hormone 1232
ational 1232
proposition 1232
wesley 1232
communists 1231
margot 1231
collapsing 1231
continental 1231
fracture 1231
mound 1231
50-@@ 1231
cockpit 1231
deducted 1231
attachment 1231
cereal 1230
EUR 1230
G@@ 1230
transposed 1230
und 1230
change@@ 1230
photographed 1230
non-discriminatory 1230
magnitude 1230
flickering 1229
defen@@ 1229
shouts 1229
tful 1229
yuri 1229
clar@@ 1229
snuck 1228
serbia 1228
brook 1228
shanghai 1228
mikey 1228
infrastructures 1228
hurriedly 1227
elevated 1227
stab@@ 1227
cafeteria 1227
lain 1226
um-@@ 1226
stitch 1225
splendid 1225
detonate 1225
terr@@ 1225
refunds 1225
accumulation 1225
vitro 1225
erie 1225
corrupted 1225
ign@@ 1225
artistic 1225
analogy 1224
maids 1224
joyce 1224
main@@ 1224
locally 1224
inven@@ 1224
rib 1224
hiro 1223
cardi@@ 1223
abbey 1223
hugging 1223
tren@@ 1223
10:00 1222
hae@@ 1222
analogue 1222
intuition 1222
salon 1222
xy@@ 1222
recalls 1222
enrolled 1222
desp@@ 1222
hosting 1222
premiums 1222
bren@@ 1222
stinking 1222
dged 1222
commodore 1221
manife@@ 1221
mcgee 1221
alleyway 1221
race@@ 1221
vine 1221
ure@@ 1220
aled 1220
sparked 1220
hq 1220
cindy 1220
dragon@@ 1220
negoti@@ 1220
athlete 1220
additive 1220
-and 1220
buzz@@ 1219
towed 1219
downs 1219
lap@@ 1219
onion 1218
nai@@ 1218
sprink@@ 1218
bakery 1218
splash 1218
dividing 1218
cavity 1217
worm@@ 1217
preferably 1217
misleading 1217
3.4 1217
sniffing 1217
opti@@ 1217
gaunt 1217
joanna 1217
blog 1217
vaccines 1216
imperi@@ 1216
metallic 1216
ggled 1216
De 1216
spon@@ 1216
spitting 1216
phases 1216
revi@@ 1216
cola 1216
smu@@ 1215
deliveries 1215
sheila 1215
sero@@ 1215
moti@@ 1215
nolan 1215
sloan 1215
convenience 1215
daw@@ 1215
promo@@ 1214
medieval 1214
traumatic 1214
misfortune 1214
dish@@ 1214
collaboration 1213
obe@@ 1213
origins 1213
boxer 1213
aspirin 1213
vaccinated 1213
114 1213
pest 1212
gated 1212
promptly 1212
aro@@ 1212
foot-@@ 1212
auc@@ 1212
brat 1212
denies 1212
melo@@ 1212
paro@@ 1212
cals 1212
cuffs 1211
prep 1211
chloride 1211
bang@@ 1211
efsa 1211
sad@@ 1211
gleamed 1211
idol 1211
slippery 1211
face@@ 1211
naz@@ 1210
t-shirts 1210
les@@ 1210
despise 1210
silas 1210
dson 1209
helplessly 1209
centers 1209
amelia 1209
auc 1208
extra@@ 1208
shades 1208
peoples 1208
imminent 1208
kis 1208
doorstep 1208
jim@@ 1208
lighted 1208
ninja 1207
statues 1207
tongues 1207
onal 1207
remorse 1207
sweets 1207
helena 1207
girlfriends 1207
grown-up 1206
psychopath 1206
forthcoming 1206
chatter 1206
amen 1206
englishman 1206
formulation 1205
schu@@ 1205
mesh 1205
kla@@ 1205
directing 1205
caller 1205
compensatory 1204
labyrinth 1203
merlin 1203
briefed 1203
anthropo@@ 1203
rand@@ 1203
hog 1203
switches 1203
dilution 1203
nobility 1203
lead@@ 1202
trampled 1202
accreditation 1202
shape@@ 1202
teen@@ 1202
vs 1202
.1 1202
afforded 1202
paula 1201
hallucinations 1201
eyelids 1201
pines 1201
bomber 1201
bur 1201
irresponsible 1201
strands 1201
stabilized 1201
age@@ 1201
vari@@ 1201
qualitative 1201
ales 1200
dero@@ 1200
iris 1200
disadvantaged 1200
enjoys 1199
atively 1199
glued 1199
inability 1199
thorne 1199
glen@@ 1199
xia 1199
dge@@ 1199
circum@@ 1199
3:00 1199
overlook 1199
glare 1198
swat 1198
dp 1198
careers 1198
eling 1197
concentrating 1197
condom 1197
spelled 1197
counterfeit 1197
cancellation 1197
veness 1196
bubb@@ 1196
hub 1196
exer@@ 1196
inten@@ 1196
peeled 1196
estonia 1196
assaulted 1195
enforced 1195
legi@@ 1195
putin 1195
suing 1195
sporting 1195
hardy 1195
yi 1195
artifact 1195
rejecting 1195
ex-husband 1195
dded 1194
intra-@@ 1194
scarlet 1194
ena@@ 1194
reid 1194
spor@@ 1194
interpol 1194
conflicting 1194
olives 1194
pren@@ 1194
brac@@ 1194
chic@@ 1193
woo 1193
milky 1193
stevie 1192
descen@@ 1192
impatiently 1192
mil 1192
aug@@ 1192
sushi 1192
lighten 1192
stle 1191
amp@@ 1191
immuno@@ 1191
pneumonia 1191
appalled 1191
favorable 1191
bikes 1190
teasing 1190
thankful 1190
evacuated 1190
authorise 1190
respiratory 1190
mn@@ 1190
marilyn 1190
textile 1190
suffice 1189
bene@@ 1189
wyatt 1189
stron@@ 1189
librarian 1189
repri@@ 1189
ld@@ 1189
0.5 1189
ernie 1188
every@@ 1188
stiff@@ 1188
forti@@ 1188
multi-annual 1188
disbelief 1188
tonne 1188
ds@@ 1188
hum@@ 1188
mini-@@ 1187
ange 1187
1970 1187
sherlock 1187
brig@@ 1187
poised 1187
wling 1187
node 1187
ables 1187
splen@@ 1187
popcorn 1187
te-@@ 1187
vanity 1187
bloodied 1186
night-@@ 1186
manure 1186
snitch 1186
time-limit 1186
afterward 1186
alias 1186
fulfils 1186
winced 1186
amen@@ 1186
episodes 1185
actu@@ 1185
speeds 1185
ctively 1185
-in 1185
emphasises 1185
pep@@ 1185
tai 1185
versa 1184
nominated 1184
panting 1184
atm 1184
grandparents 1184
swayed 1184
decimal 1184
subordinate 1183
abed 1183
intern 1183
charts 1183
necro@@ 1183
font 1183
metro 1183
appropriation 1182
respecting 1182
shrill 1182
mandy 1182
identities 1182
misty 1182
melody 1182
beak 1182
mexicans 1182
merchants 1181
commu@@ 1181
tomatoes 1181
brag 1181
weakening 1181
cheeses 1181
hyperspace 1181
cocked 1181
nut@@ 1181
inputs 1181
parish 1180
tavern 1180
endo@@ 1180
bud@@ 1180
350 1180
haste 1180
popularity 1180
scottish 1180
supplying 1180
lengthy 1180
clicked 1179
taliban 1179
anchored 1179
muc@@ 1179
annul 1179
lenses 1179
acking 1179
achi@@ 1179
admits 1179
eves 1179
streak 1179
dye 1179
treasures 1179
racial 1178
flaw 1178
oe@@ 1178
mt 1178
ferrari 1178
stas 1177
kathy 1177
convul@@ 1177
banka 1177
grumpy 1177
carpenter 1177
anders 1177
regained 1177
deficiency 1176
mocking 1176
pleasantly 1176
smelly 1176
ammo 1176
dual 1175
manages 1175
swine 1175
anna@@ 1175
squire 1175
gno@@ 1175
2002/@@ 1175
banker 1175
elaine 1174
progressed 1174
solemn 1174
ghetto 1174
readings 1173
weeds 1173
quarry 1173
screws 1173
confi@@ 1173
updating 1173
pins 1173
prototype 1173
clutch 1173
silenced 1173
formulated 1172
drilling 1172
o'neill 1172
two@@ 1172
mechanic 1172
authorized 1172
't 1172
dramatically 1172
travelers 1172
thal 1172
snapping 1172
projection 1171
Ni 1171
inci@@ 1171
hale 1171
integrate 1171
blin@@ 1171
captivity 1171
wretched 1171
aking 1171
assisting 1171
implant 1170
relentless 1170
nearer 1170
wheeler 1170
cz 1170
dac@@ 1170
paws 1170
115 1170
moto 1169
gray@@ 1169
nuisance 1169
pledged 1168
robinson 1168
entertaining 1168
bern@@ 1168
blackthorne 1168
mating 1168
swirling 1168
amed 1168
grady 1168
thai 1167
beaches 1167
cover@@ 1167
flask 1167
spelling 1167
defenders 1167
skulls 1167
peacefully 1167
critics 1167
catastrophe 1167
recipro@@ 1167
kay@@ 1166
teller 1166
fran 1166
lef@@ 1166
disappointing 1166
rust 1165
mas@@ 1165
utmost 1165
wolfe 1165
mustard 1165
regularity 1165
arrests 1165
ilt 1165
andro@@ 1165
slovak 1165
awkwardly 1165
abu 1165
tougher 1164
fou@@ 1164
phosp@@ 1164
ic-@@ 1164
salaries 1164
anguish 1164
dialed 1164
phe@@ 1163
pret@@ 1163
allanon 1163
gripping 1163
erred 1163
dl 1163
instruction 1163
colo@@ 1163
redundant 1163
dwight 1163
maternity 1162
seeming 1162
polgara 1162
.i 1162
retention 1162
taiwan 1162
rewards 1161
dick@@ 1161
mantle 1161
thal@@ 1161
nova 1161
compiled 1161
dismantle 1161
texted 1160
distribu@@ 1160
dera@@ 1160
nin@@ 1160
unpaid 1160
invitations 1160
realization 1160
onboard 1160
cm@@ 1159
schmidt 1159
islamic 1159
housekeeper 1159
acu@@ 1159
thumbs 1159
cereals 1159
allocate 1158
tee 1158
dignified 1158
piper 1158
michigan 1158
scotty 1157
sled 1157
dante 1157
statutes 1157
capit@@ 1157
churches 1157
106 1157
bennet 1157
tornado 1157
grouping 1156
where@@ 1156
publications 1156
packet 1156
ati 1156
thir@@ 1156
crypt 1156
ore@@ 1155
accessibility 1155
pearls 1155
infectious 1155
damp@@ 1155
sma@@ 1155
6:00 1155
builds 1155
flare 1155
view@@ 1154
robbers 1154
open-@@ 1154
starship 1154
shre@@ 1154
vase 1154
pos@@ 1154
stumbling 1154
resentment 1154
wai@@ 1153
popping 1153
mastered 1153
asthma 1153
duct 1153
dublin 1153
mary@@ 1153
maiden 1153
ums 1153
d-out 1153
kun@@ 1153
doct@@ 1153
sponge 1152
sme 1152
feld 1152
intermediary 1152
robust 1152
lins 1152
handwriting 1152
wen 1151
consolation 1151
squirrel 1151
4:00 1151
iranian 1151
earning 1151
straps 1151
kar 1151
specialty 1151
thirdly 1151
viewer 1151
olympics 1151
immortality 1151
aurora 1150
wearily 1150
alas 1150
skinned 1150
4,000 1150
steri@@ 1150
aters 1150
truce 1150
wrapping 1150
listens 1149
injustice 1149
formidable 1149
bati@@ 1149
fertile 1149
draped 1149
kyoto 1149
poking 1149
overboard 1148
meyer 1148
disrespect 1148
incorrectly 1148
processor 1148
laz@@ 1148
digits 1148
procession 1148
carlo 1147
donation 1147
administrators 1147
cursing 1147
rati@@ 1147
allo@@ 1147
thesis 1147
automobile 1147
chalk 1147
fundamentally 1146
refined 1146
darkest 1146
rece@@ 1146
cathedral 1146
had@@ 1146
diluted 1146
analyzed 1146
tighten 1146
hating 1146
shocks 1145
montgomery 1145
overheard 1145
stabilize 1145
furnished 1145
-in-@@ 1145
staged 1145
consecutive 1145
heli@@ 1145
laundering 1144
nes@@ 1144
pastry 1144
bankers 1144
12th 1144
shuddered 1144
consuming 1144
opa@@ 1144
cruisers 1144
corne@@ 1144
day-to-day 1144
octa@@ 1144
gavin 1144
gaz@@ 1144
stinks 1143
lakes 1143
fished 1143
henderson 1143
highlights 1143
cowardly 1143
initiating 1143
prescribe 1143
cot@@ 1143
vetinari 1142
impu@@ 1142
vicky 1142
pools 1142
mechanics 1142
folders 1142
frenchman 1142
anus 1142
lle 1142
railing 1142
jose@@ 1142
mart 1142
inno@@ 1141
luis 1141
ado 1141
excel 1141
shen@@ 1141
arti@@ 1140
aman@@ 1140
acquiring 1140
musician 1140
gat@@ 1140
celestial 1140
peel 1139
diag@@ 1139
medals 1139
andi 1139
arched 1139
discounts 1139
shakes 1139
discovering 1139
parachute 1138
rover 1138
15-@@ 1138
kid@@ 1138
mortals 1138
pasta 1138
flyer 1138
sas 1138
zombies 1137
godfather 1137
equations 1137
ripper 1137
supermarket 1137
ohh 1137
gor 1137
intentionally 1137
decay 1137
luther 1137
traitors 1137
arresting 1136
tains 1136
howl 1136
pr 1136
lowed 1136
sobbing 1136
ort 1136
2008/@@ 1135
rene@@ 1135
expedi@@ 1135
payroll 1135
stry 1135
navigate 1135
oric 1135
suc@@ 1135
kry@@ 1135
wasteland 1135
ticking 1135
bowman 1135
turf 1134
resurrection 1134
peggy 1134
twitching 1134
thinkin 1134
cise 1134
rish 1134
chairperson 1133
ires 1133
squi@@ 1133
abi@@ 1133
unwanted 1133
pedro 1133
preferences 1133
103 1133
leo@@ 1132
indifferent 1132
db 1132
consciously 1132
prank 1132
commodity 1132
gaia 1132
ambitions 1132
median 1132
vand@@ 1132
inhibitors 1132
originated 1132
irs 1131
erica 1131
8/ec 1131
energy-@@ 1131
accessed 1131
wrinkles 1130
copenhagen 1130
fluctuations 1130
rebuilt 1130
hyde 1130
camped 1130
transnational 1130
doe 1130
filtered 1130
sr@@ 1130
tasty 1129
ories 1129
dents 1129
alleges 1129
slack 1129
ox 1129
leaping 1129
tyres 1129
bombers 1129
combustion 1129
onions 1129
resemble 1128
reef 1128
sterile 1128
outstretched 1128
trout 1128
ris@@ 1128
successive 1128
tailed 1128
mach@@ 1128
ancy 1128
demographic 1127
aka 1127
cricket 1127
stricken 1127
sser 1127
freshly 1127
ppings 1127
morocco 1127
metre 1127
coating 1126
sloppy 1126
esma 1126
rookie 1126
bursts 1126
dame 1126
lectures 1126
inhaled 1126
dep@@ 1126
seven-@@ 1126
appreciates 1125
bon 1125
accord 1125
demise 1125
scarce 1125
saddam 1125
doris 1125
clari@@ 1125
sound@@ 1125
pia 1125
230 1124
evaporated 1124
permissions 1124
vega 1124
baxter 1124
quitting 1124
gleaming 1124
nautilus 1124
ninety 1124
juli@@ 1124
seasonal 1124
seventy 1124
municipalities 1124
lengths 1124
patron@@ 1123
barbarians 1123
cheerleader 1123
smashing 1123
arma@@ 1123
lori 1123
sax@@ 1123
blues 1123
450 1123
ener@@ 1122
welcoming 1122
marion 1122
tleilaxu 1122
mack@@ 1122
conduc@@ 1122
champ 1122
blinding 1122
evasion 1122
rest@@ 1122
sap 1122
ssel 1122
definite 1122
shutters 1122
z-@@ 1122
fty 1122
caribbean 1122
dictionary 1122
contradictory 1122
gracious 1121
discriminatory 1121
wet@@ 1121
vale 1121
dez 1121
neck@@ 1121
erin 1121
aches 1121
nin 1121
dangerously 1121
tighter 1121
registrar 1120
signor 1120
carla 1120
erated 1120
jets 1120
doub@@ 1120
eliza 1120
conferences 1120
stash 1120
pharmacokinetic 1120
bleak 1120
spicy 1119
kb 1119
ordeal 1119
tox 1119
stirring 1119
divi@@ 1119
ians 1119
daphne 1119
ronald 1118
distressed 1118
inclusive 1118
gazing 1118
scarred 1118
sai 1118
examiner 1117
shores 1117
grun@@ 1117
kas@@ 1117
careless 1116
tigers 1116
ador 1116
ppe@@ 1116
ek@@ 1116
declaring 1116
aide 1116
approximate 1116
pid 1116
appointing 1116
wang 1115
currencies 1115
00-@@ 1115
gypsy 1115
aker 1115
safest 1115
dinosaur 1115
khal@@ 1115
decreasing 1115
sly 1115
two-thirds 1114
vy@@ 1114
smeared 1114
bani@@ 1114
ballistics 1113
detrimental 1113
stanford 1113
solemnly 1113
cylons 1113
tage 1113
mus@@ 1113
measurable 1112
forensics 1112
ambi@@ 1112
ptions 1112
-related 1112
jonah 1112
furnace 1112
devin 1112
feli@@ 1111
acade@@ 1111
recourse 1111
cot 1111
vity 1111
top-@@ 1111
proceeded 1110
mbles 1110
kidnapper 1110
harmoni@@ 1110
vietnamese 1110
leased 1110
edie 1110
grou@@ 1110
deno@@ 1110
85@@ 1110
personalities 1110
stil@@ 1110
sca 1109
solitude 1109
bandit 1109
virgil 1109
authenticity 1109
llu@@ 1108
inhal@@ 1108
miriam 1108
fiable 1108
nick@@ 1108
passages 1108
enclosed 1108
tenants 1108
babysitter 1107
competitions 1107
wept 1107
algorithm 1107
irrational 1107
sour@@ 1107
sso@@ 1107
comb@@ 1107
crater 1106
token 1106
awaited 1106
mour@@ 1106
bolts 1106
refresh 1106
dialysis 1105
bruno 1105
disciplined 1105
tivity 1105
giordino 1105
upwards 1105
dread@@ 1105
digit 1105
high-speed 1105
detonated 1104
rift 1104
benchmark 1104
arranging 1104
beamed 1104
allegiance 1104
courtney 1104
drafting 1104
question@@ 1104
xing 1104
unbearable 1103
fingernails 1103
ration@@ 1103
thra@@ 1103
advisers 1103
trunks 1103
riker 1103
pits 1103
blindly 1103
themes 1103
conductor 1103
housed 1102
middle-@@ 1102
delivers 1102
nodes 1102
fearing 1102
horribly 1102
aquaculture 1102
jolt 1102
multiannual 1102
hellenic 1102
crack@@ 1102
europe@@ 1102
dane 1102
remo@@ 1102
shelby 1102
empress 1102
ony 1101
inconsistent 1101
runes 1101
hepatitis 1101
severity 1101
grabs 1101
chee@@ 1101
6th 1101
scraped 1100
cant 1100
mutation 1100
pleaded 1100
bloke 1100
onists 1100
precautionary 1099
-of-@@ 1099
team@@ 1099
stuffing 1099
y.@@ 1099
dation 1099
dier 1099
brain@@ 1099
rods 1098
timed 1098
quarre@@ 1098
ancients 1098
wager 1098
internationally 1098
lei@@ 1098
-like 1098
vik 1098
share@@ 1098
mckay 1098
flora 1098
learnt 1098
seventy-@@ 1097
amor@@ 1097
modu@@ 1097
manuel 1097
tyrant 1097
vable 1097
inadmissibility 1097
patrols 1097
corleone 1097
darwin 1096
dispar@@ 1096
frogs 1096
chief@@ 1096
resisting 1096
pods 1096
complainant 1096
satur@@ 1096
bowing 1096
full@@ 1096
dani@@ 1096
prettiest 1096
iraqi 1096
covert 1096
cradle 1095
natives 1095
teva 1095
acres 1095
macro-@@ 1095
whole@@ 1095
butter@@ 1095
quarrel 1095
bandages 1095
aly 1095
underestimate 1095
eigh@@ 1095
slumped 1095
shivering 1094
do-@@ 1094
pper@@ 1094
stat 1094
abusive 1094
anomaly 1094
inhi@@ 1094
meds 1094
czk 1094
deploy 1094
pos 1094
fag@@ 1094
brun@@ 1093
erupted 1093
L@@ 1093
suff@@ 1093
just@@ 1093
charley 1093
ramirez 1093
dimensional 1093
won@@ 1093
immersed 1093
spec@@ 1092
creativity 1092
ater 1092
plead 1092
roller 1092
inward 1092
grouped 1092
accessories 1091
surfaces 1091
cam@@ 1091
wulfgar 1091
babylon 1091
tags 1091
courageous 1091
enter@@ 1091
unnoticed 1091
applicability 1090
harshly 1090
drought 1090
snooping 1090
swearing 1090
flirt 1090
irritating 1090
intra-community 1089
regis 1089
kidnappers 1089
shaky 1089
bai@@ 1089
proto@@ 1089
ize 1089
inge@@ 1089
acro@@ 1088
shrouded 1088
muted 1088
med@@ 1088
menting 1088
unnatural 1088
lement 1088
leia 1087
notifying 1087
gans 1087
recruits 1087
god-@@ 1087
stunt 1087
gravitational 1087
mixtures 1087
stat@@ 1087
sburg 1087
uranium 1086
formations 1086
verbal 1086
C@@ 1086
precaution 1086
holed 1086
tailored 1086
defiant 1086
desperation 1086
compensated 1086
moaning 1086
prematurely 1086
sparkling 1086
face-to-face 1085
dazed 1085
consolidate 1085
trent 1085
grape 1085
stead@@ 1085
ecosystem 1085
bear@@ 1085
ecstasy 1085
ring@@ 1085
agreeing 1084
bugged 1084
surrendered 1084
eo@@ 1083
manly 1083
hayes 1083
concerted 1083
simpson 1083
inferior 1083
frau@@ 1083
jumper 1083
intermediaries 1083
coordinating 1082
taxed 1082
seekers 1082
confer 1082
upcoming 1082
coupled 1082
zal@@ 1082
inscription 1082
ette 1081
discomfort 1081
stroking 1081
functionality 1081
brigade 1081
ankh-morpork 1081
axes 1081
buzzing 1081
parasite 1081
odrade 1080
dosage 1080
myo@@ 1080
strokes 1080
humidity 1080
bryce 1080
itate 1080
illusions 1080
habitat 1079
extinction 1079
priced 1079
sep@@ 1079
revived 1079
glenn 1079
financi@@ 1079
shan@@ 1079
australian 1079
submarines 1079
broo@@ 1078
broadcasters 1078
faculty 1078
mccoy 1078
spat@@ 1078
zin 1078
dimly 1078
whites 1078
tisation 1077
guardians 1077
brenda 1077
offshore 1077
panther 1077
oul@@ 1077
defle@@ 1077
bers 1077
alin 1077
inferred 1077
lordship 1077
colonists 1076
mck@@ 1076
tailor 1076
cile 1076
carton 1076
glances 1076
zak 1076
tish 1076
quadrant 1075
h.@@ 1075
analy@@ 1075
terrori@@ 1075
under-@@ 1075
raven@@ 1075
guar@@ 1075
thad 1075
stics 1075
37@@ 1075
buffy 1075
iro 1074
jah 1074
analyst 1074
attracts 1074
stone@@ 1074
inflicted 1074
admittedly 1074
reg 1074
sunglasses 1074
half-hour 1074
enhan@@ 1074
rad 1074
mized 1073
peti@@ 1073
cus 1073
revolver 1073
evenings 1073
ggs 1073
oars 1073
airspace 1073
marathon 1073
lanes 1073
lynn 1073
simone 1072
faintly 1072
indictment 1072
ef 1072
moan 1072
graphs 1072
pari@@ 1072
pennsylvania 1072
distinctly 1072
organizing 1072
turks 1072
novels 1072
installing 1071
leaking 1071
kitten 1071
barak 1071
sage 1071
spur@@ 1071
stockholm 1071
uneasily 1071
kor 1070
dart 1070
construc@@ 1070
sac 1070
simmons 1070
2005/@@ 1069
fumes 1069
tised 1069
damien 1069
santiago 1069
and-and 1069
dwe@@ 1068
evelyn 1068
cooperated 1068
departing 1068
generosity 1068
bach 1068
fuc@@ 1068
carcino@@ 1068
privatisation 1068
alls 1068
jeff@@ 1068
equivalence 1068
burly 1068
bruise 1067
ascen@@ 1067
numb@@ 1067
blasted 1067
assignments 1067
regimes 1067
calibration 1067
echoes 1067
surgeons 1067
negligence 1067
bbling 1067
ared 1067
mysti@@ 1067
thumb@@ 1067
sterili@@ 1066
hosts 1066
cf 1066
bber 1066
diverted 1066
deficits 1066
ceremonial 1066
eldest 1066
jubal 1066
drones 1065
orbital 1065
thrombo@@ 1065
morale 1065
distributors 1065
chatted 1065
mutant 1065
illustrated 1065
father-in-law 1065
cheese@@ 1065
hulk 1065
sements 1065
vio@@ 1064
coconut 1064
impro@@ 1064
dons 1064
bapti@@ 1064
sincerely 1064
patho@@ 1064
solic@@ 1064
conve@@ 1064
navigator 1064
rulers 1063
redundancies 1063
icing 1063
journals 1063
semi@@ 1063
tendering 1063
pdo 1063
stead 1063
irene 1063
engineered 1063
beaver 1062
fractures 1062
knuckles 1062
resembling 1062
news@@ 1062
sparrow 1062
worf 1062
vitamins 1061
delightful 1061
exterior 1061
ffles 1060
cocoa 1060
breath@@ 1060
rattle 1060
vanish 1060
sorcerer 1060
southwest 1060
5:00 1060
appealing 1060
partition 1060
brutally 1059
uneven 1059
vernon 1059
lyle 1059
aring 1059
fairness 1059
dwelling 1059
respectful 1059
ell@@ 1059
attributes 1059
bernie 1059
sewing 1059
superiority 1058
randomly 1058
collector 1058
abide 1058
thol 1058
mace 1058
der-@@ 1058
accu@@ 1058
marriages 1058
forearm 1058
restrained 1058
blosso@@ 1058
cine@@ 1057
humming 1057
business@@ 1057
tequila 1057
vna 1057
bugging 1057
trou@@ 1057
oswald 1057
depen@@ 1057
niggers 1057
demonstrates 1057
salv@@ 1057
symbolic 1057
manticoran 1057
tay 1057
lionel 1056
traveler 1056
drun@@ 1056
fo 1056
recognizes 1056
splinter 1056
ventri@@ 1056
unprotected 1056
fleeting 1056
xa@@ 1056
spreads 1055
formerly 1055
ght-@@ 1055
vesti@@ 1055
109 1055
revolt 1055
stretcher 1055
historian 1055
lang@@ 1054
cum 1054
predecessor 1054
engraved 1054
montana 1054
exploited 1054
attendant 1054
esf 1054
bamboo 1054
organi@@ 1054
affixed 1054
stitched 1054
200,000 1054
coinci@@ 1053
graveyard 1053
vals 1053
seduc@@ 1053
rose@@ 1053
dise@@ 1053
header 1053
malfoy 1053
jaffa 1053
riots 1052
fatty 1052
he-@@ 1052
insti@@ 1052
pharmacokinetics 1052
ico 1052
program@@ 1052
niun 1052
digi@@ 1052
imprisonment 1052
fea@@ 1052
tening 1051
nadir 1051
interactions 1051
vladimir 1051
end-@@ 1051
onwards 1051
durnik 1051
specialists 1050
elusive 1050
peasant 1050
conspicuous 1050
onset 1050
1985 1050
chlor@@ 1050
deported 1050
robber 1050
adorned 1050
sherman 1050
thrall 1050
nun@@ 1050
sword@@ 1049
cavern 1049
nag@@ 1049
airlock 1049
greeks 1049
bush@@ 1049
administer 1048
detecting 1048
upsetting 1048
releases 1048
erotic 1048
drac@@ 1048
superhero 1048
flickered 1048
entr@@ 1048
insults 1048
'n 1048
rich@@ 1048
nobby 1048
eger 1048
wait@@ 1047
manticore 1047
cassie 1047
whitney 1047
bids 1047
bumps 1047
voldemort 1047
demon@@ 1047
noose 1047
talon 1047
ant@@ 1047
pimp@@ 1047
ing-up 1047
columbia 1046
disrup@@ 1046
dul@@ 1046
talisman 1046
hugely 1046
dome@@ 1046
zu 1046
rests 1046
saint-@@ 1046
memor@@ 1045
kab@@ 1045
tossing 1045
visibly 1045
lov 1045
patted 1045
four@@ 1045
watch@@ 1044
bod@@ 1044
statistically 1044
llan 1044
sharpened 1044
feasibility 1043
ose 1043
membrane 1043
stles 1043
yen 1043
asgard 1043
sew 1043
hotter 1043
crowned 1043
assertion 1043
disse@@ 1043
sim 1043
weeping 1043
synchron@@ 1042
galaxies 1042
sapp@@ 1042
juicy 1042
cork 1042
outright 1042
traceability 1042
intervened 1042
mine@@ 1042
decorations 1042
igor 1042
utility 1042
tattoos 1042
xavier 1042
slug 1042
combinations 1041
lapse 1041
+@@ 1041
descriptions 1041
ii@@ 1041
slayer 1041
barbarian 1041
inquiries 1041
llas 1041
orphans 1041
shipments 1040
patents 1040
indiana 1040
lie@@ 1040
swan@@ 1040
unload 1040
cep@@ 1040
puke 1040
leah 1040
organ@@ 1039
improbable 1039
lator 1039
succumb 1038
recordings 1038
fluttering 1038
swarm 1038
infants 1038
rey@@ 1038
rh@@ 1038
cook@@ 1038
stimulus 1038
thanking 1037
condem@@ 1037
tain@@ 1037
moor 1037
vortex 1037
beli@@ 1037
diagram 1037
mm-hm 1037
concluding 1037
audiovisual 1037
breaker 1037
mort 1036
richest 1036
ornate 1036
magicians 1036
logistics 1036
dab@@ 1036
fore 1036
vivian 1036
conclusive 1036
cuddy 1036
kaelin 1036
characteri@@ 1036
incre@@ 1036
ecological 1036
shrinking 1035
B@@ 1035
differentiated 1035
alising 1035
kenneth 1035
shirley 1035
eden 1035
then@@ 1035
.com 1034
averted 1034
succumbed 1034
alled 1034
cran@@ 1034
appearances 1034
slippers 1034
mounting 1034
kau@@ 1034
lyrics 1034
destroyer 1034
persian 1034
executing 1034
persisted 1033
induc@@ 1033
kus 1033
tariffs 1033
weddings 1033
M@@ 1033
competences 1033
rt@@ 1033
eccentric 1033
accusation 1033
override 1033
vibration 1033
scur@@ 1033
got@@ 1033
knock@@ 1032
adorable 1032
firewall 1032
suck@@ 1032
justifying 1032
vibe 1032
combining 1032
roberto 1032
positioned 1032
rot@@ 1032
tessa 1032
garth 1032
miniature 1032
crotch 1031
lively 1031
far-@@ 1031
magnet 1031
disin@@ 1031
dilemma 1031
susceptible 1031
ural 1031
anyways 1031
rooted 1031
wild@@ 1031
smack 1031
excused 1031
kentucky 1031
occupational 1031
appointments 1031
capri@@ 1030
varying 1030
strates 1030
hasty 1030
yle 1030
crow@@ 1030
fraternity 1030
ara@@ 1030
egg@@ 1029
rein@@ 1029
reson@@ 1029
impending 1029
prostitutes 1029
zio 1029
preten@@ 1029
overturned 1028
dubious 1028
ao@@ 1028
camel 1028
immobili@@ 1028
barge 1028
immaculate 1028
proportions 1028
interrogated 1028
fes 1028
sup@@ 1028
burgers 1028
weaver 1028
milo 1028
lear@@ 1027
sovereignty 1027
obstruc@@ 1027
mississippi 1027
gotham 1027
sixty-@@ 1027
trailing 1027
stabilisation 1027
ominous 1027
miners 1027
levied 1027
flute 1027
peace@@ 1027
etta 1026
renaissance 1026
gurney 1026
janice 1026
mura 1026
ast 1026
litres 1026
arra@@ 1026
receipts 1026
lilly 1026
dh@@ 1026
gorilla 1026
gardner 1026
exc@@ 1026
inc@@ 1025
blackness 1025
fragmentation 1025
donated 1025
litigation 1025
make@@ 1025
psych 1025
contemporary 1025
teachings 1025
conceivable 1025
eyeing 1025
well-being 1025
convey 1025
clauses 1025
anxiously 1024
saliva 1024
legions 1024
opposing 1024
ide 1024
travellers 1023
classmates 1023
predominantly 1023
40,000 1023
humbled 1022
aspi@@ 1022
toxin 1022
titles 1022
tellin 1022
gene@@ 1022
skir@@ 1022
peanuts 1022
americ@@ 1022
compliant 1022
exhausting 1022
conditioned 1021
edged 1021
communism 1021
mourn 1021
confided 1021
champions 1021
pier@@ 1021
tinged 1021
cellular 1021
arrogance 1021
ent@@ 1021
frey 1021
boredom 1020
visas 1020
carnival 1020
tana 1020
martini 1020
matty 1020
lindsay 1020
rewrite 1020
electoral 1020
sine 1020
market-@@ 1019
qualifying 1019
ceases 1019
tino 1019
near-@@ 1019
paraly@@ 1019
hogwarts 1019
leaks 1019
roasted 1019
entourage 1019
pushes 1018
abdomen 1018
leaf@@ 1018
complic@@ 1018
astronauts 1018
coer@@ 1018
handles 1018
edwards 1018
'il 1018
50s 1017
nuns 1017
fused 1017
abundance 1017
mens 1017
carver 1017
fee@@ 1017
10th 1017
ivory 1017
cursor 1017
combed 1017
vsky 1016
timmy 1016
entrepreneurship 1016
fav@@ 1016
garments 1016
shuttlecraft 1016
wick@@ 1016
affirmative 1016
wales 1015
supervisors 1015
dwar@@ 1015
lette 1015
andre@@ 1015
vou@@ 1015
abusing 1015
trustworthy 1015
abduction 1015
marc 1015
rejects 1015
preserving 1014
edmund 1014
quarterly 1014
blacks 1014
bodily 1014
secretary-general 1014
break-in 1014
brooks 1014
toughest 1014
yankees 1014
indispensable 1014
pleasures 1013
containment 1013
inflammation 1013
boundary 1013
brock 1013
beep 1013
sanchez 1013
guides 1013
jag@@ 1013
stroked 1013
awaken 1013
janitor 1013
owyn 1013
flakes 1013
liberate 1012
endanger 1012
holt 1012
tactic 1012
fragment 1012
abe 1012
bia 1012
press@@ 1011
quentin 1011
slaughterhouse 1011
dod@@ 1011
nigel 1011
proje@@ 1011
name@@ 1011
cand@@ 1011
incorporate 1011
erection 1011
spa@@ 1011
flow@@ 1011
disastrous 1011
zzo 1011
monte 1010
annu@@ 1010
athens 1010
palestinian 1010
25,000 1010
memphis 1010
werewolves 1010
tm 1010
residues 1010
exploding 1010
5,@@ 1010
gerald 1010
dee@@ 1010
toothbrush 1010
diplomacy 1009
truman 1009
gu 1009
pigeons 1009
stasis 1009
indul@@ 1009
royce 1009
progressively 1009
vations 1008
hazel 1008
delu@@ 1008
mailed 1008
ance@@ 1008
hog@@ 1007
fanny 1007
spotlight 1007
cious 1007
dong 1007
superficial 1006
lang 1006
horrendous 1006
whistling 1006
breeds 1006
terri@@ 1006
cupboard 1006
forgets 1006
insulting 1005
34@@ 1005
manning 1005
waterfall 1005
s.h.i.e.l.d. 1005
thugs 1005
ellis 1005
ventured 1005
conception 1005
condemn 1005
dela@@ 1005
cylon 1005
agra@@ 1004
misuse 1004
es-@@ 1004
33@@ 1004
builders 1004
entertained 1004
plotting 1004
start-up 1004
augu@@ 1004
[...]
